3D44228F
3DEC804E
BE2BF8C0
BDA1AC19
BE144806
BD12D290
BDD2A47D
BE268ED3
3CA7F7A6
BD3C364F
3E20098B
BCBF9A7F
BCE72F74
BB27CFBD
BD0B82DB
BE21C590
BDB47BA0
BDE5267B
BE09D6E4
BE2172EF
BDD8D12A
BD4541B3
3D9ADBF9
3DBA3E68
BD9F7678
BCFFBE26
BD195B46
3D952B3C
3D88C61C
BDEE1AEE
BD8B736A
BDE3B5A5
BDFEF574
BEB76F67
BE39562D
BE5BB3C8
3BDD8F5D
3DE9CBB9
3DA053DB
BDA38E15
3DC1B94E
3DB9EAC0
BDC736D6
BE58D2D8
BD8C17CB
BDD5A2CA
3DC6E74A
BE0F56DD
3E475863
BE44E506
BE05BFEA
BD0D7320
BC7957DB
BD6A3BE3
3DB15169
BCFD9A35
BDE32D6F
BD8B9262
BD1916E2
3C055324
BC69E1D1
3BEFE4D1
BDC6E031
BDEB0AC0
BD5186A8
BD047914
3D939821
3E06F559
BE2BFFFD
BDF12FFB
BDA882D2
3EA31A3E
BDEB3D81
BBA44040
BDEBE5A4
3D475989
BD5D0E61
3DB9E660
BDC8252F
BDE733B6
3DC2ACEB
BD2C2AB9
BE6EE815
3C96627D
3D2470A8
BC7C65ED
3D756B97
BE2A5CE6
3E20B4C6
BD9E62CC
BD0C38CE
BD60E550
3BCF35C6
BBFECCC0
3D0AD358
BCB69E42
BE26344E
3CA0CA2A
BE3FBE2D
BE4D4E67
BE16B93D
BDE39D5E
3E231917
3B9FA3FB
3DABF778
3DCF5317
3DC7226D
BDEAF3BC
BD805379
BE23FFC0
BDC1DF40
3DF8939D
BDF9388E
3D07DFE3
3CCD1E36
3D991611
BDC59FF4
3B8D9D57
3E1CF23C
BD5CF196
BDD4C009
3D7BBDDC
BE37FCD4
3D8866E7
BD486935
BD1065B9
BD071208
3C921B46
