BE76A51B
BCC07F57
BA664E1A
3E1D0FDB
BB9A8581
3D2D99AC
BC083CE1
3D5D92DB
BCB28DD7
3DD749C9
3CCE4C0E
BD9D8779
3DF19173
3D0401ED
3D8209E7
3CDA990E
BD214235
3C21F6F7
BBA219F9
3D9AFEEC
3D0EDF71
3C66760B
BD51981B
3DFD7591
3D45D780
BDFA8E21
3C0D610D
3D424072
3CB01E96
3D6B9B5C
3DB805A6
3D8F4B4A
3D5DD2E7
BD4498A3
BDCC9E40
BB8F2EA3
BB218355
BC84FBCD
3C0D09A4
3D18F4B9
BDBA3D5F
3D9BAF98
3ED66136
3E25DF36
BD057B88
3CD48A76
3D2E057C
BC64BB00
BC90CDBE
BD81422A
3D330C5A
3D331DDF
3CC1B059
3C8197AA
BD96FAE6
BD9A6276
3CB981E2
3C0C9C37
3D6F04C8
3D27DDE0
BD813E36
3C9CD213
BDFEC4CC
3D5BCF44
BDD25D3D
3C9B9629
3CE77306
3D228F49
BB772105
BCB56293
3CD3520D
3CF153D0
BDFF096D
3DD9449D
3CA7ECC4
3D586011
3DF19D4C
BC82B277
3D755463
3E0C7D3D
3E43E1A8
3D2924AA
3CA700F0
3D97C2EC
BC8BA21A
3CEFFB30
3D716324
BE067E05
3D98E766
3DA2C8E4
BD926465
BC83F233
3D401C0A
BD964EFB
3D23849D
3B82F16E
3D859113
BD7BBE57
BBC594B3
3C544780
BDB2384F
3D235524
BD4A46CE
3D91CDB1
3B1D2942
3D10FD00
3BA6C718
3D1938F4
BD5A540F
3AA2662D
BDA36757
3E2597E2
BC802D6D
3C97B233
BB43707E
3D1DB8B5
3CAA4DA1
BC966776
BC8C41C2
3D44224F
3D852D1A
BD3529D6
3DA871C3
3DCA05E8
BD489FA4
BD6F3681
3D9EDD73
3E186EE3
3D1BF76A
3D9FC00C
3DDFC555
3C1CF453
3DAB64FD
BE4BB4CE
BD94559D
3D574F6D
BB940F57
3CE7AADA
BD04B049
3C71B46E
BD93AD86
3C065EA1
3D73D5B8
BD9C2552
395D145E
BCAF1E4B
BD46F496
BC35FFAC
3D222902
BDADE16B
BD3F0E35
BD6D832B
BCEBFD4F
BC5680CB
BD570C41
BD8F4190
BD1142CB
BD93FF6D
3D1533E7
3C1032C1
BDA6B9E2
3D96C0A4
3CB27A41
BDAA6B92
BCCA90F8
3C9DDD8C
BDF053C8
BCB1DC0B
BDAD375F
3B870EA5
3CD273B0
3D5DA0D5
BCFF817B
3C9DDF03
BDA717D7
3D091858
3CB052D9
BBE276AF
3CFF13B7
3CE17ADF
BDB872A1
3D91DA4D
3E3309F0
3E022403
3D2E9F52
BD470E01
BDAB2F1E
BDBBEF63
3DD4F3A0
3BDA0120
BD4FFB80
BD4B2304
3C3B1428
3C8C443C
3D1E8A92
BD0D0C7E
3DDE8D7C
3D2C7CEB
3D704974
3D79230F
BD94F1B4
BDB69006
392F6D77
3D0DBD1A
3962A0B0
BC2F84B3
3D6E4B88
BD11F3FE
BD12F8A6
BDF32A7F
3D7A1723
3CD3410B
3DF8036F
3D8A195A
BD42EB5F
3DAD71BE
3D86717E
3D5A81D4
BD5B4D6E
BDA2733D
3C66CCBE
BD84DB2D
BCBF79F9
BD7BA1FD
3E0616FF
BD992D52
3E077814
3D2B31B5
3DB4EC22
3CD81997
BDEB2B92
3DE03EF8
3DA031D1
BCC86768
BD0E9E69
BC09D655
3DCDF655
BD165F85
3DD150B3
BD85EAE5
3C95B38B
3C99EEB9
3D936501
BC9CA649
3CC7ECA9
3C82719A
BC92D098
3DA36B92
BD8BBDE2
BCFBF6F1
BCFB0FFC
BD91D881
BBAFD21C
3CEA8C00
BD18876B
3D9F70C6
3DA79BCC
BCB37ADC
3D30E84B
3D10920E
3E2879C4
BD091F1B
BA9C94DD
3D4CCFE5
3DECA60E
BD7D4FD7
3E55893B
3D885771
BD9883E6
BBA95267
3D4B27BF
3DC03DE8
BD85AD69
3D447109
3D7F405D
BD9256CE
BDA90DDE
3DECA03C
BDF12AB0
3D808125
3C113CD5
BD201F1F
3D975AEE
BC8BF10F
BD0BA238
BCC0F437
BDBDFD15
BD3C2BFE
3CE951D3
BDF39C2A
3CE0BAEB
3D9E2BB3
3C3C7A5A
3D538962
BD68B04D
BB49ECBC
BC19309D
BD9B7F6D
3E1CB08A
BBC40250
3D45FDD3
3A73400E
BD48A5E1
BCC5DF32
3CDFED8C
3DCF93AF
3DCFD827
3D22D926
3B334305
BDD81289
BC8B6DF8
3D592C84
3C151731
3C373E50
3CE0B918
BE16FD51
BCB0D8F1
3C9B6AFB
3D1A0504
3D8BC0C1
3DB2867F
BB335727
3D9276AC
BDAE791D
BDAAE68E
3DAF53C5
3DC02EF1
3CBB40C9
3D4063F6
3D335E9A
3DC0AF48
3D777F0D
BC45AD5E
3D8C9949
3D4468FB
3CF84E7B
BC01262C
BD3B73CF
BD80885A
BDB80D6D
3D18CE73
BD29B56E
3D61D956
BD84A235
3DC41581
3CB8D4C3
BDBEB4C3
BD4AA6EB
3BB8D100
3CC7DA24
BD47A5B1
3DB2F4BC
BCB8132C
BD43668F
BDA8968F
3D180517
3D9E8FE0
BDA88319
3BCA09D1
BD43DD2F
3CB70EE5
BCB6D9F7
BC67D978
3DF3F9A5
3C4328CA
3D62CB5F
3D2FE439
3D85C6ED
3D14B412
3BEEB5F6
3C1E4342
BD534819
3DDAC2B7
3D5B7A0C
3B4D2F40
BCDCDC8A
BD34C8DA
BD8936DC
3D201BBC
3D9020B3
BCB9C7D2
BCCE429E
3D8EE5DB
3D1B7E86
BC6E553D
BDBEE198
3B118B94
3DDC4015
3D3C74C6
3D3F24D4
BD2C4820
3DC9234A
BC1FCAEC
BD859E33
BD5419CB
BD849945
3AB735C8
3DAA88E3
BD0ED67D
BE26A883
BD348307
3D7F361E
3E26A3E6
BE514805
3DD6FC59
BD861562
3D71D324
3D8F72A0
BC14FF96
3D89C689
BD7C3C29
BBA39815
3D67C12F
3D80CBF4
3CBDCCF0
3DB52F35
BD4D889F
BBCC2417
BD3A039A
3D54CD1C
BD61D8A5
3D18B777
BD1E4F89
BD68AD4B
BBF4CB23
3C8C076B
BC2785EB
BD0F0117
3D85177F
B9F48118
BDA667E4
3C1A32F9
3BF4A2A3
BD17EE61
3DC460AE
BC9B2A38
BD8AD2A7
BDB8D472
BCDE6C21
3D7CCFDD
BD349DC9
BDCA244C
BE3A465A
3CEC4E98
3BA50896
3D1C0CD1
BD51E77E
3E0147C9
3E055D3E
3DEEC81A
BD1611A5
BD3CA235
BD7F3E41
BCD1C361
BC1ADF34
BBA41C34
3DB04DA8
BD417C52
BDDE4A96
3D64DD78
3D02D82A
3BC64BBD
3DBB9477
3D9F6E17
BDCF9C98
3DDEDD8B
3D94F436
3C87A810
BDC733A7
3D0D0B41
3D447487
BD525077
3D37F5C3
BD290745
3CBC9DF0
BD609231
3CF12262
3DB90E9E
3DA4AB5F
BDA76618
BB8775D6
3D9A8A69
BD34A2A7
3C66C3FA
BD48365D
BD96C6B8
BC8FB097
BD7E2598
3C66B9E9
3D2243F0
3DD14410
3CE99CDC
3D476133
BB8FFF54
BB0A2F80
BCDA0509
BC954A19
3D805565
3B9FD48B
3BC6C183
BBFC1EE8
BD02A11F
3CFE6CC2
BDC6C1F8
3D9DA5C8
BD8665E3
BD0F94F1
BC8E4C03
3D97F40D
3DF199F1
BDC7EFEC
BD4951F6
BCE39393
BBE2F722
BD0BEA34
3D3F3BD2
BB35D30B
BD3C71F1
3C7AEE1D
3DC2D894
BD963B46
BD43F50A
3CDA849B
3B9F6D6A
BCF62291
3BC280CA
3D81CAC6
3D13667A
3D20D400
BC8251BA
BB856416
BC1989F9
3DE498DF
3CBB02A0
BC9F28F0
3D894205
3CBF076D
3D9EEA95
BC72E0BD
BD90BD7A
BDA5E43F
BC85ABF7
BCF64D54
BC58F0DD
BC82E0E6
BC1753F8
BDA90A2E
3DCD79B6
3D160789
BDC61883
3D44968B
3D17B23B
BE066C03
3CF3CFE6
3D3A4A4C
BD714BBD
BD60ED60
3C2C5218
3D5D99B4
BD79F458
3C27EC83
3C8636E6
3D34ACEB
3D81A6B8
BD126A53
3D9A845A
3DCE8152
3CCFE08E
BD8D603C
3DAC4407
3D96B7C4
BD63BE08
3CA10D71
BCB37B32
3D8331EE
3BE113F7
BD4552E0
3D331BD1
BD887F2C
BD787EAA
3D897463
BDF40F3E
BDCE4C94
3CFB0940
3D54ED7B
BD72CA22
BD0D2756
3DA4F558
BD3350EB
BCE9C86B
3BB95E05
BC826C9C
3DDA067F
3CC42A31
3DA6248D
3CB84E40
BD8BDFDC
BD9BE551
3DA3F6B1
3DBF8733
3D859783
BD43EB8A
3D4EC68A
3C8A18FE
BD202F07
3D76075B
3D5488B6
3CF94454
3C4A96E8
BCB09FC0
3D69C729
3D1D9D52
BB280BB3
3DABD085
3D92BB94
BD671456
BD5209BD
BC0A76DF
3C41DF08
3D83773D
BDABDE79
BC702C18
BD4DB5C0
3CD5DED4
BDB89E48
BDF0431C
BC90DEB0
BDEEAC00
BC414A22
BDC7F9E8
BC12CF1C
3CD75CF9
3D19A202
BD8CF944
3D794B38
BD91EC2E
3D48D480
3D51D080
3DAFBBF8
BD78C0F1
3CDA3AA4
BDB69FED
3DFB7EFC
BD95EB7C
BDF5157E
BD5A4D2B
BD8EAB5F
3D374165
3D91EB3D
BC0FC2AE
BDA8C555
39D8E63D
3D51145D
3D8CC925
BD0FA509
3D7CFB56
3D57A43C
BD261D6E
3D8CB363
BDEC6830
3D2FC334
3CD16070
3D447B5A
BD5F7A59
3AD05ABB
3E0FAAC7
3DDB7798
3C9978FD
3CFE88A7
BD532F5D
BC421A62
3B8BA4D7
3C3025A2
BBC3ECB2
BD0E9397
BCE7A322
3CEE0384
3C400A47
BD8D1472
3C623E84
3D63DD0A
3D6B5DAC
BD85E932
3D72077C
BC29BA6E
BCD80EC0
3D943782
3CDEA486
3DFD0F55
BD2BA977
BD4F7ADF
3D6E6330
3D9C6F15
3DCD1915
BCF4DD72
3CE489F8
3D3C7328
3D0942C4
3BA6FB3D
BDDB3CFA
BD0549AB
BD350C21
BCE512A4
3C78AF69
3D6872A8
3D5D823F
3D6623A8
BE0D3431
BD7A5BD7
BD6E948E
BD222C63
BD06BBB4
3DF23B29
3D29B655
BD48F0E0
3B51C551
3DE4AE5D
BE0548ED
3D7F02A2
BCCC26DA
BE3B6CB7
BCA5CF07
3D74D138
BDADAE97
3D697FB3
BD5412BF
3C816A79
3CA9A8C6
BC7A2CB7
3D27DD77
3D009B23
3D6FCE85
3C829BF7
3C019902
BD4E4CD5
3D37589A
BCC0C964
3C0C3C79
BD2BD157
BDA06653
3D6A91E2
3DF34F40
3DE4DE64
BC4F875D
3B92551E
BD30027A
BC5999C5
BD210F9A
3B96725F
3DC60B1B
3D8ECC54
3B42655A
BD895BEE
3D6DF98D
BD86FEEE
3D1D7752
BD109CBE
3CF7E0B7
BB9D0260
3E233347
BE2334E1
3D0EB916
3D321206
3CF46DF1
3D4E315C
3DA106C5
3CE13712
BBD804F3
BD58BE4D
3D2AC746
3D30D68F
3DA3202C
BCAEB6C2
3D2F42AE
3D84A2C7
BD32DE11
BD0176FE
3D8A2DBB
3DC47483
3D2EB2D6
BDF5C8A4
3CE753D7
3D50F144
BD17EBB4
3D764FF3
3C9FE5E4
BD1087A5
BD59A550
3DC46F3F
BD154775
BD30B669
BD1D1847
3CA1D4E2
BD9B5DEF
3CFD11DF
3C8BD4D5
3CAB35CE
BD185B84
BE48A5E9
3D741518
BC3B7B56
BD238EEB
3E058F21
BB0E928C
3D8A84B4
3DBC2FAA
BCAFF6CE
3D110FD3
3D159BF4
BDAA6367
3D73528B
BCF52ECB
3CD17F0E
BD367694
3D74FEB5
3DAFA88F
BD02D52F
3D524A45
3DAAD86F
BDEDEBBE
BD9E0043
3CF193F1
3CA10D61
BDD75643
3CFDD4B7
BD86F136
BC6FB626
BD347042
BB926501
B9E54E2A
BD0A2494
BD7B3F2B
3D76C9C6
3D70CBE5
3D8AFB60
3DB5F72B
3D740828
BC2BE6F9
BD5309F6
3CE931BD
3E0107D2
3E273669
BDA2A1CD
3DB3805D
3D1A62ED
BC5AD85E
BD98940C
3DA33A1F
3C6AE65E
BC3486BB
BC5B1D12
3D0A49E3
3D37FEEA
3D310056
BD2520E1
BCC7E8BD
3DC5C905
BD2944CB
BCD98283
BCB66FA9
BE046DAB
BD1D1882
3C32D433
BC9354A6
BCDBAF13
BDAAC6A7
BD8A089C
BC4DCAD9
BCA88F71
BD2770B2
3D61B5D5
BD315FA4
BD8CF3E9
BD0A8A25
BD9A8794
3CAC200F
3C460614
3C5FE457
3C9C2991
3CFFCE3C
3D96703C
BC9C6297
BD663B13
3D977559
3DC58D5E
BD15CAA2
BC668631
BD40E27E
BC9E527B
3CFEB49C
BD545CDC
BDD8853F
BCE22B49
BD09A419
BD993845
3C9810D8
BBA6E835
3D9F4E5F
BD36AA9F
BCC5ECE4
BDA5E28B
3D31AC2D
3D86A17F
3D8FBCE5
BBE8DBF5
3D9E6B78
BD9BE94A
3BEE1CF8
BDED3515
3E015A30
3D950653
BDBB7002
BA56EB3B
3CE38FD2
BC0A3F6B
3D93451F
3D7B9C8C
3D8684F6
3D5D9FE1
BD980578
BD055A2F
BD523A42
3BB3A655
3C25CAAA
BC69C952
3D620454
BD1429CB
3D122AB5
BB3EB584
3D9BBBFD
BD09F52F
3E30BE87
BCE7ADD9
BD5602D4
3B9857BD
BD02023E
BCB91535
BA70C826
3DE6DA7A
BE272F34
BC7D3001
3E078DB5
3D99D9EB
BD7B6915
3D1091CB
BDBD0B12
3D623D5F
BD782C19
3DC8CBB1
BC821C1F
3CC74519
BDFA8C3E
B8D97A28
3DB3778F
BD66A1E8
BD11D238
3BCC0A3C
3D145FFF
BD16EFE1
BDC92438
3DD5FC8C
3C7A7180
BC3F5CA2
3E1E27AB
BD43DDD6
BD7E3418
3D2CB6B8
BE133FF1
BD803419
3B2DABF1
BD5C2B1F
BE0680AB
3D2EFC85
3ED5F779
3D3F870C
BD742102
3DAFEBEB
BD18057D
3DB0EAA8
BC34D7F9
B92FBB6C
3D0112AD
3D28E4F6
3E087966
BD0F9650
3D22031A
3DD747B0
BB109887
BDDF2750
3DD9DC14
3E6D77FB
3C92D682
BDBF283D
3D3D6EE4
3D683787
BD73CC3B
BD8A1B5A
BD06B5E2
BDCF76F3
3DC5FE40
3E33DC8C
3C05BDF7
BD17359F
BD9633F4
BDB8D4FE
BC408287
3CBFE2D4
BDBAE89C
BE0634E2
BD934D82
BE02CD1F
3D930FA9
3D475391
3DB77DB7
3D3018B2
BDAA4A35
BD8A14C7
3D3C7E2B
3E045B6C
3DB5A646
BD9ECF69
3D3ED388
BBA41F19
3CBB6E76
BD0CD3DB
BD3F1E13
3E016F44
3CCFC33C
BE086A90
3D7F0C04
BDDD4654
BD18E3E2
3DEEF39E
3D59A1DD
BE153D93
BCFD1CA6
3D0E1019
BB9077DD
3D95A9A1
BCED98DA
BD041393
BC62737D
3E074B26
BCB53358
3DB76688
3CED302F
BD4DE226
3CF0E24B
BC8E9458
3DDF9B21
3DBFE3A3
3C94F865
BD44DB0B
BB602816
BB8404EC
3E118542
BDA7F1E6
3D2706F5
BE373D33
BD3261DA
3D6B0948
3D122D7A
3D8A5F50
3D28BE2F
3E683871
BDD6205B
BD4C0D32
BD344A5A
3A4238D1
BD5A9733
3D2884D4
3BE257BF
BC84B953
BD8EEB8E
3DD9FF78
3E05587F
BC476940
BD631F5F
BCCEAE89
B8D28F13
3D6132D0
BD34B826
BDAC9FFB
BD67C122
BE0FADC4
3D7ACF1C
3D336FF2
BC4497CA
3B9F31FD
BCFB8AE0
BB963468
BC6CE216
BD370517
3C33E50A
3BDCD25A
3D1A7A4A
3D65FDD9
3DE4F98C
3D8AD26B
BBC32922
BDA88907
BD35BC22
BD161223
3BC10F86
3DAF70CE
3B20C90E
3D1CF8A7
BE40DCD5
3CE23D27
3C217A31
BD19CBFF
BC8A1D85
BC4E69B0
BD163B6B
3C1195AE
BC80D802
BCDDAF53
3C9A7D19
3DD037AE
3C798141
3A0240F0
BE2D81CF
3CE46042
3DA7898F
BD85D04C
3D6FC250
3C9075FA
BCBBD76C
3DB5501A
3CB9F778
3D492BE3
BD9BB399
BC838D23
BD1AC4E8
BD290603
BD2F4AAE
3C68E4C6
3CC8EA1A
BCC00CF0
3CE4AD84
BD3BC5C1
BDB6C3D9
3B346902
BDB5D933
BDB3B877
BD152FA2
3D0AB924
3C6CFCAE
BCA37EA0
3D6F9097
3D869FF8
3D9C0EF3
BC34B26F
BD88CE26
3D339429
BDB87D97
BDB5773E
3BA9939C
3B814899
3C0B4E03
BD98AC16
BC0A64B0
BDB85B4E
3DDC21FD
BBF4EB17
3DDAF908
3CFD587B
3D47DF6A
3D977F8A
BE0C6D17
BCD5F647
3DAB00D8
3C0CAAA3
3CF4C04C
3D8E73B4
BDE97D72
BDDBAF6E
3D1C6683
3D6B857A
BDCC297D
3D995C9D
BDB4728B
BDA398E9
3C8A5BEF
BDE1A1E9
3E057ECC
3D564CCE
3D418B8B
BD8C7EA1
BCBC98F3
BE0520A9
BD283B02
BD0FB1E7
BCE01F04
BC083202
3D4A99AF
BDC59D73
3DC7295A
3DB7B4CE
BD80D7FC
BD03CF68
3DF69022
BCD12923
BDB00ABF
BD9E1A97
BD4ECE01
BD1BCA3E
3C0DD5A5
3D4BF788
BD0631FB
BD4F7BE7
BC3AA598
3CB89C74
3BB25A05
3D8172D2
BC9DA689
3AE5AFBF
BD5C0B46
BC8BAD48
BBF5945F
BDFAD256
BD8DF2A8
3C32E590
3CFAAE42
BC95AB3D
BD689682
3CC3F24E
BDA245A6
3C0F1C2E
3DB1D082
BB43BCE1
3D09236A
BCA6789A
BDD668DD
BC9F13E7
BD0E29F2
BD9DBCFD
3CFDBBA8
3CB57F9E
BE3B892F
BD4E5E7A
3DB40B67
BCF2813C
3D85E9BD
BD187F86
BDC2B2E9
3C3D3A53
3D7BAFF2
BC946496
3C6492DC
BC0196F9
3D3D640F
3DD24B4F
BCEEEB3A
BB7D4798
3DA24185
BD3C1FE9
BD7B8986
BD8816DD
3DDB1E34
3DB86294
3C854331
BD3539C6
3DAE384B
BCFE7775
3D0EE0D1
BDBFDA17
3D008A09
BCDC3E44
BC34EC7C
3D8A0994
BD31539A
3D2F4B85
BC139C19
3C6DA83A
BDB2774A
3D32F63A
BD21C5C0
BD7BAACE
BDCECCD2
3D5A66CC
BD48D163
3D60AE9C
3D7CD863
BCDF06B6
3D2AEE9E
3D9CB043
BDA0B70B
3D58E0CD
BD4FDA50
BD6283F6
BCBC781B
BCBEB989
BCE2ED50
3D168DD9
BC8A66EC
BDDC2B1C
BDC532AD
BDA4010C
3D99D0CD
3CE47CED
3C8CA2E6
3CBCAF69
3DBFF92F
3C045D24
3C9E488B
3D032122
3D77FA93
BD74026E
BC816601
3D530C1F
3D90C4A2
3D1318F7
BAE2EBB7
BCCBA7E4
3CF9660D
BC968609
3D9152B2
BCAE5D30
BDF858BC
3D64B17D
3D184F24
3D30A966
BC1564F1
BDDD764D
3C3C06B7
3C801A52
BD49B779
BCCB733B
3BD0244E
BE1B388C
3C963018
3B0B3BB7
BC83A74F
BC01ED5C
3CC3FD30
BCF74A5A
3C774F57
3D0D07FE
BD28CADD
3D6902E9
3D40710C
3DB98EED
3C076583
3BCF5DE1
BB723766
BD77823B
BBB80EBA
3C1EF114
3D91ADD9
3C01A8CF
3C93BC0F
3CD6E2C6
3C840D05
BCC160DE
BC4D8B84
3DCA7DCF
BCA541B3
3C9AC8CE
3CC8845E
3D06378D
BD63E1FA
3D85E3CA
BD1ED294
BDC00A04
3D428C0F
3CAD9B64
BDBDD8B7
BDA2A752
3BD4A11B
BD986473
3D7B4A0E
3E91CD37
3DB054E9
B9396D90
3D0949D6
3D81F0F4
BD3C20AA
BD21D5F1
3D0375B9
3AE3C8F0
BD99DCDA
3D1EDC92
3CC0FDA7
3D8B0FD0
BDA6DE41
3D1EA4D9
3DA148A4
3DB3C789
3DAB5311
BD984BD7
BCCB09FA
BD031B4B
BD5F6D2B
3CA24A62
BDBC0A27
3D4E9D7F
BD8CF2F7
3D931D84
BCCFC129
3D0926AA
3D6B3302
3CEEA6D7
BC49B31D
3C785140
BCB29960
3C3D00DD
3C249A9F
3CF4DE94
3D30049D
3D9A791F
3D920FF7
3D05C0B7
BD831D54
BC3D5988
3D06BDF5
3DB23A5E
3D37AB32
3DC82FEE
3C21EC1C
BD092A89
3D1DB2B6
3CB0940C
BD5C6CC0
BD7881BC
3D8E84D8
3D1F22DE
BC9B2641
BD84EAF6
BCE2266B
3DA6E881
3D78B378
BD68EDB8
3DB2224E
3D51DE8F
3CE0CC63
3D4018AC
BD39BA33
BC92F591
3C7FE0EC
BDFD0EF7
3D82DEEA
3D97A4E4
BCA85112
BD42FBF1
3B91FB93
3DAF49C9
3D251767
BDC4B5C9
3D0D5FB5
BD7A3D46
BCA83D81
3DDC1044
BD3D971D
BBD10536
3BA6BCA9
3DBC6DEF
3D8A9178
3C6BE2F2
3DC08389
3D782210
3DBC5C81
BD89255C
BE86EBE9
BD42428D
BDAC62A8
3DEF907C
BCC1A359
3B46583F
3D457113
BCE00BC9
BD813C85
BC86A1D5
3D77952D
BB782902
3D5D3D4D
BC1F653F
3D873DC0
BD66B05E
BD8C9C9E
BD4A22F1
3D989AB9
3BCB6738
3DF21BE9
BD85208A
BDA198DA
3D7CB7EA
BD4A681E
BDA0DE44
BD84ABA1
3D4F8785
3DA8A49C
BD166468
BD8A8546
BCEF5E37
BE15B92D
BDCE1834
3D8A73A0
BDA9F8E6
3DB8A55F
3D310348
BCB82378
BD95B59F
3D08CB10
BD87FA8F
BDE153E5
BD34C943
BCD7F6CC
3CAC4273
BC41F502
BCF25AF6
3DFFE1DA
3E16BE16
3DA7E36E
BD9E5FFC
BD5FC15E
3D9752F7
BD750A61
BC2361E1
3D023CD9
3DFDC784
3CF61D38
BE17D871
3D8D3138
BD4C82FB
3B145304
3D1E31F7
BDA8B210
3A8659CC
3C7F3387
3D8F2721
BDCEDA16
BD17F38A
3C83ABD7
3D9FA730
BD983E64
BC0AFAC1
BCE43A1C
3D17B7ED
BD213B9F
3D62DF93
BD2BA682
3E091C31
3D8FDFCA
3A59F926
BA83D8CE
BC42B897
BD529BFC
BD08D190
BCCE5563
BD86F226
3DDAAB55
3DF70260
BC8CB0C8
3D48F105
3D440AA4
3D57EBB7
BDC63436
BD32D969
3D1E2966
BE19AFAC
3BB3A99F
BABC311E
3D1D437D
BE33950F
3D8C619B
3D941E57
3D2CECE0
3DB2C00C
BDE190C4
3D06402B
BDB2A99F
3D217BE1
3C13828E
BD3CD70E
3B937D51
BD5BF163
BD453BBF
3D98BECB
BD517EB0
3D5D5614
BD69A888
BD991691
3D078944
3C6ADA1E
3CBA7176
3DC88077
3DCDCB14
3B2B8138
3DCA1D90
3D61BAF9
BD085B26
BD4865AD
BD5239D1
BC332F4D
3D98C0EF
3E2209AB
BDD38EB0
BD192C34
3C3DB3EB
BA70DBFB
3D15F2E9
3D6A8B19
3C3775F8
BD87D23C
3D1C0071
BC1E5A7B
3DB692CB
BDCF3486
BCD3BDED
BD6619D5
3DA25374
3D06E303
3CD3B08C
3CBBA00F
3D4D3181
BDEF5771
BD860B24
3D879999
BDE0743C
BBADBB31
BBB376FD
3D6FA37F
3DAC2082
3D305E9D
3DA4E8E4
3DB12109
BD9B0D5E
3DB9F4FE
BD16357F
BD2DC9A5
3D8FFC5D
3C31360E
BD94B209
BDA9D93C
BD1947D8
BD3FA001
BBE4BB38
3D7C5937
3D663267
3D795894
BDCFC306
BD62C082
3DBF17CB
3A87673D
BE0D2660
BD70536D
3D9CCEBB
3C862A61
BC56E54A
BD13B9A3
3CE49F01
BD8366B2
BD8DC1C3
BB7E09AC
3D2DEE98
BCACE02D
3D7E0071
3C418DD4
3B901FC2
3D9647A3
BDBFF089
BD3D5D5E
BD897641
BBA56E0A
3CB2CD5D
BD334F8B
3D84ABD4
3CF9A3CB
3C9E60E9
BC2024DB
3D4AA35D
3DB6001F
3D18FF8E
3D5FBB49
BB323706
BCE2A064
BD62EA50
3C15CF26
3D8AF3D0
3D0981DF
BD8F0E3E
3C8826C0
3CCB9E0E
3D356D80
3B6AFC4D
3D979FF7
BDF1B732
BC0E49AA
BD1D49D0
3C1BE97D
BD5D4E5F
BDE9218A
BBB49C3B
BD61B3BA
3DB8FDFC
3CD2A168
3D04D473
BDA2400D
BD60A638
BD89856A
3D5CC439
BC0A149B
BD959CEB
3D974DE0
BC7F6D5E
BCC75C7B
3C88F740
BCC8E049
BD957CE9
3D98B645
3D701859
BD2CACA1
3D9F5211
3D5C1758
3C6DE907
BC8D64B2
3D901EC8
3D69CD51
3D93F31E
3D4976E2
3D9BD2F1
3BE8ADAB
BE124EED
BD90B99C
3D683FE0
3D5ABA0E
3B84F498
BDAEF0A8
3D8CCB87
BD3772B3
3D33C1A9
3DD2CE2B
BE58A95F
3D15263A
3D6BD586
BDB6844D
BDA61C4B
3CD05C9F
3CB4A3DC
3DB1EF1E
3C9AEFE0
BC43989C
BD1AA949
BBB18F8F
BCD2EC2B
3D29E547
3C81581A
BDBAB73E
BD250378
3C01AC4C
3DD4A036
BE08AAEB
3D9ECBAC
BC68B25C
BCFC2F7B
BCAA1E11
3C9B8EF7
3D0C440E
BC32F017
3D0166FE
BD8D383F
3DFEC9E2
3DA93C6F
BDAE23AD
3D1FF7D5
BD905389
BD15AFD5
3D38F93B
3DD064DF
3D364E18
3D8AE9DE
3D219579
BD28A0EE
3D40AC80
BC45DA1F
3D1C9715
BCC6BAFA
BD669A4B
3D5E190B
BCC5EF9E
3BD1AF79
3C410CE6
3BA2B860
3CA2B847
BD1B8156
BDFEBDFB
3CDB0A4D
BB15D964
3C272B32
3D8AA388
BC86FE97
BD488542
3D820146
BD539693
BCCAE24C
BD2979C4
3D58F2BD
BDBCD1EF
3D90AA18
BD9CCF3C
BD561DE4
3B6A764D
BD8AD136
3D15975F
3D1DD9D3
3D40EBEB
BD93DBC0
3D1A4E02
3C915F2E
BDBA18CE
BD634676
3CD3D7D9
3D674EF7
BD5D2DA5
BDA11159
BCC7A870
3B91334A
BD426A9E
3D90E24C
BD9B9EB2
BD806DDF
BDA8CD8D
BD82F58B
BD6B145B
BD791E24
BDBEAC6F
3D95B00F
BD3F5124
3DD8BD59
3D14B938
3CDA8725
BDA2B86B
BD4B61DB
3D81C47A
3DA30784
BC1CFA3C
BCA88BF5
3B5399B0
3DA1D573
3DE4301E
BDE055EE
BD8CAD7D
3D90D29D
BBCD5ABE
3D32AC60
3D450DF7
BDD1A6FF
BD2D7C4A
BD601470
3CE770E3
3D27DF70
BD36C239
BCEC7925
3D027CB2
BDA7EA9C
BCA409AA
BC303049
3BAEC76D
BB62D965
BD51C9FA
3C962D1E
3DE7248F
3D8FAD73
BD78EF83
BE0709D9
3D37BC5D
BD75E0E0
BC8548BA
3B88767E
BCA11E73
3B53C173
3DB9F455
3BF1D18B
BD0EEA77
3D20B1E9
BDCDCD8B
BD3D8AB2
3CE03041
BD568573
BDDCF653
BD91AE13
BC48C79A
3D964317
3BDA066F
3D047D38
3DC059D1
3D1D0981
BDB6E973
BD60CBDD
3DA38459
BD2AEA85
BD244C43
3D96A7E9
BCF5ACBB
BC29D7C0
3CFC515F
3CF918C0
3D3E2847
3D8E56B5
3DA443F5
3D05DBCF
BD9843B4
3D34AAAD
BE07FAFE
3D06E245
3C926848
3D49D77A
BC1CBBA3
BD6F6A97
3D956E57
BCD4F1EF
3CB017A5
3D1D22E1
BDBB8B54
3DAD529F
BCCFDA83
3DB5D163
3D03EFA1
3C205FF9
3D59C4ED
BCBBAD50
3BE7B1ED
3C732983
3D676B67
3C6CDF11
BBF7EC80
3C400B9E
BBF1E7AF
BBEA2760
3D0B085F
BA12FA77
BD15E316
BCD15644
3BA188E7
B7A01253
3C7325BC
3D204189
BD37E013
BD3B90C8
BCAA8245
BB89562F
BD4B1EE8
BA1B966B
3CA08E05
BDCA5D60
3DC360A8
3D0E4EA2
3B493B95
BCD069EB
BD02809E
3C4233ED
3D686C9B
BCC405C4
BD8F061A
BD72E177
3B8FE5A6
BDAB1859
3B4EF655
BD815CE3
BDB0A387
3D05A54E
3DF053AD
BC9F4A89
3D893340
BD1B4891
3C93B2A5
BD967665
3DD922A4
BCAF95BF
3C405068
3D86B0E8
BD75F5D3
3D63ED1A
BD35D60E
3C8A9CB1
3D5C0074
3D082688
3DADFFA0
BD553DD7
BDA08DB4
BD749731
BCAF9D97
3D97D0DC
BC83371C
3D81BB17
3D561C7F
3DA10097
BD9BE927
BDB97E54
BD33ADC5
BD2C5B28
3D1BC223
3C189C19
BDB76A3B
3E4A0847
BE0F4E8E
3CD1C087
BDD179CD
BC985D8A
BE115190
3C080488
3D254813
3C78A3AB
BD706601
3DF4FF79
BE5E0122
BD762A64
3D4E9519
3C8D7CDB
BCC51EA8
BDFFF8D1
3DAB6FA4
3DD8C840
3E0528A8
3DB1189F
BD61B4F1
BD4A1A58
3D310F9A
BB563E8C
3C143A37
BE3546F6
BC14FD20
BD0D7ED1
BDCFECF8
BB8CDEF8
3DD0885E
BDF6CCE6
BC81E192
3AE7C0E6
BD0CAB72
3E0B0F9A
3C0A0A71
3D7CBEBA
BDACD255
3DD71E7A
3E411516
BE552906
BE4771A8
3E0E325D
3D08EC78
BDCC2A8C
3CC0F48D
3DF36EDD
3B753E46
BDAFE370
BE09D03B
3D15ABC1
3E075496
BD512AE6
3DD865A2
B9E0509D
3C8D0B8C
3D81CFC9
BE82AF90
BE0B53DD
BDD2ACFB
3D462487
3E18805F
BD9EA0CA
3E255186
3C150459
BDA719B8
BD11D949
3DA95550
BD0205C7
BD8B58D5
3E206E20
3DAE05E1
3C6E2CAE
3D2AD289
BDBC86B7
3BB65EE8
BDFEF970
3DC625FB
BE226685
BE13876D
3D990F18
3DD00DA2
3D363DA2
BAA37A07
3D576D34
3D793B25
3DA40758
3DEEE3D6
BDAC9D6C
BDB88700
BD26E62B
3D628891
BD73257C
3D30CB9D
BDDF776C
3E635AB5
3DD17911
3D9678D7
3D382AE7
BD94E00C
BE3C9A93
BBC57A66
BDA426BB
BBFCB2F3
BDD6E5B2
BDF98B2F
BDA1EFE6
3D7B654E
3CEC2CD4
BAF2F363
BDB48D42
BC53440A
3C6BEB0B
3E3C149E
BDE908A2
3BD6BDD6
BC863BBE
BD311516
3E031777
BDF86310
BC90ECCD
BDB7A1FD
3D765585
3DACC832
3D5B7F62
3D9CBE6D
BCA15926
BDBB35AF
3E2732AA
BE1F2CA9
3DFC51C0
BD8FCF2E
BDB17B21
3DB19507
3D6E56FB
BE7C09D1
3DC85309
BD34E4FC
3DC7AA42
3D49B853
3C2247BD
BD363198
3DE68B0C
3E019C54
3D9B1279
3C5CC8C3
3D9869E0
BDC9B395
BA8AE304
BD59EA09
BD0AF430
3D3A6216
BD9F31CE
BC00ADF0
3DDF5566
3D1EA1DC
BD23C9B9
3D0E851E
3D995B05
BCA0B425
3DCCE605
3D501B99
3BBD43C9
3DAA8DC5
3C25E8DD
3D89B8AB
3CD25217
3D8224F3
BDFC7A6F
BD73D7C1
3CF1804B
BDAC36EF
BD47E5E0
3E225DAF
BDCD2857
BDB1A4D7
3D28507E
3C8ECBFB
3CF8BC8A
3D1DD739
BDB66DF2
BC883091
BD82DF14
BCDCEAFD
BD3182FF
BBC77BC2
BE0F0D34
3BB64C08
BD2ACB60
3C6A8423
3E050727
BD936978
396D1488
BD7CDAD7
BDA08803
3DA3D331
BDBA2CA8
BC37905A
BD648040
BBD85503
BDAB044F
3D27BFC2
BD597B8A
BDE67D93
3D046377
BC494046
BD988FDD
3CD5C183
BD93B0BF
3DBA2EBC
BD6B6C27
BD11CF8E
3A3AA004
3BF1CD04
BD82EF36
BDA29DBB
3DC3BA04
BCDF6338
3CD1468F
3D101CAE
BD9F23B8
3DBFAAAB
BA5D72FE
BC3585BE
BE0DC6DC
BD5F88BC
3DAFE759
BCB1AAE3
BAD12C61
3D0D8094
3CF0941D
BD846583
3D9421C2
BC3D129B
3D82F3B4
BDBD0985
3DE2AC75
3CFB8C78
BC90D5C1
BD80BF78
BCC21FD5
BCCD4AFC
BCB4BBDA
3E41D0AD
3D25E41D
3CDEF482
3BE57FAA
3DBB9D1B
3D618A5F
3B3317C5
3D5EE680
BDA02D3A
3CC38C06
BC4B63E1
3DAEFBD8
BC301EF7
BD9C4A30
BD848AC9
3E0337D7
BC14B5BB
3B75FA72
3D1A3EA8
3D9BFD78
3B5525B7
BE3A55B7
BDF4FA05
3CFED751
3D87F69C
3D18FCF9
3D358629
BBCF9E54
BBA38D2B
3CC17494
3C674B33
BA96384C
BD04B9E6
BB4BD748
3C4744E3
3D3C36D0
BD14000D
BDD90448
BD8CF7E5
BDA1EE85
3C0CE3EA
3E0DD540
BD746418
BB9C1477
3D39D91A
3D30AFC3
3DC35712
BD6F9BA4
3DCCDE0D
3C037BF1
3B327612
3B83FC1B
BD8833C9
BDACEE28
3DC2B55B
3D9003B5
BBBFF8D4
3E6BE696
3C6D323D
3C6FBD1D
3D7325DA
BD68153D
3D902374
BDD70E8A
3CD7C15D
BD1E919E
BD3684FA
BD6247F4
BD847AB4
3DD77143
3D9BA288
BCC54061
BD911836
BD158776
BDC3EA09
BD1EA3CD
BD18E28D
BCFDEF9A
3E09373E
3D214DA0
BD87167A
BD2E4AE4
BC92CAF3
3C4A0FB9
3BF1952C
3CC3A5B2
3AD474AE
3D3DF9C6
BC0EFFC6
BDBE5FDA
3D005DDE
3D4C4A18
3D1A35CE
3E0B0ED0
3C06E833
3D8B16DF
BCC345CB
BDFDE904
BD82CE1A
3C065189
3DB16650
BD89DA25
BE0876E9
BD54E687
BC95348A
BD1A624C
BC0E1B92
BD3EFBB1
BD2E5576
3D1835BC
3D8C9CDC
3C678B5F
3BE84EC5
BDCCF38B
3D9EBB01
BE3194DB
3C9DD3B6
BD051020
3E397E71
BCD70C3B
3CAFE4DA
3DCB2980
3D093AC7
BDFDCDDC
3CE7C2C7
BD4E4D50
BB9E27A0
BC8221C3
3D572D28
3C9BE42C
3B2EDDC6
3DD6B046
BD029D3C
3C818A74
3DA6A438
BD4FB555
BC257E7F
BBB03A23
3CE332B0
BDADAF52
3D768EA5
3D2BACBC
3D793583
BC919818
BD93F08D
3DDAA708
BD76210C
3BC3ACDC
3DF3F83A
3CD3E723
BD38EF07
3D04E2E6
BDF38010
3D1B963C
BDBB38AA
3E10FEA6
BD6CBD8E
BCC8F0F5
BC996E10
BDB42C86
BDE9492D
3DA394DB
BD9CBA1F
3D084180
BD90AB27
BD6FD471
BD39C74C
BD53DB7C
BD33EEAA
BDCCB97F
BDCE0349
BD31C918
BC8FDF97
3BFD5DA4
3DA2446C
BD1D5FE8
3DA87A85
BE08E0A8
BD89FDD0
3D30CAB6
3E2CAFC8
BDD08FEB
3CDC4261
3D5950AC
BDA03311
3CFB228B
BCBEBB8D
BDAE7A21
3D5EB63C
BD86595C
BE1CA135
3C802681
BC8E04BB
BBEFE834
BD080A63
BD8584C2
BCF40FB7
3E24F978
3DD676C2
3D7A0527
BD0294C8
BDFF4F0E
BDA78D6C
3D53C252
BC6FF7B5
BCE81035
3DC42A3B
BD957106
BB50D606
3D071A36
3DA5DBBF
BDEC1C96
BD827774
3BD58B64
3D7B15DB
BB5839D7
3C750AA4
3D3988F3
BD9A58D3
3D4B04C9
3DC4C2D5
BDE3DB64
BDBF9949
3E2F3025
3DEB322D
3DB559CB
3C895F3F
3DEA6DE2
BD8B894A
BD406A23
BCF8C12D
3DA7BBC9
BDD7AD81
BD5B6581
3C738680
BD2F166B
BC38E1B3
BCDDE9C6
BDEC5056
BD313EFA
3D05A635
3DEC2F69
3D9FE410
BCF04B72
3D525DE9
BD0241C7
3D6B3D83
BB066704
3D5AA1CD
3CBE7DDF
BCBD3971
BD8A3300
BD15AEEC
BD9BA01E
BC08DDE4
3E493420
BC2892B1
BCE67F30
3D975C05
BDDC1D60
BD7FCAE1
3D63574D
BC8719B5
3DE1381C
BE7506DD
BC3A961E
BDD560E3
3C64D7BB
3D397D24
3DA7BDA1
BDC0B2A1
3DD9C2DD
3C7925A6
BD66231D
BD10A0E2
3D3C2022
3DA5825B
BDDC7234
BC817D53
BCB347F1
BD366E2C
BDD88865
3D9F7B01
3D97F010
BC48E912
3D80C1D6
3D2EA82C
BE21F205
BD7995B8
3DB0CE98
BD67858B
3C24787B
BDD2480F
3D2282BF
3CFBBAFC
3C853FF6
3D740F03
3D810B9F
BD7CCA4E
BC2F8594
BD2376B5
3D8183D8
BCCB2532
BDD15FB1
3C06BEF4
BC8A4492
BCBF3590
3D7D7FBB
BC24D21C
BD90A752
3DBADBD1
BD160565
BD8383DB
3DB06441
3C2E9783
BD7173F9
3C91AE7E
3D4B2D6D
3D968F97
BDA4347C
3C0DE08E
BD8B4449
BD666A75
3C8CC8DB
BD93F5DC
BC56971B
BC265B74
BDAD112D
3D31CB82
BCF7FD72
BD6C7DFB
BD0E0B26
3DC5FA16
3D233211
3CECA9DD
3D41E22B
3CB6AC3F
3D91B27A
BBD8C51E
3D568AD7
BC166290
3CF81225
BC181961
3BB1ADD8
3E18E3B3
3CE3AE40
3D53054E
3BB021F1
3C7E7AFA
BDA5ACAD
3DADA35C
BD623790
3C83B359
3D9B0F22
3CEF0B10
3D06E20C
BCCA09CA
3CAA95B6
BD048535
3DBFF8E7
3D6A41E0
3D91779E
BD139E8E
BDD85DE0
BD8FAD8C
BD367804
3E02D8A8
BD88F0F6
BD19526A
3C771E5A
3B5F0E8C
3D62D929
BD82E8DF
3DABC259
3D27CFFB
BDACD462
3CA83792
BD05DD92
3D5DCCAA
BC90EF8C
3D07798F
BD9C688A
3D6CFFC0
BD21112A
3DA163CC
BC59E17E
3DC791F9
BDAD39A6
BDCE1EF7
3C268CD2
3D2B2542
3D9C17E8
BC230704
3A83571E
BC833011
3CF4FE8F
BCFABE68
BE06D4CA
BDA5C67F
3C6F02ED
3BEA2CC0
BD49984F
BD83EE85
BDA21EF3
3D4BFCB3
BC27A002
3D918D7F
BD31818D
BDB13E2F
BD2CF193
3D0CE62D
BD0D772F
BD2EE749
BB500225
3E3F3945
3D71E161
BCBD7BAC
3D319658
3C45CC07
3D82C51E
3E17205D
3C8D0D39
BDB2ADA7
3D584FEB
BBE193C8
3CBCA181
3D30F80A
BD8F219C
BBDBA5B6
BDE1BF6D
BCE08A59
BCBAEEA4
BD3E0587
3D362BA9
BD89D139
3C9F22F6
3DBCCC82
BD141D26
3C28BD8E
3B0AC5B0
3CBECD76
BB12FF5D
BDA3004B
3D80999A
3D76BEBE
BCAF8D9C
3D8495F3
3DC05ED3
3D9B4189
3CCDBCC2
3D3DD2BF
BD91F14A
3DBF8D2C
BC117FF4
3D5E6015
3DB94D26
3D536C79
3DB00A45
3D58B62F
3CDA8827
BCC8E2B8
BDE42529
BDD98C71
BDFBC954
BD466EEF
BC8C0EA7
3CC1E4D7
3C02E879
3DCD413F
BDA79353
BD4BB2D1
BA8140B5
BD20C2E9
3D463D1E
3DD7A31F
BE2377B9
3D6C5FCA
BD561022
BE02F24B
3D691DB6
3D94C54D
3D144D11
BD344D3C
3D30501F
3DE6E788
BDE9F780
3CB5733A
3CA0A125
3C2855E0
BD85E7AD
BDE4BF3F
3C2D03AF
3D723F15
3D45F207
3C3AAE9D
BC9551AC
3E131E5C
BD85D2C7
3D1083C1
BD0DC382
BDC56591
3D4AA44E
BDD5C224
BC90DEA0
3CB84800
BDA76507
BD84B775
BD1A8A0D
BDBFE72D
3CF2CE09
3CE309DB
BD38753A
3CA9F577
BC13AFE8
3D264912
BD188FFA
3D90D414
BD0C6B9E
BC70B946
BD26FF4E
3DC6D6AE
BDAE3330
3D82257C
3D88D07E
BB89A4D8
BDE57A43
3D8B63DC
3D824720
3DA4C7A5
BD9E79A6
BC16CE3C
BD8C5190
3B97E60E
3DD6E2EB
BD362EB0
3B26C87D
3C970489
3CCA740D
BDD3FB0F
BDFC1623
3BDA5F90
3C054215
BD18C8EA
3D97A8D8
BDA962FD
3D14A315
BD86AF57
BDC5C629
3D48A4BF
3D039259
BDF2AEDF
BA308A47
BD909AA8
BD94BCD1
3E03088D
BBCBD556
BE00CE41
3EBD490B
BBB8E024
3DD81B2F
3AE0C607
BDA11116
BD6EF47F
3D14AD0B
3C7BA923
3D49409B
BDAE33D9
3D660449
B98DF709
3DF2F647
3C3A1875
BD4175CF
BD44C1FC
BC15014B
BDFEF45A
3CE7546D
BC853DC7
BDD663AC
BBD172EF
BBD81424
BDAC8918
BD63E7F4
BDDB4883
BC0A95B6
BC802FBB
3CC36657
BC703F22
BDC76309
3C72C753
BD541ABC
3D448E68
3DB0945D
BDADFC17
BD8696F8
3D7AEE4E
3E885682
3E998714
3C13381F
3C28D267
3DD51761
BC4B15D3
BE255227
BCA46FD7
3DBA2D5F
3DC118F5
3D0217D5
3D4D30F8
3DC9036A
3D90214F
3D8320E2
3D7BB997
BCD1ECCD
3D004A2A
BD14C12B
BDB721B4
BE00A52D
BDD93675
BA86B8F5
BDACD105
BBBD69E5
3D3981E2
3DC54BEB
3E292F1E
3D8444B5
3CBD5850
BE30C141
3D782E45
BD970D28
3D00B07A
BC1C021E
BC3E2062
3D9F0EC6
BCB91123
3E21FB1E
3DA6545B
BBC704F3
3D303E2E
BC88BD28
3D14A008
BCEE1DA0
3C1F4649
BD8E2E6B
3D869C64
39610BA5
3E0A8D57
3DE26868
BD6E9C6B
39AD2AA0
3D98530C
BDB9489E
BDD7D673
3D8AF406
BD348A33
3D72B2F3
3C1A8C93
3DEF902B
BDD6663E
BD7F95D2
BD1220BF
3D5E0130
3D7A1265
3D9E4FA9
BDA100FE
BCEAA570
3D49F73D
3E6646D6
3B28563E
BDAD4A8D
3D4C413C
3D34DD85
3DE78375
BD817808
BB9C41E4
BD521BEC
3D9AC147
BD22CF40
BDC3E43D
3D91E958
BC033F2F
3DE8F4D1
BE01BBC2
BD8B4C52
3E134069
BDE4D42B
3D9BF3A7
3B723F2B
BE24543D
3D57C7D5
3D9B41FC
BDD57116
3BCD4F1C
BC05053F
3BEA6750
3B34BB2F
3DAFD2BC
BD909D2C
3D2FD7A9
BCB0ECBD
3D057CA9
3D7A822F
BD61EDE4
BC6F5599
3C89C4BA
BD704BBD
BB4FEA52
BD8C4BDF
3DDEB90E
BC16D8C0
BD7974D6
3DA0FF58
3C8E24DC
3D5AED3C
BDAB536A
3D256DAB
3D833C7A
BB2C4E1A
BD3112F0
3A933823
3D008B20
BC17323F
BDC8BB8F
3CEB1674
3AEA711A
BD699A18
3D254F60
BD4F3326
BBD87BF8
BDF52F7F
BD1A6A04
BE0329C3
3D57B10C
3CA3717F
3D04D994
3D90922F
BD0D5FA5
3DFD7160
BD80A538
BD0220C4
3B616F31
BC1781C0
3D3B24FA
BCB28726
BCB1BE5E
BCA09CDE
3C5C7247
BD1FEED3
BD02D6D2
BCCAEB4B
BD2235C5
BC9EC8F3
3DA9E2DF
BDA9D2DD
3B226835
3D6892C4
BD4B815B
BD9658ED
BDC622C6
3D7CE37E
BD87A7A3
3D569F8F
BD2D955F
3D81C0F5
BD93DC7F
3D702938
3CA2635D
3CEE3BB8
BD9E40F9
BD84CC61
3D744272
BD8F8A93
BDA1DA68
BB4E92B9
3D31913D
BCF70515
3CA56D12
3D854DD9
3C8019A6
3C7F0788
3C2D6F7A
BD579416
BC73942C
3DB15B03
3DB8C69C
BD434196
BD41B2E0
BD6311A8
BD211A14
BDD8C099
3D27C8CF
3DC8DD7B
3C8917A1
BC800DCD
BDCAE76A
BD2364E7
BC4A7874
BD5ADD49
BDE0AB49
3D8850E7
BC226648
BD076D44
BD5E0404
BD08B662
3D30F7C5
BD77A614
BD34BE3B
BCB8B7CD
BDAF6AB3
3D188DFE
BD8AC249
3D802E3F
3D3A3DCF
BD33A2CD
3CD89A10
3C8BC8AB
BB7F1AC2
3CCA4142
3D8D77A8
3C0DCB40
BD5EC466
BE212F11
BCDA72EE
BD0834CA
BCE8FF4D
BDBFCD80
BD713676
BDA8363D
3D59275E
3D2F90EA
3D8A3053
BD63E01C
3D58AA7E
3DE93D7C
3D74473D
3DCB0A08
BD74C7D3
BDF94607
BD59DF52
3BDBC19F
BD695D39
3D021569
3D5DCC01
BCE23CA1
BD7978B7
BDC42DCF
BD43738D
3D9598D6
BCCD3CFF
BD8D9853
3C9F0EA4
BCB23207
3D516A71
BE0785E5
BD8B4B0D
3D234930
BDAD69D7
3C87FDE0
BDDF8727
BD917FCE
BC5ED2C9
BCB9E24A
3BCD8526
3C95E4F4
BDEACA87
3B23B051
BD2D83CC
BDAA34A8
3C5F858C
3D6E47FA
3D6EBAEE
3DA82431
BDA55CEB
BD865D9C
BDAD216A
BCF7CA82
BD4A3AC7
BD83E115
3DB7C4EA
BCD891CD
3A61401E
BC76A767
BDAC8497
3C6AAA38
BD2F5BC8
BCF39A2C
BAD82579
3DC266C1
BC317F34
3C6ED250
3D915D83
BD3BE026
3D50BD90
BC3D44E5
BD8D76AE
BD7B0CF1
3D763754
BD9A6DE2
BB32ED1F
3D008A16
3CDCE879
3D9611B4
BD426B5D
3D48D5A7
BB3A322B
BD8E75BE
3C5232FE
3D94674F
BDA3537A
3BE87A1D
3C0D1137
3C16BD29
3CDD2494
BC4642AF
3B6FCA12
3D058B12
3A082568
BB7362E8
BCF093F7
3D59E980
BD73747F
BDA8E345
BCBD0C7B
BD21893A
BCCE27BB
3D990EB3
3DD1172F
BD58DA77
BDA0AE4E
BDCA2978
3D536E01
BD910FC2
BD90395D
BB03748C
3D32FF49
3C7076CB
BA2B0D38
BD3378C3
3DB0D7BB
BBA716CE
BC67800C
3D86A2B9
BD160E4F
3DD3EC97
3CA2C25D
BC865E8F
BD0B31ED
BC4B9A9E
3D529ED1
3B83A273
3D1D3CC7
BD2AC81B
3CE09CD9
BD0B6C98
BE034A8F
3DBA56F4
3DA422FA
3D278E0E
BB5DC18D
BD8A6093
BBA339DD
3DE19610
BDA3315C
BD1E916E
BB9E1CC1
BCF0806B
3CABA4A4
3DE3B752
3CCD7A7C
BC82060A
3D730CBD
3CA14CBC
3D4A6B41
3D8C2391
BD5DDEF3
3D316614
BD966365
3D16CB26
3C4125A5
BDAB66E0
3DCBCF0E
3D4B60CC
3CCA3A51
BD5A5C04
3D9EF752
3D8A4146
3E236E79
BDF1B4A1
BDB1816D
3D5752B0
BAE590D8
BD78CEE6
BD5DAF8B
BD56135A
BCD7DB59
BC41512E
3E80587D
3E3312EE
BD206667
3DBEB06D
BC27A891
BD33CA37
BD7A05B5
BCA4ACA8
BCEED84B
BD10B87A
3D6B2441
BCC7ED14
3D49A238
BCA0C578
BD8FA1C9
3D847B2F
3DA95028
3D0D953F
BC9DDECE
3DAB4DEE
3C4B8EFF
3D24FA05
3D4F4B22
BD41BAD6
3D014FBC
3D457382
BCD60B55
BD5816DD
BD04349B
3CFB4536
BDC4ED6A
3D0F7CA5
BCED3C74
BD915FB3
BE1287EA
3D0BE83E
3CD4FFF7
3CC56636
3E42FC84
3C61208C
3C0CED5C
3D924F2F
BD6FC1E7
3D318853
BC177BF7
BE0620A5
BD0DF757
BD5B90F0
3C8FB6FD
3D825665
BD91C332
BE8E4B55
BDCEC7D7
3D46D069
BD409B63
BE419DA3
379ABD16
BDA88118
3CC3578E
3D5525AF
BCAEB3E2
BD58166A
BD81FA32
3DD48203
3D4E223D
3D00F3C3
3D316073
3CEBD668
BA381762
3D2072F2
3E105E5F
3D8D0A76
BD387725
3D758A63
3D91EB98
BD6F11A3
BD80DFF3
BD844256
3D0D8A95
3D45C31B
3E03A50D
BD981E30
3D949543
BDE2ADD2
3C20BBEB
3D56F9EF
BA71AA47
3CABBD93
BCB3F26B
3B3E92EB
BD951C06
BDC4878F
3DFFB423
BC3D1F10
BDBFB562
3E1E105D
BD4D5CB8
3DB340A3
BCA6ECD9
BD820F35
3CED4568
BD747779
3D13E91E
3D10FDB9
BD3C0AFE
3D6C4962
BC04B68D
3D2CEFA8
3CBB8257
BDB8AC94
BD0F5B85
3DA18E16
BBB7D83A
3D0A03B5
3DAEB7FB
3D812BF7
3C7E1280
BD32E77B
3D934F82
BCA2097A
BDA61E6A
3B62457C
BD9AD279
3DB7EED4
BC64586F
BCA03D02
BD7C565A
BC898D68
BCF568F8
BD87B1B7
BD90D884
BCAABE3F
BDBF483D
3DACA165
3E2EF97D
BC535A65
BDB51867
3DADA147
BD39EBFF
3C91D6DD
3C70FCA2
3CF0D6A7
BD833858
BD97EFB9
3D075D95
3D4A0C83
3DB53C3F
3B2230E0
BCC9520E
BC843660
3DA558AF
BD2BB50D
BB82AC6B
39E7F87C
3C00AE54
BD22464E
3D13833D
BD8A88E7
3D55C8D2
3DC42766
3D9D7007
BD10A021
3C772FE2
BDEF7FDD
3D4830C9
3D4D9775
3D42B920
3CCE39AA
3D8F0699
3CC72E68
3D7E6B3D
3D2B5A46
3DFD745D
BCE3B3FF
BD201F3D
BA9877E4
BDC94469
3D76103A
BD64D613
3D99A82D
3C3EF182
3D9BAED6
3DA029EB
BD72DC94
BD6720C6
BD60B08A
BD82AC81
3D4DF859
BDA2ECCF
BD095DED
BD4C8BAF
3A92B3A1
BD64E575
3D691EF0
3D576547
3C9211EB
3DA6502C
BD555C15
3DC71104
BCDCB0AB
3D16B925
BD8AABAC
3E11F5E7
3DE3EB6F
BC874AFD
3CE3811F
3CE8E750
3B97D0CF
BD323150
3D5ECB7A
3C0E6343
3D3209A0
3D0374EA
3D495891
3D769413
3D57CF47
3D495F1F
3DDAF01E
BCD07751
3D3F7BAB
BBB3FA25
BD0CF5DF
BCFD5EC0
BDCAE3B4
3D82AA31
BCE448E0
BD9075B4
3CFB2EC5
BE369E79
BD4850EA
3CCDED29
3DA45EAE
3D893924
BD819806
BCF817D4
3CC7C8B7
BD570644
BDC809FD
3D6BD92A
3DA4601C
3DBA1FCB
3CB191BE
3D4732ED
3D813707
BD8F02B9
BD734BDF
3DD6001D
BDED9996
3DA94615
BD015080
BD8C87FA
3D821D36
BD9CB780
BD8731B1
BC24DCB9
BDA4BDEE
3DBF9297
BC2B7AF8
BA40CAF4
BB6BE339
BCA8FC6E
3D543B97
3B834AC3
BD91422E
BD3D81CE
BBC4B35F
3E5A3719
3DAA6187
3C3004C0
3D5CE023
3B1A22F4
3C93319B
BD71B69F
BDEF3E2C
3D1F88BC
3D95A82B
3C23BFDD
BD7A9A0A
3DD0B8D0
3DAFCCB1
3DFC91C4
3D7BC52B
BB9AEA9B
3E20F56B
BD0DB5D6
BD2C53B3
BB90888A
3DA9480D
BCB6DC8B
BC73308F
3D7A94CC
BA4D8A90
3DC604DE
3D985DC6
3CF25CB9
3D85CF8D
BCA59C2C
3C3EFB9E
BD98F1FE
3DAFDBA9
3D88628E
BD17CA59
BBDDA48E
BD938FEA
3DD18E75
3DDBAD70
3C6B3974
3A31DA80
BD823DB4
3DA60D70
3D5B58F7
3DD7F598
3DA54747
BD436A56
3D9EC2B3
3C1BBAE9
BE123847
3A901A50
BD04F901
3D6835BF
3CF0FA84
BDB48A92
BD713B77
BCF0EF4C
3D91D286
BD55C732
3DD2F7DA
3D1BE386
3D40D583
3D15B97B
3C1E8654
BD924765
BCB162D4
3D0C1BE0
3E084D48
BC288FB6
3D9A4970
BBD497C3
3DA99ACC
3D258A66
BB4A9561
BB94E48B
BCEFA113
BCD1913D
3DA66C66
BB7EE34A
BBA2278C
3CFEDCEA
3D1195CF
3D9140A9
3C66A627
BC8B9F60
BD03CBCA
BCAAE653
BD7448BF
BD0940CE
3D8B0A23
BE204C27
3D495A1C
BDB32A4F
3E2911DD
3DC69552
BDA647DE
BDBF4350
BD98274D
BD8B8BFC
BD2BF3C7
3CC85188
BD1C4548
BD90FE12
BD50125C
3BD75D38
BBF86517
BC993520
BCB16EC8
BB8887C8
BB911E3C
3D0E399F
BDBF8383
3D96C95B
3E044695
3DA03491
BC30E880
3C74FEDB
BC56DDF3
3D57923B
BDBD65F9
3CC3C0E5
3CC56DA8
BD751AA7
BD6A65CD
BD3BEC2A
BD2E85A7
3D874AA6
3DD03021
BDA2F917
BDB748E7
BD729E80
BD33499C
3E0D8EAF
3DFCE1D3
BD0CFFCB
3DB08B93
BDD29FED
3D5FF269
BDC58E63
3DDF445B
3D1B7310
BC0A4B5F
BD927D05
3D11B166
3D3EE322
3C6AD226
3D038220
BC032A36
3DBCB744
BCD04781
BD562706
3DE8AB85
BBB626AB
BDB5D7CD
BCF5D8DA
3C6D3E92
BD165138
BC64D6FA
3D544D3F
BDAF3BBD
3DACEA28
BD668982
BD6B9ADB
3D4D5A5C
BBFDAE03
3BEB35B4
BBBB5988
3D71BECC
BD7A66A6
BD0BB62F
3E04A9E2
BD16A858
BDC029A8
3CEEFDA4
3D8488D6
BD75D0C5
3B8E3B8F
BD5F6C2C
3D83D6EB
3DBA337B
BDA0C593
BCA9F0DA
BD974266
3D8F2752
3D3F859A
BD11079A
3E013CC6
3C04B932
BCE2192A
BDA443C0
3D67C492
BD3C762B
BC175EDC
BCCD6BE9
3D170197
3DE70578
3BEF8CC5
BD9DB207
3D1A4279
BDB13FE0
3AA30E6B
3D0ADD3C
3D0DD3BB
3D40A615
3CA3C979
BC27F8F8
BDAF1A89
3DB350E9
3D0DA834
BAD5143B
3D820AE7
BBCBB4EC
3AF33F63
BD38F654
3DC4310F
3D95810C
BD497E69
BD83E622
39BFB185
BCF23B81
BDDA2B9D
BDCB4D05
BD89F7D2
3D24DEF2
3C718472
3D1F34D9
BE4104C8
3E7B4F25
BD67E633
BC47B10F
BDE4FB7D
BC7148CD
3D8DC5CD
3D390FCC
BD9A7ECB
3D634857
BD65D6B7
BCA410AB
BD589283
BD40CD07
BD9C5D13
3DB1BB49
BD45B302
3C1ACF37
BCC4786A
BD100665
3D3138E0
3D708519
BD2269A7
3C15BACF
3DEB49EE
3DC7CD2C
BB98E34A
3D320B88
BD47EC05
BCDB0DE3
BDB75398
3D9004C9
3D91A5F1
3D91214F
3CD0C82A
3DA0A009
3BEC4AD3
3B272067
BDAF2133
BE58B087
BDE51E68
3CCFFF31
BC182B7A
3B8A76F6
3DB3D94F
3E364F12
3DAE76D3
BC4790D8
3DC55305
3D4B67DB
BCF14B1C
BD752DCC
3D68F7E6
3BD8B66E
3DC0553D
3D16B38E
BE7DE51C
BE065D9E
3D2943D1
3D07686F
BDE31777
3DBF4357
3DCE28D3
BD473294
BD26175E
BD797DE0
BE2F1C25
BCDAF7D8
3C3A3D73
3E121F6D
3CE35E8A
3D87929F
BD3CF689
BE214941
3D1170B1
3D21D311
BC87571C
BDDC947E
BC5DD553
BBF62565
BCC37083
3D1FD558
BD50AD14
BBA3D93D
BE0F5778
3CF126A4
3DC0DB26
3DCFA468
BCA12FF6
3D9F8816
BD1E29A4
BDADD53B
3CA5CB86
BD1D3ABE
3DA3F770
BD503371
3DB17FE9
BD98C566
BDF376C8
BDC47545
3CF1B61B
3BDA3D8C
3D39F9E9
3C9B4439
BD153610
BC882878
3D155D47
BDD4A475
BD441414
BCCDC22B
3C870DE6
3D16D2D8
BCBA2A79
BCE61818
BC7E47CF
BC623AFE
BD76468B
3C8F5467
BD04DB34
3C632A3C
BC39B4ED
BCC54819
BCEB4DF2
BDD11A62
3DB027AB
BAAA31A0
BD2776EA
BBF9168A
BD0F0767
BDD81A81
3E1B36A9
3CBF403D
BD1BF049
BDF640DC
BB7D5F6B
3DDE7112
3DC1275C
3BE01C82
BC2DCE85
BD32822E
BCC7A9BD
3E0A378B
BCB42D3E
3D4184A2
BD80097D
3DB1C260
BD5658BD
BD1CFD16
BD1E7050
BD52EE3F
3BA120A8
BC75F895
3CF790A5
BCFCF117
BBDE89C6
BD256E41
3D7D88D2
3D0E2280
3D876E13
3DAB9209
3DDFB606
3BE4B566
BD4B42E7
3DB83BAE
BBF0A6C2
BCEF6D8C
BE25FF03
BDAB13B9
3E09ED7C
3C2E23EA
3DC63FDF
3D6AF1E9
3C668B5A
BDF9ABD8
BD9267D5
BD6805CB
3CBC01C9
3DD960ED
BB86CEE0
BD777FF9
BDB0EB89
3E04F682
BDA07161
3D416DAE
3D18E605
BCB0DAB4
3BCDD21F
BD928CFC
BDBB8366
3D578BA2
3AB02E17
3D13EE3C
BD698BAD
3CEE5B73
3CA59A7E
BDACBE09
BD81C21A
3C859124
BCED2E11
3CF0C47E
BD488804
3D7CCF49
3CC550A2
BD8ECFB3
BBB78939
BD07403B
3E0D455C
3C4FE896
BC6ADE50
BD779FCF
3D080047
3DB32883
BD2738C1
BD04DE51
3DC578C8
BDB91789
3D4B72DD
3C9A5B81
3AFEC916
BD1751B1
3DA2972B
BD585128
3B879F78
BE1F72BB
BD5F6253
BC0C8F88
BD397AD6
BE26540D
BD52A445
BABDB2FE
3BCB027D
BD220924
BCA43778
3C6E0ED1
3DB42FB0
BCEE90E2
3D336151
3DB6D94C
3DA2D205
BCE5FDD1
BC316ECD
BC0C1742
3D8663A0
3D724B41
BD229B91
BE071C4D
3C83ED40
3D26F06D
BDEFFA56
BDDC10A2
BDC9BE2A
3D8E6414
3E383F19
3E1B12B2
3C0AC708
BC753D44
BD0C6849
BD3D82D8
3BB34ABD
BD492106
BD891BD1
BC96E76D
BDE91AD4
BDE9F715
3DD261CD
BC584B10
BC338E42
BD7B938F
3CFA6E8B
3D8676CB
3D926AB8
3C9B75BD
3D614BA5
BE13748D
3DA76975
3C7BB65A
BD1CCC11
BD304B8D
BD91EC6F
3D392EE3
BD4F3AAB
BD7CE8D7
3D91B3EF
BC9A5D64
BC566588
3CCFCB09
BD069911
BDBD581C
BDF24BC7
BD2E27B1
BD110DB4
3D23545E
BBF40DC2
3DA1927B
3D2C920C
3D010A92
BE08C826
BC94A366
BBB5C905
BC8EA742
BDDF1207
3DF42B30
BD9B4334
BD444EDC
BD26F8D5
3DA3BEB9
BE046AC2
3D9D36C2
3D99655D
3DEA3FDA
3D7670FB
3DB9044C
BD05DF50
BC971419
3D976569
3C21ECC2
BDE57639
3AE6F64C
3C774201
BBCC58D6
BDBC6114
3D33001A
BC611EFF
BD6BFDAA
3DA43032
BBA6F128
BD96E364
BDBA79A1
BD5CBD93
BD80D447
BD54517E
BD76011E
BDE95670
BC81A7A0
BDAB21C4
3CAD1BCD
3DB00409
BCB77425
3D58E31E
3DBD092F
3CB78888
BCA5081D
BC3A414F
3CC8C91D
BD245453
BD74A45D
3D6FA47B
3D2530A4
BD31298E
3D38E091
BCE31345
3D70AC08
3BD3B76D
3DAB64B9
3E0558D0
3CC599A8
BD8F2212
3D15377F
3DA727B0
3D5806B5
BE72478F
3D9CA054
BD159E07
BCD48FEA
BB06BF15
3D0EE8F1
BD84F6D4
3DBD5520
3DC546CB
3B49FABE
3CC05C91
3D8A9DAE
BD10CB0C
BD97329F
3C07037D
3D8B2823
BCE0119E
BD9759AA
3DA887B1
3DB62CA6
3D8F065C
BD0D3032
3D1B8B1B
BD21798A
BCFB0CA6
3B8E0104
BC938431
3D34BFC3
BDF65138
3C9DCA25
3CB5243A
BDCCE8B1
3E017D86
BD1AABB8
3C6877A3
BD5FF924
3ED5DB84
BD6FB43E
3E0744E2
3C5411A5
BDA64003
3CC9E07F
3DDA4251
3D4B818B
BCE20DDC
BC65D63E
3D79EFB8
3D6764C1
BD3FA9CC
BC6E8B23
BDB27DA2
3CAAFE05
BD21A696
3D1D43A8
BDBD9470
BD91A502
BDC59021
3DD0856E
3CF0A2A5
3D3B841D
3D1420FC
BBFD906F
3E23C28A
3E059F90
3DA21C23
3DFF5C1C
3E24ACCB
3D1454EC
BE085788
3C67F6FF
3E4878C5
3D894217
BE03E08E
3C79564D
3D33D3F2
3CDB3B85
3E0F86F1
BC833366
BE96B2F6
BE894F37
BDA81DF3
BD208907
3D80A387
3DC639AB
3DBD65A5
BCE232CB
BDBB71E4
3D3E919E
BCBF390B
BDAE598D
BC1FA2DA
3CA54E13
3C103B2A
BDCFA55A
BDDC96BF
3E259A60
BD409891
BCF7493D
3D8EBD27
BDE510EE
BC2DED79
BD65C359
BD9C90CC
BCF82EAB
BD217F57
3DCDC31C
BD0ABE88
3D3B7CFE
BC420DF7
BAFAB4A3
3D0D730D
BDA7DC05
BB966F27
BD8D060B
3DC3DE63
BC54A803
BDCEAA60
BD0161A5
BD590F79
BD03C391
BD4465C6
BCB25DF1
BC0B6560
3DDE702E
BD8EEAAB
BDAA878A
3C09174D
BDADC8DA
3D7CD172
3D9A39C4
BBF86CB0
BDEDAF23
3D43E344
3DFE670E
BB2DEB0F
BC28B76F
3DAAE064
3C2735AF
BD25C5AA
BD67D735
3E09823E
3B8F65ED
3CF3FBAB
3D8D3111
3DD7EDF0
BCE812EF
BDEF3D1F
BDBE90B6
BDAD940C
3CD2F967
BDA58883
BD36C48B
3CD5DE39
BD215604
BC7BFDB2
BDB82F50
BB2B672A
3DAD3A41
3CA2C572
3DAE1E1F
BDB48026
3CA65C50
BBAAA509
3CDAB6E6
BD1D32AE
BD986E95
BD77C033
3D4C3344
BDD238E8
BDB575B0
BDE702CC
3DCC73DB
BDB594BF
3E2D8B03
3C232AC4
BC21632F
BD64AF7A
3D1AC698
BC19B12F
3DAB542D
BDAED4C3
BD7B489E
3D909EE9
3D423903
3D4C14A1
BDCB0913
3CD01881
3DAB025D
BD02832D
BD3D73AE
3B803F26
3CB36AAB
BD2A2286
BD297087
BCC77103
BDDB74A8
3D341BB9
3D215C0B
BDACD712
BD9CD6F5
BD83AF32
BE10AE39
BD276E71
3D922046
BD577E8C
3DB68F89
3CCADBEC
BD36D6C4
BBE3D4AB
3CF0E1BF
3D846C2A
BE925FE9
3CB4FA3D
3D86AB49
3D15587A
BDB8F1DF
3B01BD92
3DF206A0
3D8AD94C
3CE55BFA
BDB8DD29
3A45C262
BDB7EE4F
3D2C382D
3D211C6D
BD0F3159
3DF1BA72
BD4E1FA3
BE40A259
BD79DEF4
BD8C779A
3D4EF9C0
3D691E6C
BD51EB60
3D6F1F27
BD1AB35D
BDB7FE25
3D0421A0
BCCAF938
3DA5E588
3BEB253D
3D36A19D
37E19EEA
BD0F4654
BD0AEFBD
BDE04F10
3C9CE650
3D3486E8
3DC0F488
BDC5F1E9
BDF599E0
3CEDE784
BCF4316B
BD06010E
3DF61B6D
3DB34860
BD29F884
BC445666
3D43998D
BD4CAB9A
3BEC0BA8
BD91E6C8
3E09C370
BD2F7010
BC7093F2
BDC59280
3E378551
BD0289C0
BD5050D8
BC68F02E
BE145777
BD17739F
3CB650A4
3D359373
BD8F6FEC
BD965E20
3D784E9E
BC08739A
BD13CAC6
3CDB0ADE
BDFC92C3
BE0AE049
BDB29E6E
3DB3F120
BCA0260B
BD577770
3DB7040E
BC92FD02
BD51F808
3D9A0D93
3B61028B
BDD2287F
3CA56D42
3D3DC4CF
BC4E542C
3BE3FC56
3D9A7B09
BD8EB8B7
BE05CCAE
BCA290AE
BD82A314
3D40E4E5
BE1D7307
3C92B8AA
BD7ADFBA
BD986ADE
BE573853
BD9DA5AD
BD7FA9FA
3BC5BF4B
3DAB7B4B
3ABBF6CD
BDD27EE6
BD691944
3DCDF8B1
3D94E10C
3D87FFC0
BD7A0633
3C17FC07
BCFADFDB
3D3B5E63
3D80B9C7
3D150E2A
BDF4BA52
BDC8936A
3D744FD9
3D556B11
3C339FF5
3C9D229B
BDDD4FAA
3CD327A0
BD245750
3D5409C0
BC96DC3A
BD8645B5
3D4CB21D
3DE815C9
3BF728B2
3D60B831
BDC598D0
BD6FDA7B
BDA168C1
3DC23F77
3C9890AB
3D5F9DCA
3D3C9B2C
3D33848A
BCCF533A
BCD95988
3D1AEE9E
3D8C0304
3E4D29E3
BC91276A
BD013D98
3C7E4850
3D989763
3D51C8D5
BC0A1EB6
3B4CEF07
3DB4ADDA
BD2B9AF1
3CCA0F33
3CB5B884
BCFFD532
BBEB2415
BD7DEA51
BD15FD83
3DCCEF9D
BD038767
3DD9780C
3BFA73BE
3D8E4F75
3D552475
3D311866
3D29F054
3D23EC99
3CA01E89
3D72667D
BD887B84
3D02D75B
3B19B0D6
3D7338CD
BCE7CB36
BAFB249B
3DA3F28A
3B49B44B
3CA27C31
BD1B5E70
B93C71D3
BC3A142E
3D486435
3D87D54C
BC01A223
3C46B7B5
3DAFA5DB
BE1D6297
3B9BA909
BCF0180B
BCFA37F5
BEA27A9C
3DB90B6C
BDF3F7F7
3DBCD274
BDCB6AB3
BD393E07
BD546129
BC9384E8
BD0DD678
3B48B68E
BD81DE4F
BD5CA4B4
BCD293F7
BDD62380
3DB6693D
3DE30C82
BDB24FE2
BC5B1362
BD9BCEB6
BD00E7FF
3DAE420C
3D472896
3D22C2CB
BD5BA8A3
3C0FD293
3D345F10
3DB6D166
3CD7F83F
3D00C8FE
3DF6FD22
3DE6239B
3DA07CC1
3DA542B0
3D79389E
BD33ABF2
BC15BF8B
3D9329C9
BDAAD54F
3C1114D0
BE16E010
BD2240DD
3CA2999D
BB5206C0
3C2247A7
3B008389
BD9E722C
BDC2A193
3D54EAE1
3DFB2647
BD471D8B
3D694B18
3DE39764
3CE0FFCA
3D4E76F4
BD9F5AD8
BD2C1971
3D16B1D8
BD61CD4A
BC0ED8BC
3BFA92D9
3D228947
BD85EC00
3DDD16D4
3C870202
BA2FC8D4
3D9CD1E0
3D0E471E
BD8A8202
3D97D3F8
3D06852D
3C6C1E2C
3D91295F
BDC37658
BC84AD79
3E28F8A5
BD726D78
BE034AFA
BD710083
3E543215
3D3BACF5
BBE2324F
BC06AE4A
3DE0B730
3DBBE2A0
BC4D96B7
BDC92A8E
3C5A7AA0
3DD1D077
3D2CC33D
3C1A20D5
3DDD61CD
3B91B74D
3D723DA0
B9C2D24D
3D00DC71
3D918493
3D5B76DF
3DCA3B44
BDC3D2FF
BCB34CAE
3CF5D895
BCDEE14C
BD972327
3CC45A1D
3CF85F17
BBAEEBA4
BCC70DCB
BD5CBF5E
BE028B02
3DA6EE6F
BC73F24B
BD7718A6
BCF611F5
3C001CF5
3CEF6B68
BD1E28AA
3DBC33D9
BAA6DE59
BC829FE3
3D81A972
3D07DFCE
BC863E22
BD82F042
BDBB3A2B
3C54216A
3D036075
3D350D05
3DD3E001
BCCA53EC
BE5A0627
BD677A02
3CA54504
BCD4439F
BD35277F
BD6F5F5E
3D71A2EB
BCA0C58D
3C88CD13
BD65C6F1
BCAD52CF
3D0C5223
3D95D251
BD66C88C
3DBEC33A
BB812865
BD632C2A
BD60003E
3DD29F24
3E591D9B
3D09A708
BDDD5B25
BDDCB5E3
3C77288B
3CAD20E5
3C9CB766
BD64692B
BD921A06
3D5F5314
3DAB8A8C
BC1D0183
3D3D4192
3D38291C
BD75CD39
3CE793F3
3D14AB99
3DBAD5FB
BCA6B003
BD4436FC
BBFE9F08
BE1D8B68
BDC49F83
BD820491
3DCCEE68
BF3BAE2F
3E20C925
BC06E212
BDA7E7F3
3B192B1B
BCEAEFC3
3C7300A9
3CC2A98E
3E4F4C3F
BDA678F3
BD721E2D
3DE3C460
BC37DF14
3DE55CCC
3D5BB052
BCDC5A79
3D598677
3DB9C5B9
BD87958A
BCA7B9EE
3D206D8E
BE029190
3CB149EA
3C7636F4
3D5651E9
3DE38759
BDA32B40
3CE9868C
3E2D2030
BD6AAD48
BC4F5A3B
3CA6AF97
BE347666
BDDACC6A
3D13CF38
3DA12308
3CAC1DE6
3E08B107
3D6BF462
BDFAB54B
3C9B8973
BD2335E8
BDA1D1B6
BC5FAC58
BDF0F94D
BE541722
3BC04F2A
3D648B80
BC6B1B41
3B96E54A
3D84426F
BE29F6FA
BCDDE8C4
3C5568B2
BE0D2EDE
3E932478
3CF06FD5
3CDCB9F5
BE3EE096
BCEF4FAF
3ADA17E4
BDE2C3BD
BCAF67C2
BD25AD03
3DE1329B
BDD9A1C7
BDCBC5B6
BD1509D2
BE325AF5
3C86D4C1
3E13122B
3C97617B
3EC6397F
3DCE0165
3CF84BD7
3CEB5447
3DBBD32D
BCEE094D
3C168FBB
3CD9544F
BC65672D
3C0D628A
BD756B4F
BDF00E93
3D57834C
BE1D0595
BBEEC620
3E1A19D7
3D8CBCBE
3C86C1DB
3DA093A9
3D209292
3DF4874E
BECB0D66
3C45440D
3BD2FE82
3DB9EA3E
BD9F88F5
BD431F47
3E23F41D
BDA07AC2
3D628A16
BE01F7F9
3E1ADEEC
BDCA714C
3D0B6704
BE096E23
3DFC35DC
3DC36AE6
3E3C76F3
BC0C9213
BCBC505E
3DAFB89C
3CBCF310
BE1E59D1
3D14AF6F
BCC1E126
BD8223FE
3D956172
3E0ED7E2
BD0952AF
BDAE9143
3DE9DD49
3DA72665
3DC6AE4E
3D10076A
3E1B1FF5
3E29B859
3DF362B3
3E4C6CE8
BBB4A968
BD0DD77C
3D1CAC61
BC6DD8C1
3BD2444C
BD9F3A2C
BD8B327A
BDBD57DB
BB00601E
3D986DCC
3D8BB1D6
BD9F1974
BC829D5E
BD29EF50
3D131782
BD3C843D
BD4E654E
BBB36324
3DCBC43F
BE13BEB7
3D96B457
3DBA84BC
BD27E5ED
BB8CEB53
39D9C9C0
3D0611AF
BC188D77
BD2FE72E
BD34D262
BC52F96C
BD0851F1
BCFABCF0
3CB546AE
3D2979C9
BD94C706
BD91755E
BC802BEF
BD2AD873
BD808D39
3DA076D4
3D73F263
3C97356C
BD2D9313
3D9D3B2A
3D88E991
BDB863B3
BD537FBA
BDA01FA7
BD8688BA
3D473EA6
3D4A131C
3D95D66E
3DF43BA7
BD892A09
BDC2A57B
3DCD80FF
BDF79C92
BBAD67FA
BC44B841
3CE1A227
3D062EFE
3D06531B
3D6144F4
3CEF9417
3DD17C29
BC9E4474
3C9F59A7
3DB6E856
3C46F202
BD96A0D8
3D3671E4
3D2710E3
3D4E0C98
BD814F5A
BDAD1971
3D2D91AC
BD09F207
BDA60312
3C290CEA
3D41D2C3
BC5E4479
3CD02A0A
BD41C01F
3DAB0ED9
BBA3F4D6
3DB4E4CB
3DB75CE8
BD77F09D
3D4BA6E8
3D8BBD93
BBE296DB
BDB210B7
BDD7BF97
BD76CA34
BD1DC1DA
BD82ABD1
BCF3F103
3D3C56CB
3C957E41
3CD37DBC
3DAFFB1A
3DA0D33E
BDABE5E6
3DAB6556
BCD00313
3DB08C1C
BD5763CF
3C0656B4
BDAD2D7B
BC3CF9E6
3D9C6857
3D82C3B3
3D92538B
3D53D532
BC6CFAB5
3CE1CF73
BCAAFE1B
3CA30218
3D89CDEB
3C138D9C
3D58F608
3D6ACB80
3DBD71A7
3B189805
3D81480D
BD89A4C8
BE3ED091
3DBB42A7
BC8819E5
BD9F7AC3
3D1879A9
3D839EB1
BD6656E4
3E08B13C
BDC3A945
BDA9D913
3EEB5FF9
B9B9AD05
3CEC4F54
3D7A6574
BE593504
3D05CEF4
BD19738C
BB2726B5
BAF2B15A
3D54BA14
3DBD1602
BE0D1D1F
BC9A2C81
BD9770C8
BD053DE0
3E01F12F
BDB42EE5
BE1F675B
BCD37E32
3D6481AD
BB1AE868
3C0D3E0C
3E4CF81B
BD4D8C3D
BE002257
3CAC0359
3E0AF9BD
3DDA5ABF
3CE29231
3D549695
BE332160
BD9857BB
BD37E6D7
BC0AF5BB
3C850B58
BC3F8089
BE6F85D7
3D099A1D
3E043EE0
3EC3A400
3E161EF7
BC847200
BE068D6F
3C8DE7B5
BE836725
3CD75425
3D654264
BD08E483
BC4B531A
3E8EB7E0
BBD80A74
3E1EAF54
3D8091EB
3CA0C5DE
3CF8DFB5
3E87645A
3DDF4D6D
BD790116
BDBED981
BACEFA82
BE00A99B
3D06AE80
3D7ADF52
BE141FC9
3CFA1AF9
3E586409
BA924842
3D4403AE
BE1B2625
3DF09F70
BB0D8CB0
3CF56862
BD33B854
3CF0FE55
BD5407BF
3D7764B1
3E48FA1D
3E8819E3
3DC2F806
3DA29A39
BD345DCB
BC6F9F60
3D97956E
3A3B901B
3E476365
BD1CA36F
BDE017C0
BB8A6B83
BCD2B021
BDA78609
BD5475C1
BBE846B3
BDCEBFA9
BDADEB53
BCEA0F78
BDE2F068
BD0F9DE8
3DFEAA1D
BC977AC1
BD99BAAF
BD4A6960
3C48111C
3D3269A5
3CB23EFD
3D387A9B
3D3CFCBB
BDF3F10B
3E93FA38
3E0219D1
BD3FBD90
3DA32FF4
3BA95075
3C3C2971
3DAFE882
3D8DC5A7
3E0B3615
3C7FCFB9
3B5BEF3B
3E017262
BDA5F4BD
3DDB4FB2
BD98B31B
3E5F57C8
BE00E6D8
3E34FB98
3E06C10D
3DDC2B52
3D97FFC4
3DB468BF
BE27F3C2
3C921FEE
BC02DC3F
3E3F7F2F
3EB2575A
BDE96935
BD84B506
3DB4BDE9
3DEF223A
BD5F59F0
3AB75869
BDD6E0FB
3C9EF50E
3D093434
BCE7BEA6
BD855292
3E022D73
BD4308B1
BC0722F0
3D428C7A
3C348888
BCF078C4
3E1DD9C2
BE280156
BB453B22
3D87870F
BE1AF493
BC139FB7
BD875ADB
BD94BF7D
BE0865D1
3D5DC535
3D47ECAB
3D39F8BD
BD629188
BC011BB5
BD37B2DF
3D98FA93
BD1E6A97
BC9B0D5D
BC5F2391
3D8CE9E3
BBCED13C
3E483A03
3D003C3E
BB33CFDE
BDF70F10
BDA0B40A
BD082BA8
3D9B97B7
3D8DE458
BD42A9E4
3C58E1A3
3D1E6320
BCDDDC09
3BA001BB
3C53291D
BD422F37
3BDD37FD
3BCDBA8F
3D8261D7
BD1B5134
BD9C179A
3DDF086E
BB4D82AA
3CB0EAEA
3D4E7137
BCA9E343
3DC1483C
3CC1223F
3E323E3A
3DC90960
3C685B49
3C242752
3DA2DA5C
3D9A8956
BE441066
3DCF1CEE
BE3F3A07
3D1FB601
3D4EEA94
BDED4017
3B8F3C46
BC5240D5
3D43F9C2
3D58BF0C
3D66A414
BD181BE6
3CCF8249
BCB0C20A
3D8056C2
3CB082EA
3DB039F6
3E568E4C
BDC31178
3BB45A99
BD0BADA6
3E79AEB4
BCB5DB3E
BD277031
3C48E64E
BD5655B5
3D8A1B4E
3DB3A80B
BE1795C1
3BCB0C00
3D445408
BCD7E788
BBD25FA5
3BF03D0E
3D32ED28
3D89C145
BCDA3962
3D7BAE37
BD229FFB
3DEA1067
3D3712B6
BD873630
BD028508
BD276A95
3DAB1FC2
BD028C95
BD9CEF04
3D71AC83
3D91A5D0
3D45AA54
3DB149E4
BDA16D31
39FE5C45
3C821569
BB0D3CAE
BCE44CB6
3DBC63E9
3E71CC5A
3BD30140
BAED7211
BC4D1FE4
3CA8CD59
3C858BC0
3D13421A
3B312120
BD9EB635
3C96452C
3D6FB1C4
BD502A6D
BC5A5C78
BD58EE56
3CD5A9B0
3DC62279
3CA0ECB5
3B63A81B
BC1E3041
BD82686E
BD190677
3D82EC48
BD6E9592
3C4343E2
3CC9CAEF
3DC875B1
BD34B5AA
3DC21C8F
BDA6DC7B
3D04C519
BD112F15
BD34EFC1
3CCBA3C2
BC971C26
3C031BC8
3D1AD554
3D624608
BC760179
3D945C27
3DBDB9B8
BD3E1684
BD36CB84
BD25A089
3D2C1F73
BDA41982
3D848B9F
BCA2866D
3BC123E0
BD83E6F9
BD8F79C3
BD0A38C3
3D21FF31
3DA40C5C
3DB19DA2
BCF3D321
BD838323
BD311084
BCBDDC5A
3B07DDF4
BAE12A16
3CE9EF83
3D3ECB6D
3D21D9E2
3D54FFF4
3D359DFC
BD6E9EAC
BD052871
3DD65D2C
BC3A6993
3D08537B
3DCB9C9C
3D4161CF
3DB2A318
BDD4C85F
BD867A8F
BD76F15E
3C401BAF
BD1887F9
BD3CFFEE
3C550C61
3C8A1573
3DABC8EA
BD6C380F
3CC9D5CC
3DBA9F3F
3CFD5002
3D04D460
3DB31472
3BC4D4B1
BD83F939
BD5670F0
BDA64361
BCBDC7B1
BDC4C7D7
3D07B90C
3CFFCBBD
3D046A5B
3CA7D404
3D11A737
BCFC3352
BCC642DA
3DB4578A
BD3F9D04
3D840185
BD6A4EAB
BD55CC0D
3D032E86
3DB5A838
BD654452
3D56232D
3D819277
BDA7EE3D
BDB91C3B
3CAC31ED
3D2D9B41
3B0DB9AB
3CE7E410
BDB5FACD
BD94AC96
BD865761
BD5903DD
3DDBD7CD
BD7620C6
BD8C6C0B
BCB200EF
3D82D2E5
BD9E9DA2
BD0954D3
3C6AB87B
BD7627D2
3CCD872D
3D85D915
3D78C849
3D9C82E9
BC1C15EA
BD4DB2F1
3DEB980C
3CEF3A70
BD54C064
3CE1837E
3C6108C4
3CC08C52
3D0C29F7
3C937AF7
3CCBD07E
BD8BAF8C
3A521F21
BD9CE770
3CED154C
BD7128E2
3C2AB124
3C580E6A
3D19936A
BD4B7A2C
BD85493C
3CD0E60C
3CE2CCE9
3D195EE4
3D757987
3CEC4C59
3D6078BC
3D8EFEF8
BD9D12C7
3D1AD9A8
BC703ED7
BD26260A
3B102515
3DBC7EB6
3D367D58
BDAEC9CE
3DD120BA
BCF546E4
3CA2F5A9
3D854F13
3D1A4A49
BD7A5FE0
BCC44FCB
BD270CC2
3D28D44D
BDB49F1D
BD6CEB7B
BD221DBC
BB5CD24F
3A728521
3D986271
BC700577
3D54FB2A
BD827ADC
3DA1B492
3DB332A0
BE1D607E
3C4D9B54
3C0225DA
BD981C81
39A58E82
3D74A081
3D766A1D
3BA53922
BBAC7AEA
3D1290D4
3D102554
BCD90B8F
BADBB776
BD01E672
3D9D37C4
BC77DDBD
3DAB7934
BD66AAFD
3D0A3CD0
3E1CC115
3DAAD1A1
BD2D06D7
3D39404B
BDB24EEF
3D5A3B88
3C90B2FB
BD5E0C1D
3D864F0C
BD205EFB
3C37C5B4
3DD9F1C9
BD611C90
3CC06032
BD8BF131
BDAF9F7B
BD7C02C3
3D929092
BD4C95D0
BD824EA8
BDBD7BA0
3C055E51
BCF01475
3BD5D896
3CC9B866
BD87A9D3
BD5D3A02
BD547FFD
BD802205
BD73948D
3C3C7053
BD751259
3DF4FB47
3DB93AFD
3C128FFC
3DAC3B1E
BCE12910
BDAEB176
BD71717D
3CA446F2
BDBF6F4F
BC5AC9FB
3CEB1A25
3D734603
3DAAA25C
3D19FDAD
3BA0083E
BD554BA4
BDC44A81
BCB1B763
3C281817
BDFCE28F
3D830D26
BD71CF35
3D486F88
BDD1DD0D
BD166565
BE5FD326
3D17AA41
3AF0A591
3B825789
BD711871
BCCCC4CF
3D9673EB
3CE86306
BCC98DB3
3BB66BCD
BC482390
B9CD948E
3CC3705D
3C7EC64F
3B7BEEEC
BB9EC050
3C66401B
BD8218B5
BD070959
3D7B991E
3D8A7B12
3BC48FF2
BC27AC37
3CBB3BD0
BCAD390E
BDCCFE30
BD29BFF2
BD120673
BCEAD7B5
BC994C52
3CD07B2D
BB93BFAA
BD30DE24
BDDAB0F1
3C09F3AF
BD904816
3D49B0B3
BC1530FA
3D89D587
3BBCA3C4
3D3DBDDE
3D77ACE0
BCF03B8C
3DA4B6F5
3D641EF1
3DAD0276
3C7F1F9B
3D884AF9
3C2ABF67
3DCA61E5
BC4C8077
3CEC7737
3D7E603B
BB842E27
3C54CB89
3E0C7304
BC6D45FF
BC5289F0
3C79628D
BD132BFA
BD0E9F4D
BC907F34
BDD9B24B
3DD69A5B
BD28D656
BC2DEE5B
3D314C28
BC9EDEDE
3D95FB25
3E06A82C
3D1A679D
3CCC9423
BDC44C4F
3D888BEC
BCA2BBED
BD16B683
BD557961
3DA4CF1E
3D60FC7F
BC82DF73
3D9A4526
3C0B760A
BD78C922
3D7111E6
BD0E00A7
BD12F182
3CDFE2C9
3D1088EC
3DC6F44C
BD75651A
3D57B962
BC850A40
BDBE2CB0
3DB5101C
BD00AD07
3D99C002
BD4DAB47
BBB1C3C7
3D91C9DE
BD6A647A
BD11C7B9
BD876480
3A9D51E9
3DF0D563
BC74AFAA
3DA783DF
BDAD7D6F
3D062CBD
3DB517C6
3D19C566
3D5EFF47
BD089B5A
BD56C013
BDCDCB07
3D0592EF
BBFFFA10
3D40A64E
3D380776
3D89D93C
BCA53ABD
3D4E60E4
BD8DB5C4
BCCA895B
BDE283E1
BD746C00
BD7D1595
3DD5899F
3E3A4108
3C534CD9
BD97E7CA
3C9501E0
3DBE08F7
3D330A16
BE3DA8D8
3D008D39
BD5823B6
BDCE2FF4
BDA9C25A
BCCBB007
3C68ED09
BCA93D56
3DAD2AF8
3BDBC79C
BD92D5DC
BD4705DE
BBEAC960
BD5600B8
3AE07D6A
BD5332D5
3D7673FD
3D5049C4
BD58E4C6
3CD04BA8
3D766A1D
BD447BD3
3D37DD87
BD0D7579
3D875630
BD91AC8C
3D6228C7
BD464407
BC2233E1
3D96691E
3C18C382
BBDDB7E8
3AD9BB3F
BE039212
BDAEE04D
3CCA80A7
3D6043FD
3BFF1773
3D64ECE2
BDA4A239
BCDC7536
3A0A5719
3DF71DA3
3C53072E
3D01BE49
BD1751A3
3C667F05
BC856C7B
3D38D43F
3E0CFDBE
3D5B9232
BD3C276E
BDC16F5A
BD72E218
3D65E956
3D257B6D
3D785488
3DA58186
3C1AA55F
BCEEEDF4
3D4B35E1
BD7E89C1
BDF36121
3DBD344F
BDA8F9D9
BDB2BFDA
3DB80B48
3BBF1EA6
BC82B7BB
BD84FA0E
3BEB5071
BD311BCF
3CDB4FA7
3D9252B5
3D9A4979
BC91A498
BDB44948
BCCAF4F6
BD4B1095
3D2D0242
3D32F4FA
3CC35616
BB81502C
BDA7336A
BD668004
3D3E7F27
BDB82442
3D11C001
3D23D004
3D8ED9F8
3D808DFE
3DB82474
BD2AE485
BD05CFF3
3D3B3512
3DC6269C
3D665EAC
BDC1BE6A
3D1FD32F
BCD56B92
3C21B586
BCFC7D74
3D46DBC2
3BEE97DF
BCD51FED
3DB0345E
BD1A6D19
3CF3115A
BC4F4A56
3D5D9EA4
3B88462D
3D2B841A
BCD5C69C
3D8C3664
3D8562DD
3DB8F99E
3DBCBAE8
BD968171
BC5E032B
BD8D3249
3CC192E8
BD76CCDB
BD04A310
3BC87B35
BCA9CDFA
BDBEB6DE
3DB8586F
3DF0728F
3D4209F6
3D359688
3B93350D
3D0856C9
3D8D8BB7
3E4D3580
BD9EF337
BD6D6D94
3DB3B706
BE67A1AE
3D92A56D
BD52466E
BDB3FE8E
3CBC83DA
BD580E9F
3C8B4F3F
BCF588F4
BDD02FC3
BD9A4156
3AE152EC
BD5E7142
3D1DB2C9
BDA30687
3BCC4361
BD7FE5C6
BCADE591
BCB92083
BD81A8E9
3DA5D604
3CDEC44B
BBD50FFF
3DFCA4E7
BBA71825
BD806B21
3DCEDC14
3DDBF869
3D786554
BC9ABB12
BD25B0A9
3DE1AC30
3DDD481D
BDE1F3F6
3C3661DC
3DAE8DB1
BD226672
3E268888
BDB4C788
BD4DA8A5
BE0D376A
3CD9035C
BDF215D4
3D05F3CD
3DB1957D
BD19ACC2
BD536C49
BD696DA7
3DFF41FF
3D9625A5
BD7DF495
3CC6486F
3CCDAEBF
BCD60119
BDD6EC5B
BD78CB00
3DC27A89
BD9FE350
3B40AE35
BD139B73
BD5C462A
3B8512D3
BD2B64E6
BD787EA2
3CF14DB6
3DAD9E7F
BCE75452
BCBFF53E
3DAE23E2
3CA19287
3B8E0C84
BDA15D75
3B53C166
3DF22DBD
B8F2EE7B
BD0E6289
BDC8FD3F
BDF2C22A
BD19C11C
BB3D25D5
BD9D0DCE
3DBF6FFD
BD692F16
3C4457B3
BC7B76C4
BD62199E
BCE861FF
BD76CE58
BD28252B
3DB0605B
3D3737E5
3E0682D8
BC8A5172
3DAE63F8
BE7593C4
3D39CE1A
BD3BC6E8
3D045ABE
3D1D7BFF
BD4584C2
3BEDD417
3D9C7D90
3CE6A134
3B30CD8A
3A9F59D6
3D8289A7
BD4C06D7
BD8EB88C
BD1915D3
BE158F6A
BD1E63D1
BBC3955D
3CBC36B2
BBB9779F
BD962293
3D576707
3D4BB949
BD8F86EE
3D389535
BC83BFCE
3CA8DD8A
BD0849DB
3D329BBE
BCE2061F
BD65E3BF
BC828012
BDADCB1A
BD8FF2D2
3D417FBD
3D13E228
3EB1C582
3DB847DF
BC8C04DC
3D2E9041
BE33423F
BB4A43FA
BCAD951F
BD644E43
BC499ED0
BD06D054
BBF4854B
3DBFD36B
BD1D0071
BDD02272
3CAB0F43
3E008CE0
3CDFAADB
BDC1D06D
BD780D48
3C762EB0
BE28F975
3DA87F55
BC365B46
3CD5ECF2
3D18B8F1
BD3DCCFD
3D7E84CE
BD8FB42D
3D2B0986
3D84EA07
3DF550BD
3D41AFE6
3DD0902E
BDF34996
BC8542E5
3D67583C
BC88390A
BB922E3A
3D6B561D
BB4C7188
3E11FD87
BD5C4372
3D85704F
BAEE6FD7
3C9E5612
BD3F0F78
3BBF7D37
BCC265F6
BDCE9814
BDFEF805
3D54425D
BB56F0F5
BD9BFF95
BD8E1D3B
3C116C94
BDA6EE15
3D59847B
BD7B65DA
BDB6F7E2
3E87B074
3D4F1993
BD60BF7E
BD87BF7B
BA7200FE
3D0E28BD
BDEC05AD
BD2DFFB5
BD0732B2
3D9F39FD
3E15D74C
BCFBAF03
BD87BD14
BD53F34F
3D3DA3E5
BCF44FA8
BD73CDFB
3E6DCED4
3D409FCB
3DD010BA
BD403A1A
3A2BA2E1
3D572ABC
3DEE8C3A
3D479B6D
BD5A1987
3D9F89CB
BCA3182E
3D1AB508
3B84266D
BD9CD1C2
BD8200A7
3DAD5257
3E1B9E71
BD939F6F
3DF3A612
3C5CFAC2
3D5B84FF
BE131580
3C6F201E
3CC5B0C9
3D78A934
3DB79852
BBC61875
3E0DCC8C
3E28390B
BDC4B1D5
BD35B0B4
3DB7FA46
3DB6018E
3CA3995D
BEA71565
BDC3F39A
BDB240DD
BD85C24B
BD34FD5B
BDD7CCA5
BCE8EC43
3D1226B1
3D2C0145
3D88E2D3
BD67764C
BD9AC05B
3C9884D7
BACEFA01
BDAEA72A
3CFB8A35
3D56630E
3D01C14E
3D647D78
3E259FD3
BD8505A1
3DE5B2AD
3D472873
BDA16E99
BD2CA857
BD5658A2
3E34F037
3CA897A4
3CD1A4F9
3D47BE5D
BC02C63C
BBF10051
BCF33DAA
3DEB450D
BDE6CCB0
BD08D102
3D43DC4B
3DA29F13
BD6619D0
BC11E229
3DCFE7E2
BD3D1420
BD38EFAB
3D718BCE
BD09F193
BD24099D
3C00888F
BA82EF73
BC36B45D
BDAFA29A
BD5A3D76
BDD632F8
BD9F52F8
BC1A1B6B
BD782A33
BDC1504E
3BFAD53E
BC856F40
3C846941
3D838E8B
3D005771
BDA326E6
BDD40A36
3D72CA72
3DBE6D3B
BDEDF4D0
3D9D2F0B
3D22CF58
3C89753A
3D4D8646
3C12B1FC
3D76CEAE
3E235965
3D79C76C
BDE6AA9C
3DD07DAC
3DCDD4BA
3D5E2F7B
3D69E6E4
BDC54869
3DBBE449
BBF7B891
BDA12B26
BCA92A15
3B16B7B9
3BB71FE1
BC0F144A
BDC5F382
3DBE80C3
3D3AEDDD
3CC0F4D2
BDCDB453
3E030722
3DF72DE4
3CEFD916
BD24C07C
3D2DF33D
BD83DA09
3C9F4580
BD80436E
3C2A24ED
BC9AB2B9
BD5EBD88
BDC3C707
BBE530E5
3C8C5F7F
3AB90F45
BD05BC5A
3D243C4D
3DE61A97
BCF64F9D
3DB71E26
BC403916
3D23A274
3DBB3A3A
BABC71D8
3E4F20EA
3C9C8318
BDB1BE6E
3D95BE9F
3E10D668
BD902F02
3D863A6A
BD278A83
BC554313
BC9C5A13
3C26C61D
BD460708
3DADF218
BDB1D810
BCCF43F0
BD6D0379
BD4CE3E1
3D16C87C
3D6FDA4E
BD0B836C
BDA6CB8D
BD2EEEC6
3DD95F90
3D5B955D
BD90DC03
3DB2254F
3DC9A67D
BCDCEAB7
3CAD66E6
BE2B21F3
BDDDC098
3D7511F3
BD321630
BD981FE0
BCF0CD93
BD1807BC
3D04F497
BD2234E1
BD837C7F
BD83EF09
BD8ED271
3D875A24
BD4C00DF
BCD73937
BD9C5BA6
BD50A4B6
3D04C207
3DC928DB
BD088B9D
BD827CEC
3D44CE5E
3D89033C
3DE6E2B5
3C6B1CE4
BC571EE0
3D5943B9
BD88AA46
3AD80B78
3BD4E394
BA6F2FA7
3CD2B306
3D5626DE
BDED6642
BD195BBF
3D389070
BDBC8B3E
BC252223
3D8D7074
BD9C2A5F
3CFA69E4
3D9BD83A
3D9ED585
3DA8B2B5
3BD000FF
3D4B79A9
3DC4D243
3D0DEEB6
BDB473BF
BC9117FB
3CBE66D3
BD84DE15
3C469DA9
3D5B310C
3CC3D8ED
3D52DDD9
3D2B999F
3D57B44F
3CD51D1E
BD8F3B4A
3D32612E
BD1A607E
3D244C93
BD582A1B
BC185184
BBADD54E
3D1521BB
BD03A92A
3D1ACBA3
BD9C7237
3DA2016E
BCFF3423
3D2F008E
BAE600AE
BCF1098D
39F0E094
3BED846A
BD0EAAC3
BCD56278
BB983DC6
BD67057D
BD97FA73
3B2F7DE9
BC8BC5C1
3D2D114B
3CA862F0
3D8977CB
BDC5DDD9
3CE561B9
3DD81E11
3D22DDAB
3BE50F0A
3DC46CBD
3D46ED14
3C31B8D5
3CC4BDE5
BC9ADAF2
3D48EA3F
BD3E3B72
3B915722
3CB8608F
3C07A41A
3DA8982B
BD51C7AB
BDADF089
3D7048F6
BCBA1E84
3DBBAA4D
BE19F560
BCB8123B
BD2A3C59
BD6A9D83
BD62BDB2
3D8580AE
BA954D37
3DD8EDA2
BB0EBD99
BCDDF2BA
BDA6ADAC
BCD6EE59
3D52E512
BC13E3C9
3CD81C61
BD39B8BB
3C52A99B
3D24DD67
3D08208B
BB72883B
BCE69688
BBD6C3F8
BD9DBF0B
BD48764E
BDAD1295
3DB4B489
3D604E37
BD9E25C5
BC9F48BB
3B72B185
3CED2694
BBCD532B
3D98BDB3
BD871C03
3D440DD1
3C7D983C
3D07FFFC
BD25ECA9
BD712DA5
3B763FB4
3D9CA46E
3CE103E6
3D559D69
3D95A98D
BCB69624
BD55F6F5
BD4E4421
3C8943F6
3CC839C5
B9A0A079
BD214987
3D810658
BC8BD322
3D86D2E4
BD11ED25
3D80EC15
BDB7BC4B
BC2EF8B1
3C6DC89B
BD5F21A1
3CF42BA6
3D95A011
3D8B76C2
3CFA712B
BD8D6714
BC069FDD
BC8BDE9B
BD62225F
BD843FEB
BD34ECEC
3D26374C
3D9E9382
3D4B23FB
3C9D57CA
3D816FEF
3D843826
3BD72C30
BD7183DC
BE058248
BCCE061D
3D3F1F78
BD671A36
3D9D0E99
BD2DC7E7
3BBC93BC
BD8E4F6D
BDCA8949
BD9550C3
3D4EF9A8
3CEA730B
3DAA1CD0
BC0AC9DB
3D123F75
BD2ECFE7
3AD6F3E5
3D12639D
BC8B26DA
BCF7DFAB
3D5DFCAB
BCE8FACB
3D87CEB1
BCA5F63F
BD3E31AC
BD32D99F
3D23FCED
BD43E979
3D2DBFD4
BCBE6409
BD05A65D
3D3CDE68
3BFF68E1
BDB114AB
3C000E1B
BD2BCE7A
3D141EBB
BD6452E9
BCBC460C
BD3230E7
3CA4E69F
3D9525B7
BD557222
BD26F857
BDA524AD
BD10CCF2
3D2CF8AF
3D53B47B
3D14E5D0
3CA74CEB
3C0F5C7D
BD7EE18D
3CA27413
BD2AD7AA
3C94D98C
BDB3C814
3DAB806D
3D236045
BD3330FA
BCCFB0E3
BB824A3F
BD76699E
BD8F4C93
3D65BA8A
3C988EB2
BABC5A86
BB7E09F1
BD62D766
3DA80B07
BDCEC885
3C80C8FE
BD649467
3D1929C5
BDB0C838
3D529CE0
BDB1B3FB
3D63D582
BD9672DF
3D811B5D
3DC95E58
BCD8ED5C
BC398E61
3D76028E
BC2BD338
3D755CFF
3D1D041A
BC29D6C9
BC513F2D
BD6A417D
3CBAA26E
BD9C426D
3E740CF7
3D39A088
BDEE28ED
BCD51566
3DD2D582
3CF0B996
BC53DD6D
3D8A98D7
3CE90710
BCF9938F
3CD8BC8A
3BC41A86
BD3395C1
B9DFF762
3CB4A37B
BD1606B5
3D8A398F
BD955232
BC8398FC
3D2773B5
BD6191AB
BD1D3A20
BCEC9DF8
3D993783
BD0EE5D7
3DC5D407
3D8A113B
BDB89B05
BC1A0036
BD82B460
BC87E44B
BD4B8CCC
3D734C99
3CBEE3B0
3D801F03
BDBEE5DB
BCB03420
3D5DD3FB
BBC3EBD0
3AE0C871
3D9C1FE8
BCCF18CD
BE24995E
BC348F74
BD9187DD
BD715D70
BE081699
3D6CCA2B
3D405177
BDF2BE20
3CF017DB
BCB2CB74
3D730866
BC168020
BC285244
3C9F7312
3DCBF253
3D2C7013
3C0C4B05
BDAEC6AB
3D132B2B
3D918ADE
3D32A6E9
BD45937D
3DAF0F75
3D9103C2
3D6AC3F4
BCC44696
BD42090C
3C823E59
3D935D62
BCB950A4
3D412D1F
BC059A22
BD81E9D6
BD19E77D
3AC91DD2
BDB80B10
3B9A7254
3D1B5A3E
BDF3CCEC
3DE94EC9
BC85A1DB
BDABE478
3D9F41B2
3CFD6510
3DC1387C
3DBBA41B
3D4CACE7
3D9785DE
BD3D05A2
BE13685D
3DCD4208
BCC331F9
BCD2240F
BDBBEDE6
BC82BAF6
3C4301C8
BDBA5A96
BCA1BFB9
3DA33173
BD433D09
3D34408C
BC144286
3D1334B8
BD198260
3D980583
BD3E45BB
BDB0FCB1
BD7D9120
BD91C0F0
3C2BB982
3D0A2EF0
3C83AC4D
BD54070B
3D827030
3CBC50FF
BC2FEBB6
3D1FC7BC
BD6DE794
BDAB1694
BCA67A28
3D80B831
BD8C13F6
3D6A1525
3C833041
3D99819D
BE049D1E
BD62C89D
BDF03B31
BDC41BD9
BDB31B10
BD8DA184
BE39BF4C
3DBF5C36
BD2A3EB0
3D6647D8
3D7BEC78
BDBF5C2C
BCA4ABBC
3D26B7E8
3DBAEFE6
BCA49E70
3D2D4E78
BC154A3E
3D47F817
3D9A1F7F
BD614095
3D8E4854
3CF5F69C
BC76C7DD
3DB19A5C
3DB0E0D3
3CAA59D6
BD9B86F0
3D486FE1
3D50C418
BCDC63F4
BD2D0470
BDF3A71F
3B990560
3CB5B8DA
BDA97C64
3CDF48B5
3D4262CC
3D23D16E
BD939D66
BDC9766C
BB775367
BB2DD562
3CDF5916
BD81D8DA
3C52CC35
3D4110DC
BD0FCEF8
3C2E11AB
3D6B19BC
BB36104C
BCE98D12
3DC48D3E
3D8B5A8A
3D121162
3D804711
3DFF94A0
BD0D827F
BCF9C157
3D053818
3C12AA8F
BD96F98B
BD51AA27
3DD71E5F
3DA13D6F
BE24B60C
3D26162F
3D4C53FE
3D1EF4A5
BC6E8A8D
BD8C2AC5
BD7AE798
BD0059AA
3D56E3E2
3C2550DD
3D915B6F
BD20C834
3D31A4BB
BC500DD5
BD18BA4C
3DBF6671
3CB4D285
BBC23DDB
3C919C7A
BBCB1839
3DC18200
BD3F5157
3D940AF3
BCF6FC36
BD1798E3
3D1B01D9
BD9AAA71
BC99F991
BDA21EF3
3DAE2DE8
3DC9FE7C
3D59FF55
3DB2A744
3C93D00C
3DDD0E13
3D8B6E66
3B22A275
3D55D402
3D24F352
BD1443AC
3D76E4FC
BCA7B658
3A24BBCF
3D42C4FF
3DE26619
3C83CBD2
3DA9084B
BDCC67A1
BDA4A6DB
3D20222C
3DA96214
BD8446E4
3D450C9A
BBB3CDDC
3D7865D0
3DAEC1A6
3DDAED57
3D510E7E
3D725341
3C8CB667
BB06350E
3CB3D22A
BD70068E
3DA19D38
3B89BEDD
3D8E0D2C
3C085C7D
3CFC9D65
3DF798E6
3D9EA5BD
3BAA6D65
BD873661
BD6AE955
3C812C65
3D7591A2
3E0563B1
BBF17629
3B8D7C19
3E9E1386
3E09F28C
BCEAED94
BD5392B4
3DA5223E
3C6802BE
3CB3AFE6
BBBCB241
BD8B071B
BD7A33D8
BD9BA6D1
3DD6FE57
3C851690
BD69F572
BD259302
BDA9167E
3D535FE1
3D0F305A
BC273AC2
3C864CBB
3DC6EE17
3D0CE30A
BD948162
BBA20AC6
BD592281
BD477809
BB0BB1A9
BD904E9F
3D08987D
3C9C7A19
BDEE53B6
3DD665E0
3D5892A9
3D9DDDC0
3C9011FC
3D49F1C1
3D22B13D
3D0D1443
BEB998E4
BE01A65E
BCC91D35
BCC54D0C
3DF03BE0
BD0E3649
3D92309A
BD0FB463
3AA6ADC3
3D36E66E
3C4C4E2D
BD4268D3
3D646997
3BC5127B
BC810188
BABA5CE6
BDC3C23C
BDF7A8FF
BDA3E985
BB794736
BD0AED5F
3D005052
3D551157
BE007A6C
BCBCF8BF
BD974ECE
3C801A8D
BE0A911E
3DC8C310
BD8E7BD0
3D805C25
BD684D13
3C41D954
BDC17BCF
3DEBE122
3D15FB09
3DA1E1E4
BD8F12F5
BCC04550
BDE358F3
BDC02B17
3D2DA166
3C2D9280
3D1D710F
BD0715FF
BC4DBFA6
BCC39A8F
BD1466FA
3CAF18FD
3DEC496A
3CEC7D92
3E482D82
BC9DB50D
BD897B74
BC71EAE9
3D2D6F19
BD9D46C7
3D154102
BCAB3741
BDC9C8E0
BD68E747
3DB93FEE
3D9E7E55
3D82CA87
3DAFD6D4
BD00D403
3D919CE0
BC97ECDC
3DEF4FD7
BE08C8E8
BE09C9C8
3D3EF6D6
3C0A7C92
3D63BB6E
3D150C2C
BCD49B4D
BD2B2403
BD11B8AA
BD405146
3DB342C3
BDA9720A
BC9AB436
BD7892E6
3D4E8918
BDB590B9
BDAE572B
BD3B895E
3D407A16
BD78D399
BD050B6D
3BCA8DF4
BCBC9547
3DC39F5A
BB79E1C8
BE0BCC51
3E590FF3
BCB2534F
BDA24443
BB5E1DBE
BC6582FC
BD81D670
BE0A428D
3D81B157
3DB05722
BD2C08D8
3D87CB1B
BD8B9795
3D583576
3DB60DE5
3D2B1A96
BC21A4AA
3C91AFCB
BD4037E9
3D20881B
BCFCBB01
3D9488D6
BBCD64A0
BD87A8B7
3D328EA0
BC8C66FC
3D9D9D40
BCC263A2
BD6E8B10
BDFE7005
3CAA0B31
BC11C6FF
3D85F02C
BDE079B0
3C65E1FC
3DDEAB29
3D9CD17D
BDB9234D
3C6EEC87
BE2C033D
BD805A9C
BD577E59
BCF39665
BD9F9DB1
BD74E47E
BD95D2EF
BC47054D
3BD7E128
BD02BAFB
BD34F82F
3D2708C8
BD4E7C4A
BD1255E3
3D251B1A
BCBA67A5
BD4A13E0
BE094805
BD6311A3
BD4579E7
3D2551C9
3D1DF917
BC965F32
3BA9C82C
3DA24E60
BD54BEE1
BD186618
BD278FB1
3D1B5FD5
3C936171
BD76081F
3D33A310
BD5C6188
BDA30765
BCF41B3B
3DBDD7A8
BD363962
3D3FCA10
BC6FFA64
BD342648
BD574DB7
3C2BC972
3D948D5B
3DACD4AE
3D8347D9
BDCCE7DA
BDB61993
BC1712C7
BD590822
BCF22E0B
3E161D9A
BC8C773C
BB6048A6
3D578B9A
BD3C1F60
3D79ABB3
BDA67880
3D3168FE
BCC3D074
3CF1F342
3CE88BA0
BC6D0780
3D234E8C
BC054ED1
3D1A1D02
BCC8B226
3DB2A90B
BDAA3FCD
3D026D02
BAD9CD33
3DC84E63
BB0AC27C
BCC1980B
3D646397
BD02658B
3C4902BE
3D91437C
BD111D1E
3D2359C7
BD869981
3D227520
BDA56D29
BDAC2FFA
3BD07613
BDC41BBB
3D3AF894
3CB74881
3DD22043
3D614B8F
BC40B74B
3D6D78C2
3E4946EB
3E1979B2
BDA8A29D
BD2438FF
BD852E0D
3C07C2DB
3D509274
BD854545
3DE6FEEA
3D8C15F2
BD2C02AA
BD550CED
3D157BF6
BDC07EEB
3C842F4F
BD18CDBC
3C3445AD
BD87CFB9
3BFB41CF
BD659754
BD272D9E
BD2F802E
BCFC3EA5
BD94F630
BCBDA09F
3CD599B5
3D3C1151
3C4CAA73
BD3C95AD
3DC692F2
3DA738F4
BD8D3F51
3DE2225C
3D2C2590
3D8DFB2E
BD7D0B9F
BBDB9A92
BD0FD563
3D411C12
BD9EDF5E
3D0EA45E
BDB414C2
BE396E59
3C81AF42
3D8D756F
BD3F6955
BC62D639
3DB647B3
3D41B6A4
BE139912
BDB6B8C1
3D2079DB
3CE20ADD
BD63C381
3D9C4203
3D85D04F
3D5AF529
BD3A1560
BCBEE380
BD48C67B
3D3691E5
3D56BB00
3D176905
BCE004B8
BD688CBF
BD3FCC74
BCFA68AC
3DA638E2
3C9A1AC3
BC05D35C
BD95EDE8
BDA0ABEA
3D94E261
3C16335D
3B7C5EA0
BDCD2AE9
3E2507DC
BCD7C14D
BB9D0970
BD840C9D
BD81B76D
BD29BD6E
BDBCFD50
3BCBF6D1
3D426208
3C5A2586
BDAA68AC
BBB16300
3D6887B6
3D31C527
BC050404
BB9D751E
3C56BCE6
BDFB5E88
3CBCB4A1
BC865DD8
3D56EFF6
3E1591B2
BD6178A3
3DA53589
3BD43190
BDB3B7D3
BCA63554
BD678B22
3CBFEC84
3CE40182
BDA68D08
3CD7995F
3C1C4BEC
3C76B31A
3D843FB8
BC294DE2
3CE7B85B
3DB07E0A
BB983511
3C8FFDBF
BD6546D1
BDB66D41
3D506739
BD81B8D0
3D3ECDF4
BCE86C80
BE2F1385
BD9B04D0
BCE4E4E7
3DB1F21E
BD9F7A2C
BCEE25DE
3D81A4E1
BD138513
3D2630D4
3D53AAC8
BD5114E8
3E004055
BD47DE03
BD186B1B
3D425B85
3D9556FE
BD80F608
3CD98DE0
BDA4208E
BDAB4AE7
BCA02D27
3D47D145
3DA0D827
3C50DFB7
BD919B9C
BD93ACEE
3DB292A7
BD3C0745
BD3C300C
BD31C6CA
3CF5488C
BBAF6CAA
BD829E76
3D674216
3D164051
BD2105E2
3DBB59B3
BCE1C8B2
BD45E44E
3CF39AD2
3C59AC44
3D428266
3DAFB94B
BD694D69
BB582919
3D5C5D36
3D352DDD
3C98ECFC
3DCC64BB
BBC25A1C
BD32B1E4
3D9CBEFC
BD71EE4A
BE3F02B7
BCB1DD83
BD7BA9B2
3BFBF1DE
3C873F3F
3AA601BA
3D2D5A89
3D033846
BD15EA3A
3D0017A0
3D02727E
3D854F06
BCE6C318
3D97BE21
3D9235F0
BC3AFF85
BD78CCF8
BC0AA43D
3D0100E4
BD2180E1
3C45F1F2
BD479D93
3D819189
3C870C6E
3D03A10C
3CD5F12E
3DAD3D98
3D8C71BA
BD96B5BA
BD010310
3E094CF3
BD69BDD1
BDB003BE
3D396D8A
3D12E3AA
3C7100B4
3C37246F
BDC79172
BD3A937C
3D63B70C
3D09ACBF
3D8AEFCB
BCAA3766
3CAEF3A3
3D94144F
3DC3CDBF
BD7B4896
BDB4E283
3CE94737
BD85BE8D
3D584FC5
3D934457
3D7EA3E2
BCAA1CAF
BC93EE2F
3D464CF9
BD93427D
BCCB5925
3CAB818E
3D846BC6
BD83A90A
3C9EF107
BD5CCF16
BDE374A2
3D331F87
BDC6A930
3D60AF3D
BDA75C1D
3D5A8359
BCDC98BD
3B0CA964
BCB5FED0
BD8B6B27
BD0C7407
BD83717F
BD8C5856
3C8F1C5D
3CC1BCFF
3D4B09B9
3D783CBA
3D0FAE61
BC47F46B
BDBDD088
3CD93E25
3D1A67D0
3B010D57
BC67AB75
BDC35797
BCD8D777
BD72A7FB
BD1F17D8
BE2CEFB1
3DF263F3
BDB3E0BF
3E03521B
3E9AC3E5
BCF429A3
BD59BACA
3D985AE3
3D306E45
3D48B79F
BD58D356
3D051B60
3DC88FAC
BD28279F
3D9DC42D
3C8A9C8C
3E3412C8
BD478606
BD537027
3CDECAF7
3D923224
BD9ACBA0
3DB6FEF9
BACABDD4
BDC3D2FE
BC1F489D
3DCD28EB
BDB8A354
BDBA2A32
3974C431
3DC82450
BDAD2BBD
3EBBEAB0
3C7CB49C
BE60BB5B
BDA9D7E9
BDC8B724
3C823438
BCF2A422
BD96B036
BE2CDB8F
3D38FAD8
3E625C08
3E984768
3D306C8C
3D69EA5A
BD04BD09
BD7A686C
BD8921EA
BE02B283
3E2CAFF0
BCC6E623
BD05E92E
3DDB7572
3DD3D4A1
BD2E0061
3DC6DDF1
BC02ABC8
BD72BCEC
3D7A30C6
3C1B5B92
3D8F9C6C
BC882F84
BD82B454
BD96D2FF
BD32566F
BD6860E5
3D9E3467
3C89C709
3D012E59
3D998819
BD104A93
BE4CB443
BDC88D3C
3C0DDFE8
BCA41325
3E12FF6D
3D43343D
BD5E6EEE
BD74621A
3E8BBB8E
3DF528A1
3D84698F
3D87B120
BD0C5EFE
BDDF7ABA
3DC00CF6
3CE712DF
3DB877BB
3B98A1C0
BD1C3BC3
BC88C124
3D75C42D
BCEFD957
3DF5E09A
3CA66641
3D662FDA
3D9574DB
3BE3B9AC
BC0ACDBC
BC51B0F8
3DEF6076
3E2B1990
3D434552
BDBF264F
3D14C5A2
BBE4B740
3D03277D
3D24A34B
3BADB1BB
3C4355E0
3DAF5576
3E8A0136
3DBE53E9
BDCE761A
3DA25A7E
BD03A727
BD00B956
3DAA0EAC
3DA75C28
3D6F4560
BD220751
BDF33956
BD6B47A7
BD04D9F7
3D0A0979
3D84D707
BD87A41C
3B09EE0D
3E1B057B
3907D7F9
3E6D1AF2
BDB3BF69
BC634CF7
3CD35F1D
3D6BA43E
3D6D980C
3DBF151C
3D042D81
BD6FD98A
BD251EB8
3D8451D8
BCE9AD78
3D34A193
BD81C14F
BCAB448C
3CEBB607
3DD92FE7
BD3E5434
3D81E14D
3C8B2F63
3DA7587D
BD8DD7FE
3D370743
3BAA0E62
BDA3DBE2
3CFD4B9B
3CB9266D
BD9B32A6
3D8AE27C
BD25221E
BC96495D
3D22991A
BCA8B45A
BDB12A59
BD9D9575
BD6F4420
BD934426
BD513C15
3AA19E6D
3CB69DAC
3D8075BB
BD40FB05
BC4A0903
3DB1BBEE
3B97B9CC
BD3E0318
BDADC57F
BD3DD731
3D33391D
3D27DAA5
3D6ADDC2
3DB7F04E
3D7CC93F
3D791A58
BCC8178C
BD2BF5C5
3D4D1321
3D83DB96
BD60FF01
3D988A1E
BD3AE9CE
3DB9EC5B
3B7934C6
3D5C6472
3C549C24
3D6D2456
BD8CF790
3A1841B3
3D7CF5CF
BD187DA8
3D924245
3D2021C1
3D611495
BC831E02
BD9A20E3
BDC3C568
3D94EB33
3B6B9126
3BB60A04
BCF196A6
BD8903E5
3CCC6188
3C9E5612
BD14E19C
3CDBE772
3C9055B9
3CDDE8A9
3D80103F
BD62A68E
3D1FE820
3CD00830
BC4A60A1
3D2DD977
3DABEA95
3CC4104B
3DE09742
BC811A52
BB1B34CF
3CD6D9E1
3D034476
3B17A51A
3CC4A6A3
3C81F223
BCD11DBA
3DC328BF
3CA2A3DF
BC984C78
3C945470
BCAC2F94
BDB2D201
3D6C8742
BD81776F
BCC29F92
3D7187C5
3B53B7DF
3DC89A95
BDA2D3F3
3D8B0F84
BBF5657D
3CEE9A01
3D0CBB0A
3BA2027C
BDAC6020
3CE70375
BD4C8D04
BD10FC9F
3CDA7292
3CD469AF
3A29A7F2
3D2D0AF3
BD7F4491
3D57E727
3D93C271
3D40C611
BDB1DD3D
BD947DF2
BBCD2397
BDA5462A
BCA37865
3D258DCC
3CC441DE
3D2FCA66
BCC3DBF3
3C24716F
3DB2E12D
BD67EE6C
BCD6FFD7
3D094828
3C60EDC1
3C4304A2
3C7926BD
BD3B90C2
3D15AC85
BD1926F3
3D56AFE5
3D076BF5
3CBB8A9B
3D9494E2
3E15D10E
3CB8906A
BD037240
3CA1D218
3D7E4228
3D93257C
3D609F17
BD95469D
3D758CB2
BD06CDE8
BD45AF39
3BEE349E
3CE95849
BC3CA00F
3D74D306
3D20CA53
3DB47EE9
BDB7CB2E
BD812999
3C8E1E10
BC8C9606
BD8AEA82
BD7BD6BB
BC986DC5
BCD5B554
3B7C1B44
3D69B1B8
3D9CCCE2
BC084AAC
BB00DC5E
BCE9E78A
BD70D41E
BDD06A03
BD16C40F
BDB211FB
3D56677B
BD97D647
3C507E1D
3D397A68
BD53550F
BCB3D2DB
3D34AEDE
3DF718F9
3CE82D15
3D17824D
BD72A8C4
BE0BB9C2
3D4073F6
BD4CCC4C
3D1E797D
3DC6595F
3D733E49
3C82A623
3D1E018B
BD7F2351
BD91D6A6
3ABBD94E
3DDE57DA
3DA63E8A
BD34A5B7
BD09B12C
3C79129B
3D1D2A63
3D9E188C
BDBD624C
3DAE809B
3DB04030
3D326875
BD7FC647
3D276950
BD171E22
BCCE360E
3CED8717
BDB5FC61
3DAC6AE8
BC955C58
BCE6EDA0
BDC9BCB8
3C969477
BDE77B47
3C325E8C
3D576DDB
BC223CB7
3C9B3E1A
3C91928A
BDA71989
3D1B3886
BDF72C01
BDBD5715
BD6F7424
BD974C64
BBCDEFFA
3DACD949
3D7F8F42
BB7BC555
3D1D5F5C
BD9C921F
BDA00D83
3D0F1EC4
3DD65BA7
BDAE6100
BD9C2E27
BD0E77F8
3D365D9D
BE12F896
3DB789EE
BDBADA43
BDA2D5DB
3D933498
3D215471
3CFB450B
BD67AD4E
3D6C72D2
BD92D84D
BC1F668F
3D1877CE
3C42ECCF
BDD5F890
BD8B2B8D
BD380D8B
BDA672F6
3E01E802
3D849F3F
3DCB02BF
BCB1A4E3
BCF32F5D
BCDA8619
3D8D47B9
3C95E397
BC313247
3D91FE31
BBC4575B
BD631E96
3D1C804C
BCB22A3A
BBFC2FED
BCFD8A19
BC460D96
3D7D6BAE
3D279CF5
3DE8C693
3D3B9433
BCD8CAFD
BDD4A44C
3DD2ABFC
3C65016C
3D57782A
BD527896
3E54F993
3D142053
3D9F36BB
3DBC14AA
BE90BA15
BEA09E02
3A31B868
3D78F4CE
3D6CCA3B
3DA439C3
3E4330A2
3E02FA9A
BE05D58A
3DDD1004
BDF10003
BDA3DAC9
3C85EF58
BACE6A06
3DDF907C
3DBA3652
3C567AC1
BE049760
BDECDDE4
3D997038
3CA1BFC3
BD96687A
BD19EF7A
3D7123A1
BCF53E0A
BC8E1A0F
3CDE5682
BE4DD3BB
BCFE2D02
3BF90085
3E138016
3C3776CF
BD94A8C0
BE0055E1
3E02592D
3D387FDE
3CF7E1AE
3E0A4547
BDABE162
BCAD9F65
BE02FB64
BCADF5A2
3C258042
BD8F3458
3D860025
BD996036
BD9E7B9A
3C90763A
BA52025C
BE3CD361
3E11D03B
BE07AB1E
3DF8F224
BD5F472E
3CE5F8D8
BD2DC197
BC179FC9
3DB403C6
3C790AC3
BD3C11AC
BDA7A459
BDBB62F0
3D81B55E
BCAA57C2
BD6DF8D2
3CA3999D
BD59E343
BDA1ED62
BDD2B21F
BE3BB4FD
BCA5EB87
BD49B10C
3D14C806
3D141127
BDACC88A
BD611E48
BCA694A4
3BDAB5C1
BDCD905C
BD850FCC
3D947F5A
BCADDC01
BA6BC06E
BD168C9F
BD84150B
3C9B3C5C
BD9CF5DF
3B364048
3CA64FC6
BD1B2F61
BCD8E88A
3DAE8BD2
BDE4B373
3D18AD79
3DA41A5E
BE0796EF
3D169794
3D93408C
BDB3F367
3C8F1F6D
BD7C56E9
3D2CF9CB
3D2D14C9
BD047AAC
BD41CF7E
3D197021
3DC8C230
3DDF9AEB
BDA02A0A
3D2593DE
BD07BE40
BD8DE5EC
3D3F2D57
3D353643
BDD97537
BB8A1379
BBA40EAA
BDC06FF8
BC953F78
BC839A39
3C531399
BCD57111
3D872635
3D409686
3E06A37B
BD441B7B
3B06582B
3D513ABB
BCFCB9FA
3C414B2F
3DA0251C
BBCEE7F4
BAFD80E4
BDF40471
BDFA2B9D
BD14FA63
BDDCB388
3DC5B5B2
3DDC3032
3CB14C8E
3D0D4802
BAF83B90
3D22468F
BD99D81A
3D28CDF5
3DA64F72
3D9815F5
BD12EF7C
BDAAD549
BCD31B56
3C2D8077
BC663DD7
3B1CE64D
BB067FA1
BD44AD8F
3D00B0ED
BD92DE8F
3CAD6BF9
3D903C5C
BD92762A
3CFF6AB4
BD188D42
BC5DA166
3D78FA7B
BD6774EF
BDBD08E5
3C1AEF62
3D44DEB4
BD045369
3C82D38F
BDCB8EE3
3D340667
3D050AA1
BD02E263
BD1F74C0
BCA30BD9
BD384B6E
BD380DEE
3C91216B
3CA16FED
BCF0E38D
BD67B15D
BC89C719
BCF83881
BC3FF4B8
3CC487E5
BD95E784
3DC589B9
3C264173
3D6F1501
BDA0D7EC
BCE4F36F
3D8D891A
3C6D07AB
BCD12BF2
BDEA2AC6
3D4242A0
3D7B8DC0
3D0C21D4
BB516DFA
BDAC7CE2
3DA450C2
3CB0472B
BD52C478
BD035C40
BCE05C0B
3D297242
BCBF77AF
BDE099E1
3CEE5375
BD8F49FE
3D01CC6B
BC923044
BC2C0A95
3D39D44F
BDB96B07
3BE960B7
3D76C618
BDC3431F
BCAC71D3
BD5EA42D
3C918FAA
BDD90B41
BCB843CE
BE3B871D
BDA47E83
3DC21301
BCC13412
BC998151
BDBB224D
BD4A3F8C
3D818942
3D86C485
BD942CD2
BDFA6B94
3D3953FF
3D8E3F6D
BCA43A9D
3D55290F
3D841388
BCCF70C1
BD2B26B7
BADE8633
BD992D29
BD16EDCB
BD44F6F5
BD5B2817
BBEB49CA
BC2C58B9
BB602FC1
3D009AED
BD7AEA9A
3D0247C3
BDA6A146
BCAC09FF
3D9EAA4C
BDD29FD3
BCA83A11
BD0477CC
BD0499A2
BC2B1B37
3DBBF396
BCD856D9
BDBB621E
3D761C57
BB691909
3E545CA1
3D888731
BD248C47
3DAF856B
BD2ED0CB
3BFB3D74
3D0D8323
3CA6F999
3DBA4ADA
BD63D97E
BD3CA5D8
BCA10076
3D0030ED
3DA17858
BD98E17C
BD902205
3A9F9B9A
BCA5F21D
BD6759C9
3D24B008
BD83D85F
BD002A0A
BD0DB5DE
3C47FA55
BD0EF3F7
BD8D8CF6
BCC46FC1
BD2C3C61
BDB5BB21
BD86A7A8
BDE90FC4
3D96021B
3D40FE3D
3D4D253A
BE13C43F
BC4F1F78
3CBE006C
BC2D6427
BABEAB55
BDC059F6
BCFD11CF
3C4EFD9F
BDD6224C
3D84CDCA
3C3533FF
BD4900A8
BCE9E8A7
3D5D6D69
3D3BCC95
3E04CCDA
BC403F96
3D832A6C
BDA61659
3D3A7120
3D1FF0B4
BD4ED43E
BCF39523
3C861919
BBDBE446
3CA4EC6E
3CF72805
3DBA51BF
3DB11A4A
BD09AEFE
BC95D9C1
3CDABCFA
3D30E1C5
BD26F84A
BE1312A4
BD756B8F
3D488E29
3A5B1CD1
3D0875B5
BD585C78
BD63E317
3D2B459E
3D4EA95B
BBEA698F
3CB5D168
3D18EFFE
BD1A855A
BDA36911
BD45C605
BD1F964E
3C660070
3DF3810F
3C561EDB
3DB1C311
BD33CF38
3CFE588B
BBF1E42F
3E568753
BD6C6E02
BD53279D
BDDBC64A
3C72E1F5
3D7885C6
BD870092
3C549D9C
BC892DB1
BD5C0019
3D8677AE
BD1097C0
BDAB18C4
3CC6840E
BDA8E405
BD40C929
BD0786FB
3D98A1B5
3C139721
3D82F5CE
BDD60C39
BD35DEED
BCC53BF4
BDF0D7D9
3D5BB090
3D59F38C
BD03C788
BD355F02
3DB0438D
3D3B380F
BC0FC25D
BDAF7630
3C2838D9
3D8D424A
3D4D61D0
3D6ABCFA
3D27BB35
3D141246
3D81C97E
BD0A05A3
3D9110E8
3D289555
BCE89BD6
BDD089BB
BD950F7B
BDB8E7E6
BD8765FC
3D4AA43B
BD18FC56
BCDA4A44
BD70856C
BD89A5AE
3D901938
BD78C663
BD092CF0
3D06B3B9
BB82B742
3B8A861C
3D8DA33D
BD093DB4
BD6BAFAC
3DB181F7
3C8E0D49
3D526703
BCBBA156
3D140583
3CF606ED
3DA2B1FC
3D3F8E2D
BDCDF0AC
3CD57E8D
3A8B3618
3DA632E8
BC87DEC1
3DAE16AF
BD1B7B9F
BD6E4695
BD9D657A
BCB3EAC4
3B2F3E5C
BDA23EAD
BCB83B4B
BCC8B9B3
BD106C7A
3DBDF6ED
3D8BF0D0
BD69A1AA
BC3495EA
3D6895FC
BD888744
3D9A1EB5
BA388940
3DB69A08
BC3159B4
3C99F3F7
3C46EF12
3D57B70C
BB3183E0
BCBF9EE7
3DB4321D
3D5DFE4B
3DB1FACA
BD6B66B9
BD08B172
BA6B4666
BDC71EA4
3D1F3110
BDAE1CB1
BD37F4C4
3C21334C
3DD724ED
BDD37296
BD41798D
BC8AA250
BD41B969
3C64B495
3C90362E
BB851AE9
3C702A35
BD3AB71E
3CDB5DFF
3D0492F7
3BCFB912
BC712B66
BD3A42EA
3BDDFD38
BD633B87
BDBCF45D
3D2B9D1A
BD2D6FE0
BBA829EB
3D76F0AD
3D84D21F
3D376F53
3D5B5635
BC799481
3D823331
BD52BB1E
BCC60C6F
3D7BE6AB
3D9FE1FB
3D95597A
BD5D508E
3E15510D
BD896E61
3CE2BB51
BD77C2BA
3BE5DDFE
BD8CBD22
3D85473D
3CADA7CE
3D335BE0
3B4407FA
BDB7E156
3DD0F5FF
3DBE9E18
BDC8C0A2
3DAC9A0D
3C1C8745
3B8B8EEE
3D21179D
BD7ED5BE
3C73478B
BCD93BF6
BD5A1164
BD596CD9
3D265B39
3D8C558C
3D8D96FB
3CA42792
BCDDACAE
BB9956F4
BC60386F
3E2C3B13
3D2D9374
BE0D34C4
BD9F3E86
3D18D9AE
BDBCEACF
3D8EE8AA
3D25D59A
3E0E16A8
BCA663E2
BDE19539
BD0D385D
B9CCD729
3D615934
3DBAFB25
3D9C9981
BD6CB471
3DC8F6A4
BD13DA88
BB4758F8
3BCE5AFE
3D5D2FF1
3A3788FA
3D2E5DB1
3C9EAE56
3C02E3AE
BC2F2EED
3D28280D
B9511246
3CA2CC53
BD4A6836
3D983DC6
3DF64DDD
BC7AFF3A
BD8DDA68
39FB7A9B
BB5CA604
3D3E4DF4
BA9897B3
3D58F3A7
BD3D2748
BD703D8A
3D3DE7B2
3CB0CB8A
3DD0302F
3D34E275
3C90B8D5
3DDA3EF6
BCDC1052
3C4CCEBB
BD1880D0
3C054EAF
3B6FF372
3DF7BDA7
BD539D51
BC99B5A4
3CAB4CB0
BC88548D
BD77059E
3DABC758
3D727A33
BE08F6F7
BC5650C5
3CC607E2
BE102829
3D30EDCC
3DA4946F
BD17219A
3C75DBDA
3D36B747
3CAFF9E8
3D39CD8F
BE196257
3D2B94E4
BDA18CCB
3D65B2BA
BD5CE0C1
3CA98CF2
BCC0E471
BDB057E6
BD547E67
3D3EE495
BE0B99EF
BD9C1ACA
3B86A74F
BBC731A7
BD3120FD
3BC8A3A2
3DA79922
3D12674E
BD20A91B
BD080C76
3D97D976
BD8AB5A7
3D0DB8E6
BC20A9E7
3D8EE905
BD82BB83
3D07271E
BD5E3255
BC65BA24
B9BA2130
BC0E5CD1
BD642F8A
BDB9BB46
3D1C63E4
BD1FD248
3C44068A
3CD1D098
BDC2C632
3DA3C637
BD3502B1
BD541B10
3CAC42EA
BD496399
BDE8FD27
3D8F9F9D
BD597F35
3C8D8E89
3CAFD2D1
3D466AE9
3D64C6F7
BD8355AC
3C4662FB
3D9CC2B6
BBB8F254
3D1A7AC3
BD49EBB4
BC7AACE5
BDAA5D1E
3B891D85
BDC89A75
BD2C2E51
BD38D8D2
3D3CE452
BD25C600
BDBA1356
BD8DAB6A
BC935502
BDBD006D
BDA9BEEF
3C9EBCEF
3D836325
BD1B0C25
BD8C9897
BD9E6AFE
3C4619A0
BDBA9A88
BD999FAD
3DB0A481
3D87035D
BAD75341
BBE8280E
BD7E0E9E
BBE2A49F
BB3E0DB1
BCCCFBD1
BD510797
3D5D3F30
BC62DDDB
3CA1CCFA
BDB1BB67
BCAEE536
3CF6889D
3D8D4B31
BD9C3EE9
3C146D66
3D50822E
BD884554
3B5FCBA0
3DB724BE
BC9E6F16
BD047187
BD7A9DD3
3DA9109D
BCA50ADC
BD8CE76E
BD998C66
3CAE8224
3D63AFDD
3CD395F4
BC872487
BD9C086A
3D1BD772
BD81A731
3D8D799B
3D705F00
3D2AA67F
3DEBF56C
BD610AB2
3DE1AB81
3A2047EB
BC0CD566
BCAD4812
3DA0384A
3BACB607
BD61A140
3C8DF76A
3D954BFE
BD8149CC
3D38FFF9
3C83FC59
BD378D68
BDF7495D
3D77ACDD
BC4042FC
3D8A5C0A
3D880206
3C86E08A
3A0F6608
BD5685FC
3C98D92A
3C625184
3CA87809
BC4FEC67
3D233B8F
BD36618E
3D4B1D1D
3CA9B3DE
BAA51EB3
3D1F31EF
3A3D4F9E
BCDC37CF
BDB03DDC
3D3A5D77
BC80A4E1
BDE8CECE
BC256B3F
BD761BC3
3DBF449F
3DBCE351
3D86A9EB
BCD2E44E
BD3D4DC4
3DAEDC4B
BDAA87C3
BD57C990
BD9AC914
3D881E9E
BBF8E82B
3CC014A3
3D3EDD0B
BB92D151
BDA30011
3CD8AB93
3AA21DAA
BAA8C9FD
BDA271FF
3CD52FFD
3DDEB456
3D8B0694
BDE4899D
3BCBCD62
3D5EB5E0
BCAA2DCC
BD879254
3D31D5FB
BCEFE6CD
BDB62DD2
BC99BFAA
BD83595D
3CF0CC41
BC8C8412
3D5E7066
BD9158A5
3D6135BD
BD1FE647
BD11C9FF
BD885B2C
3C8F556E
BD993716
3C34B346
3D2FE657
BDAB2EC0
3CD648F2
3D9D1800
3D8AD99B
BDC4BD92
BD765CE6
BC9A9491
3D30E74E
3D5B291E
BD0D6C34
3DD04139
3D935B1C
3D752C85
BD7E33DD
3D255E91
BC814285
3CC7BA2E
BC7A09F2
BB9470AE
3D3662D6
BD5EFA4C
BD686A82
3BC75194
3C72506A
BDABF470
BDAA0353
B9301098
BCFA6C48
BD72FD13
BD82EA3B
BC8B2CBF
BD89371E
3DA91EE7
BD93DC0B
BD6AE6B3
BD71479E
3CD1A22F
BD974875
3D9E0F29
3DA3DB05
BC0F29A6
BD8C7982
3D82C8B1
BCEA0019
3C06C177
BD31F622
3CC8E8ED
3D5BF6B1
BBD71E7D
BB09AE2A
BD8E6615
BD754D3C
3D956580
BD5C35CB
3CD960E5
BC949FD0
3D3C6127
3D9AE5EA
3D5326FF
3CC6221E
BB9F54A9
BD83D302
BB0AC857
3D8293E9
3DBB2BFA
BD9E4F4D
3D99F983
BD28106A
3DB9B0DB
3D056B1C
3D6DF62D
3D8410BA
BD3FD161
3D28A7EA
3D5B2A9B
3D30459B
3D933357
BD08252D
3D88BEB8
3D7FD1F2
3DC7EF6B
3D14566C
BDA38891
3D0ED27E
3D3FC5CB
3D90DB63
BCCECE04
3E438F80
BE76AAB0
BD777D75
3E103E42
BB6E99AF
BD88427D
3CE0976A
3CCCEBEC
BCFCA68F
3E225A40
BDF8730E
3DA26D29
BD8C8DBC
3DEB33F6
3CB0554D
3C7DB187
BD5031E4
3D1C6C7D
3CF0A59A
BD3C9961
3D2CDE32
BD8199DA
3C2D0775
BCB62012
BCBBD50E
BB5CBDBE
3CD1719D
BD763B2D
BD747B3F
BC511D34
3D25BF92
3E510A49
3C929DA2
BE2A8C87
3D89E125
BE4B5F0F
BC8C92B5
BAB3D25E
3B62FF76
BD76B6D9
3DCCBB34
BDFFE2B1
3E2B799D
BD5AF7C3
3D1C350D
BD060644
3C660558
BDEE6F9A
3C534415
3D217A29
BD276738
BDBFAE49
3DF92642
3E1E7CB5
BD1E3F96
BD4B0265
3E54DB88
BD63137B
3E3B14B0
BD45B462
BC5F23B2
BD632925
BBFA5E2D
BDF87F60
BBD40DB8
BD6148F0
3D518AF2
3A9D2892
BD0C1493
BD6B6FFE
BBAB1DEC
BCE13951
BDE61855
3C1348D1
BC5968FD
3E189947
BC357E06
BE0C54E5
3D84D81B
3D7D8938
3E5191A1
3DA69DC1
BD8FC085
3C050E12
BE1D03F5
BD11D5D3
3D46B1E6
BDC9210C
BDCC218F
BDC986D1
BD70D44E
3E109BEC
3E29B46B
3E044E57
39807B40
3D988EF5
3E7ADD7B
3D9A15F6
BD536EB2
3D44B2AD
BDF9629A
3C1FC6BB
BD4568A5
BDECBDCE
3BE11641
3D8EB0B9
BC91898B
BC3C17C9
3E02E13A
BD457A6B
BDEC7128
BD49C0B1
3DAB31F6
BDFD9E69
3D5DD093
BD010820
BC8760BD
BBFFF700
3BF16B7D
3C8C0389
3DC5255C
BE3E9B97
BDCE7E12
3D9D8D5E
3DFDD484
BC8C0049
3CED9793
BC3A9324
BC229B35
3D8CFC12
3E5A1F4B
BD1D663A
3D3388AE
BD83F0F1
3CB23DE0
3D76FB47
3E8BA6BA
BDA4E186
3D8EA889
3D12C595
3DA4D93B
BB8851AB
3D72D8C3
BC4F4131
BD38F6EF
BCF80377
BC2EDABF
BD0EAE1E
3D3A2586
BD7AF5D8
3D2D8633
3C8732DA
3D06EFA6
BD91F057
3DBC9424
3B9CAE97
3D5DDD79
3E0DEEB4
BDD197B0
BCA08271
BD91E9E0
3D339132
BDAD5182
3B3576D2
BCF7E78D
3D3882DE
3D3F07B8
BD875ED3
3D541D4B
3CFE21B9
BD6783D0
BD1E7A4C
3E2C6AB5
BD05B881
BEB1F513
BE635E38
BD2C9790
3CDB66A3
BDA5C4D9
3C2328ED
3D9EF9E1
3D2E403F
3C94A1DE
BDA93E6D
BB6EFFB0
BD10299E
3D824A0D
BC86D5D8
3CFE31BF
3D86F828
3D8C39A9
BE2A8CBD
BDF1BFB1
BD77E05F
3C80B7D1
BDA4BA47
3CC937F8
3DBF9066
3DB12B25
BD38F2C0
3CF72E7B
BCC54544
BCC9554E
BC930348
3D7C5599
BD0F89A8
3DA2AE21
BD04020D
BD8192C7
BDC9CC0C
3D9C17A3
BD800A59
BE0BDBF8
BDD41C24
BCFAA5AE
BD7FA996
3C598A6B
3CAC494F
BC94E9FD
3D45E4B6
3CA86ED4
3D79AC31
BD2D0FDB
BCD0CB7A
BCCC4F23
3E236D65
3D1FFD79
BD264DD2
BD903AEF
3E6D1B42
BCC4A521
3D7F95D5
3D9F3F87
BD4589AA
BDB49903
BD6AC157
BD6DA824
BD6A035C
BC2C3B9D
BDA04977
3D5CBED8
3D95510C
3DE803DB
BE019A3B
BE625F6A
3CDF310E
3D8120EF
3DC27627
3CC2B9C4
BD9C3DA1
BC134D5F
BD5C0A72
3CA831C8
3D8FDBFD
BD791C9F
3D07003A
3C0097C2
BD1161F2
3CF67F58
3BD12579
BDD18838
BE064239
BDAA8C6D
3D00297B
3C3A2A9E
3DC0A783
BD3A44DA
3D29D18D
BC2F57DC
3D4CC393
3D9069A4
3D8E826A
BBB355EC
3B8AC0C1
BD3DC47F
3D79140E
3DC551CE
BDFBEA0C
BCD30815
BDCB9278
3DBA0E83
3D9A0748
3D02142C
3CD01693
BDC15882
3DCB4F5D
BD5D910D
BDB56E31
3D0BB5BE
3CE473D8
3D54FBFE
3D5A31A2
3D2DCAB1
BDA70704
BD318C6F
3CA7477D
3D892CB9
3BDE9761
3D814531
3D45B40A
3D0A00F3
BCBEB98F
3C679749
BD75BCB3
BD607355
3C967898
3D69AA15
BE068A57
BE4E8AD7
3D1DB344
3CC47C51
BB40397D
BC859D53
BD2D74F3
BCA6E9AF
3C93378B
BC0B277A
BB41E607
BC89570C
3DCB3C87
3B383800
BBA96A2D
BD112BF2
BDB598FF
3DBFB60B
3CCA6630
BD80B0B6
3DC0F6E3
3C84FD30
3CCE75DA
3BE24961
BDD1D077
3CFE5D94
BD599131
3D48A8AB
BD91685C
BCCE205A
BC109E9A
3D18BEE3
BD9B0239
BDC3AB3A
BD26090E
BD858DCA
3D7FFD2E
BDFE5090
BDF9211E
3C925486
3CCA65BA
3C71EB55
BC164D36
3DA12243
3D9EE9DD
3DDD018B
BD0840BF
3C945FB3
3DC1AB9F
BD47C85B
BD895648
3D68EB33
BD485587
BD4133ED
3D395F0C
BC0BA1B0
3D1A1EE2
3DB000B3
BD980BCF
BD6B2822
BD9AD3F3
BDA33841
BDC1039D
BC84EB82
BD6F28EB
3D3E3065
BD98780A
BDA5C80A
BBA67D00
3CF55C8E
BB642D55
3D9BF05A
3D4FCB5D
BC48998C
BCFD45E1
BD8E0346
BBAF3103
BC082D53
3D0DE513
3CA6ED4F
3E015B6B
3A5B1873
BCDB57F5
BCB5B1EE
3CA7F191
BD98457B
BDBA2E98
BDA48430
BBD537BE
BD8E42CD
3D0CBD0A
3E090236
BC87789A
BD553F1C
BE284274
BDD73995
BC674081
3DBB11C0
BC00BD1B
BCF9EC75
BCADD77F
BD80303B
BD4FA311
3DC27600
BCAA38BE
BD627A39
BD1534C3
3D1639C8
BD9BB485
BDB45243
3DBBA7B2
BD745920
3CD1E489
3D1FC260
BCF11BA6
3DD29D41
BDB36408
3C441FB5
BC4F49AA
BD134A1A
3D42D545
3BD4D33D
BD3F7597
BDC4A59D
3DE8BFDD
3D8975DF
3D9EBE29
3CE8BAAF
3D2A339D
3DB790F9
3DE25298
3C998F33
BDA7E837
3BA3D5F3
BE0F1FF2
BD02CD1F
BC3D6D7F
3C70CCFC
3D48A652
3D9832D4
BA9A213A
BD6AE0CA
3DBFD248
3C177AF9
BDDA4A13
3D5F5DA9
BD3CBE4F
3DBFF0B9
3DA204D8
3CC885F6
3BBB5196
BC5A3494
BD5F3EDD
3D9D1411
3CCB7E63
3D497316
3D708E7B
3C156B0C
BD7F104E
BD0D7FDE
BDC0B33C
BDACBD18
BD941023
BC05BBD2
BD980F6B
3D865D3B
BDBC4480
3BB66673
BC049E05
3C3F8DD5
BD14D872
BD890A53
3DC01253
BB47BE8A
BDCBFE7E
BCE19653
3D816900
3C570F66
3C9ACC54
BDE4AFFE
BDA98E45
3C014E46
BBFDABB6
B911DC87
BDC4B664
BB64AD90
BD95D61F
BDD689E5
BB949715
BC5AAB12
BBF80BB3
BDBAE18D
BD489BBD
BC56A5F4
BD872AC4
3D12E507
3D2BEAD8
BB1C3F40
BDA6C37B
BC045BB7
BC09460A
3D98119C
BD0BD297
BABF0B29
BD2AB0E1
3D6D4A1B
3C2FD0BE
BD845E7F
3D8D73F8
BD5411C0
BD5F5EBB
BCCD5B3D
3D526CC2
3D0E871C
3BB29C82
BD4A1E7A
3CA869AC
3CCD9418
BDB9E047
BD5F7503
BCA949B0
BD0BE680
BC8C8824
3D331419
BC9A7699
BCC9ACC2
BC51C2B6
BDA16650
BBA8BBE3
BC690547
3D9EA873
3B5F719E
3D9CEF15
3D47F9A7
BC9674C7
3C612432
BD07BAD5
BD230147
BD656770
39BEC6B8
BB49BD52
3C0B2DA0
3D1E01F4
BC70C73D
3C376527
BC00DE49
BD64B2FD
3C1A10A3
BCB4A122
3DC0960A
BCB7C65B
3D407D20
3D2808D6
3CE1A88C
BD3C55F4
3CBDE563
BD131E4D
BC0F836C
BCBCEC9A
BD843F0E
3E0128C6
3D62D1A1
3D00F109
3CFF282F
3DB562C0
3DBCD2A5
3E8679A1
3D91AD8F
3CCF3D2A
BC4B6564
3C0C4571
3B972395
3DDF6D33
BCAE9F45
3D922F36
3CB89218
3C78D8AF
BD7DCCA4
BD8FB8E1
3E40437A
BD391B2F
3D1BC78F
3D0C335A
BCEB448C
3CE0EBE9
BD8E986C
BD33C14B
BCFA2CD2
3C975DEB
BCE490CE
3D9F0C15
BD66F66C
BD1A6633
3E39A8DB
BBEA0002
BCBF5073
3D233193
BD51127F
BC58BAE2
3CBB0C91
BDACF4B9
3D976D75
3A817C58
3D8F5C39
3C3E86CE
BD53B379
BD324339
BD41BAA0
3C04AAF0
3DAA7B62
BD80CB76
BD7BF768
3CEFBED5
3D0F3939
BD843FE0
3D62AC3A
BBAE6E12
3CCAFA1F
BE010B20
BD7B3906
3CAD36C0
BD32894A
3DAAA089
BCC276C3
BD83C72F
BCA6813E
3D413755
3C9D4F61
BB26825C
BCB223AF
BD026730
3D3DF0D9
3CDE9C7E
BC818531
3DC7AAA0
BC29C454
3C54F0FE
3CF33F42
3D690C38
BCC1D50D
3C3937DA
3CF6DFFB
3D8018A2
BC3B06C7
BCB02333
3D233AB3
3D4BE452
3D5CB657
BC71DC66
3D74375D
BD1D4DB1
BAE6856C
BD1F80E7
3CA30A51
3CC9B4FA
3D643051
3D76ED14
3E3089EA
BDEB1BA2
3C5EFC85
3D0F8F72
BCF64948
3D75A53E
3C5283F1
3D13838D
3C803EBF
BD2C8C5D
BD08E1F1
BC076ED8
BD7EDDCC
BCE20924
3C839881
3CC7F369
3D07FB21
3D0A6102
BC0DDFCD
3D3D45E4
3B4BAFCE
3DCD872F
BCE4B678
BDF89431
BC82E614
BC5E935E
3D1BB6D5
3D951142
BA48D52B
3DC1B6CE
3D85E63C
BC910F77
3D227A43
BD277F28
3D1A4F92
BB9164F5
BD3F216B
3DCA03FC
3D09EF0A
3D42A9FE
3D975438
3C91BC5B
3CD18787
BDC64EAA
3B961029
3BEFE0D2
3C98F7B3
BD54DD90
3C12FFE6
BE016C11
3BB0FB22
3C086934
BD5D4A81
3C8CEE96
3A35DD3F
BA0BF40F
BCFAC4D2
BE015A8E
3D614BC8
BD6F5870
BB7835E9
3B2B2A3B
3C9508E6
3C1A6146
3B071F80
BD5EFD54
3D385160
3DC2F1D4
3DBCE865
3C61B26D
BD0FB67F
BC9AE9B1
BC1B1989
3D7394AD
BC8AAF26
BCB1D971
BDC1AB2D
BD6430A4
3DD27096
BDAD90C3
3CF08320
3B88772A
BD99D577
3D230F24
3DC123A3
3C8AFB16
BD86AB22
3D52C768
BC250FAF
3AFBA0BA
3D930EA4
393EC952
3D50CF18
BDA478FA
3CF95F47
BDD0FFA5
BD686F6B
3CC5C993
3D097B01
3D66DE13
3D9E9F3C
BD028C47
3D9C4094
BCE1DD30
BD4EFED6
3CF63145
BD68C6CE
BBFB76C4
3DC23E32
BC86F776
3D1BBAEC
BDF0927C
3D0C98AA
BC69E206
BD446ADE
BDC1EFCF
3C648B90
3D5C0B8F
BDB84CBF
BBC1DB2E
3D2BF214
3DBB99CC
BD98B589
BD1B4612
3C853DAD
3D244877
BDAE4D02
BC17C9D0
BD816094
BC78081A
BD5D6BF9
3D88D6CD
3D7C3604
3E130B25
BD4DA5A5
BD6C4365
3D8429B2
3DDD80F2
BC079725
BD3EDAE2
BDDFC936
3DBDC332
3D7AA484
3D155854
BCD25AE1
BD9990DC
BCD8D73C
BDCAED55
BCC253C2
3DBF2C0C
3D802FD1
BCB2C71D
3D32C69F
BDA0AA01
BC92754E
BD3051B4
3B6CB1D1
3DCFEBEB
3D12CEDF
3D5A4203
BCDAF9FC
BD9930C5
3D3D8D37
3C9EF15D
BD14614E
BD6BD978
3D2A985A
3C18F36C
3D9C8696
3A8C3BFD
BC3FC6EA
BD9122F0
BC4FB8FB
BD38903F
3C056331
BE4BBCBF
BDBB8FAA
3D548CED
BD7F0AC0
BD3E00C2
3DA4BCC0
3CCFBF86
BD633D31
BD8A265C
3D2E1D6F
3BE03679
BD9621F3
BC5ED954
3D2C6D0B
3BE4E8A0
BB69363A
BDD81C49
3CF1BEEF
3D55ACEB
BBA9E062
3E08410A
3D6C4AFA
3D2678AB
BD8844FC
BDBEDC97
3D9BCA26
BD486BD7
3BBCC93F
BB7A3975
BB06937A
3DAF5813
BD317C5F
BCB24E06
3B8968F5
BB44DC1B
3D032506
3CBEDE32
BDC01CA8
BCB4B9A6
3DE1B831
BDD32CC0
3BA54FCE
BD155EAC
3DD5034D
BDAC47C8
3D6631DE
3D1F8CFE
BD3F00D7
BC37265D
3D20B6B7
3D496B00
3D9AD393
3DEDB9C7
3D0F2CB4
BC96415B
3D51FD10
BD0305C1
BD476371
BD8EBFAC
BD0B9491
3DAE1AAD
3D3E7107
BCA2F426
3BE39C79
BC94A83E
BD85D518
BD81E9BB
BBC74CF1
3D582FBF
BD79993E
BD6BD0F7
BC5C8B1B
BCDB846B
BD0151E2
3D93A35C
BC592078
BD6CE0AC
BD1C3FD4
3D32D51F
3B43E6A3
BDA6A58D
BDA408CD
BCD8A045
3DC23AC8
BD9D846B
BE15A8FA
BC637A6E
BC263350
BD8AB376
BD408E33
3BAEE45A
BF4214E8
3DB829C2
BD122079
3BA9CF22
BCC6FBBD
3C39D300
BDE7575D
3DFC297C
BE33C2F6
3E01FC9D
3C2AA98C
BCFE8DDA
BA97BF1B
BCDDD502
3D7AA545
BD31B3AF
3D453247
3DEC3131
3DE45A6D
3DF907CC
BE8F497B
BDBC7B01
BDEB8364
BD0BF77A
BE3381B0
BC85CC68
3DAC8F06
BE16C99F
BE03FB37
3DD6C658
3DD5B284
3D38A553
3D36E1D9
BE0D1406
3D49B23B
BC67FAFC
BDCC83DC
BDA689DE
3DE2888B
BC8A7FE6
BDF1C8EB
3E1D940E
3ECDD90D
3EE0D96F
3DC1E05A
3DC3F2C6
BCDB0824
BCFDB1CC
BD620BC6
BC77E35C
3D1FCA53
BDDD32FC
BA211954
3DB7E3CC
3C1A57D1
BDB5444A
BDEA77F3
3D4E1809
BB4C13D5
BC97EA72
BD89CA15
BD334361
BD909C00
3D6B60E2
BDC5226B
3D5A066F
3D985B66
BE17A9E9
BD8C1371
BE08E213
BE024ECB
BD403C28
BE258722
3DEE953F
3E01D027
BCF3E6BD
3DE5C9BE
BE0427D5
BD43950E
3C65847F
3E440167
3C724B8C
3CB57F99
3DDA57D0
BDB874C4
BE139FE9
3E20023A
BC97A177
3DF83B2A
3C940AEF
BE346279
BDAABAD8
BE21454B
BEDFBA0F
BD017F7A
BD2D495F
BDB74AD4
BE1E8CFD
3B85D04F
BE1B4A08
BE020D56
3E2F8522
3CBAC279
BCFEDAA6
3D8D6FCA
3D8B6DBB
BE1393D4
3C5A9EDD
BC8CC96C
3C496BEF
3D24A995
3CEDF6E4
3E1E5987
3D2853FA
3CA5588A
3DA7E0BD
BDBE76C1
3E199C4D
3E05ABD5
3D273617
3D9D7A80
BD90E039
3E0C4806
BD598A3D
BD53E8EB
BDF2660C
3DB00ED4
3E448DF7
3E28A36C
3DDFC802
3DA13D9A
3E262824
BCEB3C7A
BDFEB009
BD92EC0D
3C15E6D4
BB8CC712
3CB5AA8C
BAB9EF7A
BDA751C9
3CC7F994
3D3D29B4
BBB4A75C
BD25118D
3C882304
3D33E159
BCF30EE1
3DCD2F1B
BDADFEB8
BE0328C4
3CCD15B2
3BA33447
3CC70212
3DB1CA64
BD519BEF
BC9563BA
3D96B1E0
3CFBE7C8
3DB9582D
3CCE456D
BA806007
BDF81F1E
BDCBD7D0
BDC06BFB
3DBAFD5A
BDD3B8CA
3D0AE292
BD85E32E
3CBA0D88
3D2713FE
BD56BD77
BCB8952D
BDCC932C
BC4F7B28
3DED7B13
BDC7D81D
BD84FA5C
3DDD93ED
3CA03F86
BD19050A
BDEE0689
3B9F8B74
3E1F4723
3D97CB4A
3BA2BF46
3DC09C91
BD8C9368
BD8A558D
3D8B430D
BE0722B9
3CABB937
3C0BEEEE
BD10EA66
BDD81E7D
3CF39A71
BD7DE836
3D63E565
BDA7978E
3DACF37A
BD4C6CA8
BE017558
BA81986A
3E0374BC
3C9BC94F
3BB730AA
3D885EAE
BD63A170
BC97D0B7
3B638590
BE047BDA
BDFEAFE1
BD9CE3AF
3B3D1D0E
BD87ACE6
BD5C9C20
3DA54FC2
BB557E3F
BD10018D
3D6256D5
BD1375D6
3C97F941
BD15867D
3D0FC4AC
3D094576
BD7CBA2D
BBBBB8E4
3D91175E
3DA1CB86
3DCD97A6
BCD2A0D2
3E269E6C
3D9FD336
BD880E41
3D1E6111
BCEC6594
BDAC1B39
BDBDDEE9
3D97FB78
3DBEDB83
3B22E02A
3D0CB8CE
3D055FC1
3DBC6D17
3DC07854
BC33DF15
BDB75E8E
BC3566AA
BBA0AF87
BC815215
BDCF4D7B
3DF7419B
3D5AFD11
3DE17899
3CF02552
BE01D818
3C234E0B
BD19B050
3D1942A2
3C82418E
3BA04BD8
BC8193E4
BD348022
BE0D6EA6
BBE6E31D
3D677E9A
3D72E776
BE790E67
3D67C721
3DAEE387
BD224B74
3D0B0B9C
3D89F154
BDA09194
BD9D2549
BCCB7C80
3D780537
3D566EDA
BDCF7B18
3DA9AF88
BCA091AB
3D5FC63C
BAA1AB6A
3B39B27E
3CA5D201
3D63F182
3C8BB0A3
3DA19228
BD9CD194
3CF61DBF
BDAFBA7F
B7910007
BDEA6613
3D40133E
BD77C4E0
3DB6DCD9
3D5C9F68
3C17CDA0
3DAAB10A
BCD338A7
BDF4BCBB
BD995509
BCF6DFC0
BD1671EA
3A934C09
3D4BEA39
BD865AC1
3D712E6E
BD068CA4
3D9ACB29
3DDE6F9A
3C7ADD4C
3CE58BE0
3D89338B
BD69FEFF
3D712EFA
3D4ECFD2
3DEE17F1
3CFAB2B9
3D910949
BD58E4AB
3D8A6F07
3C81987C
BE07B49B
3DD468E6
3D78641A
BD2D52EC
BC48BF6C
3D6E76B6
BDB6A827
3CE0519A
3C769AD1
3D009071
3D0B74AE
BD2FA841
3CB78E47
BD1FCD80
3D83E137
3C4D299F
BD600E38
3D5039E4
3DA6E120
3C7FBBE2
3B0D32A1
3C7CE0C6
3CAE9A22
3DF3EA20
3DFE7E20
BDA42BA0
3CF29BBE
3D3D75BF
BDE1DF40
BD3BA304
BD5C4F92
BDCCC006
3DAABECC
3DA20BB7
3C57491D
3DEF4250
3C05EAC5
BD668F08
BD051DE7
3D5251DA
BD7C1A55
BE24DDC3
3A7E9191
3D272015
3D12EB34
3A6D6294
BD7BD2A4
3DF7ADD1
3C80800D
3D7100CF
3C83CF3D
3DA329EC
3C138E6F
3D031E55
BDC3D09B
3C65CDBA
BC9CD6E6
3D65C8FD
BD9848EF
3D8E264A
3C661D56
3D101B16
BD835EDC
3DBD1A58
3C3394D8
BDB978DD
3D46A0C1
BCC80471
3D43C969
BD98B15B
3B25158A
3E04D13B
3D744CE4
BC3F0DFD
3D9A52D7
BACCA489
BD73F253
3E9D5BD3
3D042AED
3C179824
BD88FDA8
BDCDD6E0
3DCFB309
BDBA08BA
3CFC8E06
3A92CD66
3DA6FBC2
BBD34707
3D9FE5F5
BC5F6D8E
BD69880F
BD54E3D5
3DC37C5C
3D0ADABA
BDA1F556
BC068174
BCBDFEDE
BCD65AB5
BD33F4BF
3DC0D695
BDCD1DB3
BCFB9C28
BCE230CD
BDD00B6E
BCEA6DE2
3CB35171
BDA7403E
3D486064
BCF12673
3D732122
3D16B5DF
BD82A37B
3D5FC51D
BDDE3FA1
3DC3AB94
BC876021
3D71A196
3D8567DA
3C0B5A16
BE714403
BCF009CE
3CB196B6
3B8AABBA
BDA2667B
3CF07701
BB43FE4B
BD828F15
BCD99A91
3D8B5C47
3D65687D
BCD76AE6
B9B3B23A
3E0EB89C
BD136BEE
3C86C150
BD2CD6FE
3CE28B90
3D35CC40
3D074A34
3DDBCE85
3AF276E7
BD68CE43
BD11577E
3DA0EFD9
3DA14E83
BC30533A
3E145ECE
3D786FCE
3CF02745
BC4A3E47
BD9CEFFC
BD849064
BD8D33DB
3D8AEA5F
BD44E309
BD2B3931
BD636208
BD114382
3C8EA133
3D65961A
BD567F20
3C5D3921
3C5AE0CC
3D8B65B4
3DFC7051
BD0C0C5B
BCE5BB7B
BD383701
BDB595F3
3D297140
3DCD2DE6
BD869EF6
BD544F52
3CE45D12
BD87598F
3D68A540
BDD17DC9
3D1AC1D8
BD8BCD71
BD1DDD61
BCD63942
BD729D29
BDDE52A9
BD77E046
BD4BABC5
3CD2FD4E
3B9D5B92
3DDC7AF5
BDE2E0FE
BDB9C9F5
3D0591C2
3D9F8AA9
3CBC56F9
BD571756
BC2FCF86
3C3B2895
BCBB0961
3C61EEBD
3D3FA13D
BCB46BE8
BC682C0E
BC2BD2ED
3D13FC79
BC2108F7
BE2E05BF
BD7A44BA
BB783DEE
3CD03C18
3DA0FE81
BD9CC6AE
BE227F07
3DD46CC7
3D523FB8
3D1BE226
3EA23851
BDE2EEF0
BCC854B3
3D9FBB24
BDA300C6
BD730327
3D7CC611
BCE0BB47
BD11B5ED
BCF6D57F
3BE80EF7
BD32CF35
BD15CECC
3DBE7B87
BB469B52
BD8E895B
3DCC9245
39BD7857
3CB12E76
BD872470
3D27C635
