3D8D4A3E
BD45B465
3CB5CD4C
3D15B2BD
BD053C78
BD71A056
3E00BA3A
BCB77903
3CE1B5B8
BE25E764
BDC0803E
3DC1FDC8
BD6BBF8C
3D4D302F
3A01D1C1
3CDF9B2B
3D26C7CD
BD842658
BE10A9B6
BD12AEF7
BD680888
3E34A18C
BDBB67D1
3D9985F0
3CEC5C19
BE5DF571
BD611584
3D74E1CF
3D992090
BDFC84DE
BD89E995
3ED08B7D
BE4C8A2A
BC3E97EB
BD30968E
3EBC2067
BCE2EAF7
BD1082ED
3C07A950
BD9C41C9
BE3E09C9
3D85720E
3C76F16E
BD909906
3ED9FB32
BE20A53B
BD8DDB07
BDF25022
3E043E6E
3C91D479
BCD3E3C8
3CF5DCDC
3E27445B
BDC7BE0D
3E9D7FAD
BDEAA4E2
BD5AD826
BAAB2CC8
3D0C4759
BD2333AF
3DD1E7DA
BD936567
BDCC28E0
3D1DBCE4
3E258CBE
3E101974
BCF89D30
BE0FDB61
BDD8E475
BD147446
3DA3B6C6
3F87FA44
BE0B2BAD
3CF68EBD
3DC69480
BDCA8DE3
3DEA5962
BCF45420
BDE77BC0
BDB566AA
BC18AFCC
3D91C5B7
3E9DB47F
3D1C30A5
3DBB7A33
BC29BBF1
BBF459DE
3BE56F3F
3E376394
3D12CDB5
3DB8481E
3D96C196
BE5B9D51
3CBA42BC
BDEF06E9
BE005AC8
BDBCD5C9
BDA65731
3CF0A595
3D678847
BE29F8AE
BCD9B5CF
BD01EC7F
3E0C64F0
3E1DE73C
3E15D723
3E0A5DA2
3ECE08C6
3DF1F992
3C28F11B
BDA2042D
BCBD84E1
3D21034B
3DB818B8
BDD86826
3C85D2E8
3DAB9FAE
3E38699E
BD083A2B
BDBE73F5
BD99A85C
BD7E59C8
3F1D46BB
3D46FAE9
BDFD2ACE
3E0DC479
3DAB2CE7
3D340419
