3DA7F97A
BC4A11F2
3ACF8CD7
3DA1E3A9
BDCF57EA
BD521BC4
3BCF5915
BD15ACF6
3D8000AE
BBD7E4B7
BD8EFF21
BDE1DCCA
3DE3E7C4
3D231391
3DB6AEEF
BCE5D989
BD8E0766
BD586D1F
BC477B49
BCD6CBA9
3D611442
BC6688CB
BC59124B
BBF733BC
BDC7D5DD
BCBAEDAD
BCCB8183
3D127A84
BDAA75F9
BD9C4FB4
BD519488
BD5CF59F
3D70818D
3DDC5401
3D2FF390
3CB37D70
3D678BA0
BC8D44ED
3D5BDD00
3D579535
BDDDF853
BC9E13A1
BE54E698
BE30D8FA
BD1211B6
3D967050
BC1A7523
BD47F522
BC9B8760
3CB3A2CF
BD5B7376
BCD17487
BD6A3911
3D888164
BDA29A6F
3C88B4CA
BC357929
3DB7C3C5
BC55EA17
BCA2CBE2
BD273D56
BC06A1E3
BD66EA2F
BD751C95
BC5A3CED
3DC60FA0
BD68770D
BD879BA0
3D5F0635
3C16D326
3CE0F5C4
BD17DE46
BD5FAA55
BD96CFC1
BA1A44F8
BCE3DCD9
BE117F48
BD91629C
BC7AC8C9
3DD714EF
BD6BB46C
BDE2D0A2
BCADEEB6
3D71DC6C
3D02F0E9
BA46629D
3D971AA2
BC679E2A
3CB7E32B
BD84B4CF
3D8A49E2
BD13B747
3DFBC947
3E04E407
BD1CB0F3
BD73EF08
3C5F85B7
BD4E6599
BC8CA473
BD79561A
3D59DF42
BD7370EB
3C8F52F9
BC87E2AD
BD1E5A43
BDB95EA3
BC90412B
3D359665
BDAD3D9C
BD2DC71B
3D7D238F
3D9D596F
3DB1DA6A
3D599250
3D23CE3E
BD695F0C
BDB4A032
BD7ECD76
BD86E746
3DC1E327
3C248F21
BC0B643D
BDEB66B6
BD4690E6
BD29B414
3CCD13A4
3DA415C5
BDA40E3F
3BB11F41
BD5F8E3D
BD68A4BA
3D4B2C91
3D2A48DF
3D927BD5
3D15DB5F
3D74D3DA
BB817545
BE0BE597
BD79C8CC
BCF85C58
3D318564
3D8A19DD
BCBEF4D3
3D3C7F27
3D57BDA1
BD54B061
BD883EA4
BD274955
3B365C21
3DAF96BA
3D846FB5
BD064B99
BD15E26A
BCCD5B42
BD5E9537
3DE23DE3
BD86376E
3CC409A5
BD7CA4F7
BDB40992
3D8DD071
BD5BF529
3D979AB6
BDA7953F
3CD3A8A9
3CAA8A52
3DD23BD7
3C8B1C3E
3D3607E7
3D9BF45E
3D8E587A
BD41B712
BD8F33C3
3DBB0253
3CBA7B06
3CD3E296
3DBD0B5E
3D4B1C1B
3D330AC7
BCD38A7C
3D429E83
BDEA662D
BE23EB47
3D00B316
BD892567
3DB9B7FE
3CE30594
3DB42B37
BDC3CD30
3D0B695B
BC1A9D76
3CF9A161
399709E6
BD76B4B8
3D9C71AA
3D0E8B8C
3D2912CC
3DC4AFE5
3D990888
BC85503C
3D5531FB
BC07C43D
BC36F37C
BBE16A9A
3BA760C0
3CFF21DF
BC9BD0D1
BD99A976
BD986BD1
BD79F5F0
BD383DEA
BDB49F51
3D3EB694
3D5D4E98
3CE100F1
BD4034B9
BD5109BB
BC9FA9E4
3DBDFD0E
BD92448A
3DA06160
3C29C2F2
BDAE1D42
BC03F842
3D92B787
BBCE6994
BD36BEBE
3D4AFD8A
3C341F01
BD01C4F9
3D030942
BCBBEF3F
3C11887A
3DC0377A
3C99F05C
3D464158
BBB17010
BAC69742
3AF79CAF
3DCD99D9
BD79A098
BD17FC40
BC84BEF1
3DA35EC3
BD826D26
BDAEB48D
3D28CBE1
BBBC54B2
BD55DCFC
BD344319
BD30CB92
3C8036D2
3D280F5E
3D8105E2
BD1D7BF2
BCA050BE
3D9B85F1
3D9CDD9A
BD7DE12A
3D798293
BE08F44B
BD846062
3C5920D9
3D74AA0E
BD059C85
BD1A1507
BB1FFDEF
3DC33150
3D2B7CE9
3CCFBF45
BDAB789B
BD0517D5
3D010B40
3D832318
3CB63622
BC0C720A
BCFA0B54
3DC38CC0
BCABA936
3DA2266F
BCA34D07
BC104B75
BC2ACDBF
BC9DEAA2
3D491177
BC798817
BD652487
3CF95CEE
BCFB3B6A
BE284E1E
BCF75C7E
BDA8B1B6
3D913CD5
3B2F16EB
3D01A1DE
BD0097E8
BCD14A65
3C7CC66F
3E0963D6
3CB25085
BD85A578
BD93ED32
3C88EC73
BCD219B8
3CEFD769
3D8B92F5
BC982907
BCBD8A24
3EE7C91F
3DD7F13E
BD4E257D
3AFAE7BD
3DA89248
3D6A4655
3D4D15DD
BE4B7627
3DA47F39
3C838B60
3D3B5648
3DADCC4A
BD700FF0
BDF5DDAA
BBABE8A4
BDF8207B
3CABB6F3
BDB1D1E9
BBB6651D
3D48787D
BC4EC911
3DAB3398
BDABB0D7
3D20433C
BCE3E09A
3D043B9F
3B3D4AB5
BE9C7A5E
3CEB2DA6
3D4C1BF0
BE34C5AB
3DB1BF38
BC99A51D
3D57B383
3CD3CE89
BE0E049F
3CCEACE7
BDB65F22
3D54F6B8
BCCC6C85
BC356A5B
BD037BA8
BD1EA1AC
3D77BC52
BD69A50A
3CA6BDC4
3D1431FC
3DD6A0DC
BB132FD1
3D9967A1
BD62716A
BD7AFA90
3DA29A18
BDD6D613
BC9C60E4
3DE45613
3D2F7CCB
BD61D7E1
BD23E141
3E896B3D
BD8C1ECB
3CEC23E5
3D91A45A
3DAB5815
3D3F0B36
BD9F789E
BC92DA68
BD5DF063
BB9989BF
3C8E0E91
3D0DDDDF
BDD9E244
BD36435B
3D920B0A
BD881DB9
3CCE8163
BC06E9BF
3C64CBC7
BD0570AD
3BA7FD01
BC1AF0FF
3E0933F1
BBFABE4B
BC9D467D
BD21F9F5
BDAE4A64
3DB5E233
3D58DF4D
3D4FB13E
BD206D4E
BD5F3F89
3DD8A761
3D061AAF
3DEF43D5
BDD183D1
BE8F9A2F
3DBAEEC4
BC3DA278
3D0D6C8D
3D6DEA6C
3CB58202
3DFA91F5
3DA88E6A
BB94D50D
BD2DACDF
BD30DF03
3D379CB7
BD108F9A
BD2FDA1D
3DA92188
BCE5B73A
3BD2C59E
3D894483
3E080BB8
BDD7C8A9
BD492A69
3D92A099
BB7C685B
3D9DB5C8
3DD6A3CB
BCE57E39
3C9990A5
BD9EC212
BDA9DFDD
BD14A00D
3D16200D
3D81C450
BC38E07C
BD55214F
3DB5021C
3D596554
3D09569B
BCBC1CE1
BE3301C2
BE6F3809
3D45382B
BCABF7C0
BBEB4110
3D052777
3D876B77
BD8B8B0E
BDC9FE0E
3CFA0E3E
BD2466E8
BDB43DA5
3DCFEA08
BD42FEC0
3D5C48B6
BD5C0AD3
3C623AE8
BE17945D
BCFDF731
BD682C16
BC3EF9E6
BAA45252
3D96A6B6
BC1C9C4C
3A7DADE3
3D6546A9
3D9F5B89
BE824CD1
3C02ACF6
3D5F9292
3D25D23F
3DB11235
BD913903
3B12D698
3D5144B6
BE1AB4B0
3CE7FBC2
BDA87060
BE7ACDAC
BE37EDF0
BCF1FA18
BDDAE6E4
3DD9ACA2
BCA8C201
BD9DEE1D
BD7B95C8
BD8D2E3C
BD407226
BCD41236
3CA621DD
BBA98BD3
B98708B0
BCEC7020
BC205874
3D0D5B68
BD84231D
3D213262
3DAD4390
3C84BA0F
3DDA02AB
BD6B5A01
3CDD0FDB
3DC58D01
B967FFBF
BCC998AB
BC3F42CC
3DA858E1
BDDFDAAC
3D079FA7
BCD77126
BDA1ED31
3C9AF9E7
BDCFFC47
BC878AC4
BD264214
BDA47960
BC6B6B73
BD01D619
BD8D4262
BD0AAE21
3CD3966B
3CE5298B
BD68CE25
3D3BB0AE
BDD7CD03
BCEEB153
BAEE0A68
3D6667C1
3D63CB13
BD1C0CE6
BD65CD92
3DCB3B95
BD849CCF
3A2235B9
BD770E5C
BD69F0E2
3DC07594
BD885778
3D8E0EC1
BAAF7C7C
BD6C5759
3D778684
3DCF158A
3CEABC0C
BD22F205
BC8221F4
BD487CC1
3DBCB1AA
BD136C76
3C8FBA68
BD80A2C0
BDC56E8E
3D7AB3AB
BDA8CB3E
BD0B4F97
BCCA89A1
3D3959A3
BD3CD6A3
BD8D0CC7
BD912D29
3CD520A4
BC97CFA5
BBA382E1
BD842E5C
BD462BCC
3DA1E7AD
BCDA0926
BDD1BFA3
BDE69FCF
3C8088BC
BD4082D5
3E0A9535
BD8D5858
3BEE7732
BD5D1705
3B886FCC
3C505812
BCE3CD4A
BC4B6CC6
BC409D94
BD10D9D2
BD9B8D23
3D4478BE
BDB9321C
3CDBDE88
BD9F7D51
BDCA2489
BD9C4BFE
BD827BEB
3D8BB184
BD8B6123
BD378B11
BB1C40CF
BD7CAAB6
BC8AC9AD
3CFA32FC
BD8B6D11
3C47F044
BDA3AC37
3CC7E9E9
BE09E54F
3CD63B66
3BC388C3
3CED386D
3C9C53A3
BDABA478
BD0902EE
3D065B03
BDF28998
BA86C704
BD6B1588
BDE52206
3C9E9379
BC96FD52
BD441BDE
3DBB76DB
3B9544D8
3BA2319D
BC884C3F
3D8C846D
BCAA715E
3D70BE56
BC97BE28
3D612620
BAC968AE
BD4DFF82
3D1D3A30
3D8118CB
BDB23255
3BBD47F9
3D6B0814
BCED5C8F
3C22A756
3CCA8BE0
3D1EB669
3DC6820D
3CF42663
BCBC64C0
3BE70984
3DB98105
3D9930D2
3DBBC441
3D9402DD
3C2A663B
BBA07D8C
BC6F61AD
3D2FBF7B
BCF137F6
BBC94A03
BB77FAFD
3D2779E4
BB9832E9
BD6B57F3
BD8DC28F
BD646001
BCA5D207
BD3952DA
BD98AF1D
BD8AB6EE
BDA8768C
3C660ACC
BD40D4F2
3D8292F4
3D3888D3
BD22C6FF
BDA2C384
3DC0B7E1
BD0B3DAC
3DE4F9C2
3D53F4D2
3DD8B497
3CE39A1E
BDB8DDAD
BC7CB04A
BE0010E2
3DC32E14
BD71EEB8
3D74CC9E
BD9AC4FB
3D1E2EAC
3D7EF1D3
3BE05C5F
BD91D381
BD98F00C
BC7FB4D7
3D5186FE
BB4AFC64
BDFF6BA0
3C3D50CE
BDE8E8F8
BD772390
3D37871B
BD2AB7A7
BC8E2DC0
BD8FC4A3
BD8ED563
BDEEDB22
3D232932
BD03524A
BD3A693D
BC94C727
3C8B9626
BDEF048D
BD8C5298
BC765938
BD9038C9
BDAA278A
BD6AA703
BD5B4A84
3DAEF3FF
3D9005E1
3DA08D2B
BCC75B99
3C310F2C
BCEBB68D
BD5D137C
3D948516
BBF7EF54
BC85A530
3D7211BE
BD869BDB
BE5A2080
BD94FEF1
BC908198
3DB68C49
BC98AA91
3D19E0D4
3DA253A6
3D799144
3D5BC3CB
BB258C75
3C83CDCB
BCDCC6C5
BE1D48F4
BD037746
BCEDE3D3
BDD8E806
BB0A1CA4
3CEB6503
3DAF5A44
BCE21209
3D36476D
BC867E49
BD8C7A5A
B9246745
3D428015
3CDCD990
3D3AE683
3D497C93
BBCB83FC
3DAFAD61
BD8EE3A2
3D97FE7B
3D168634
BC31CCD7
3D9BFAD4
BE10CD2E
BC80811A
3D1B1FFF
3DB52EE8
3D899CC6
3D281540
BDA280D4
3D7349EF
BD755285
3DB34B9B
3C810FD5
BBD33AAE
BCA7205B
3A9555D7
BD620A01
3D6706BD
3BE58EFB
3D61BA68
3DBB7EDE
3D48F5F0
BDEC96CC
3D37D7FB
3CE62513
3D9AD5CF
BD6CC3FE
BDDCB26E
BD8B6BC3
3D580A9B
3C2CEA03
BD8CBE71
BD9CA296
3DC11B10
3CC8DDFA
3CD2BBB4
BDE493F1
BD88770B
BD3F33E8
3D5DD4F0
3D27B863
3C23267D
BDAD5E19
3DED37DC
3CBCA2E3
3DB5B0CD
BC26F7B1
BE451E90
BDA30B2D
BD7B84E4
BD762DDA
BD1DEA41
BD42C994
BCE3F593
3D73A3A4
3DB11A12
3D9D67A3
3D99A63F
3CC4550F
3C0F9AB9
BD52F27B
BD72FA05
3D101E8E
3D1911CD
3D924DB1
BDB4A221
BCE356A2
BD05B704
BDCF99C4
3D3E1A24
BD7F08DA
BD21EC5C
3D0DC01F
3D9EA2E3
BD772607
3D7FB311
3DBB0B7B
BDF7F272
3C747984
BCF02237
BCBE5484
BD73EA88
3D9FC714
BD9D3B6B
3CC68007
BE01664C
3D1D9D17
3D9D836E
3CA862C0
BC7551D1
BD825570
BDFF1207
BDBE1266
BD88C06F
BB5C5E6E
BD8E1C99
3C9AE0B7
3D331658
BDE3D0C0
BCB8E6C7
BCC97295
3D93E479
BE0F8F3A
3D1D4751
BCFB568E
BD7F5F81
3D9A1F09
BDC5A18C
3C50AB1E
BD86A582
3CBFDDE6
BD339101
BDFBA344
3CEE3B37
3D8C6F86
3D59D990
BD840172
BD17B0B1
3DDA714B
BE1C4EFF
3D6148B2
BAFBB99F
BC9DF9DB
3DD460E0
3C1F7C9C
BD1FD9CA
3CA8F32E
3C9FEAD7
3C917808
3B4B0F9E
BBBE8B45
3DAB7FCE
BDA62E60
3D79EF72
3D4EE48A
3D83C873
3CAAF6EA
3DBC34B7
3D8EF586
3C1BD92F
BD996940
BA5D5EE8
BB15616F
BC331D84
3DC2B690
BCC8539C
3D6113C4
3C3FE6F6
3D3B510A
BD992EA1
BDB4F117
3D92523A
3D4CDFD2
BCF4D438
BC975FC3
3D8019F9
3D1982D0
3DA0CD6B
BD65F82A
3D5B8EF5
3DDAFB56
BDB7ED2B
BD6F9963
3DC837BB
BD996D53
3D9E3D31
BD979A54
BC9BD442
3CB3F037
BD58A7F2
BC1A610F
3DC17A6A
BC8F918E
3DB23463
BDA56F46
3CC8D37E
3D162CF3
3D3A1D55
3D92C443
BAF7C1E5
BCB5A33B
3DF36B3F
3D5BDB48
BCB01765
3E08C54A
3C445F2B
3C095955
3DCE23E5
BCAF53D0
BD984DE7
BDA4BFB5
3C985D4F
3E8C70AF
BD9931FF
BDBD1C74
BDD0B83C
BDF35979
BD42456F
3E07611D
BE68C6B5
3D380EED
3CBB8F02
3D8D07F9
3E105FD0
3DABE540
3C4477FF
BC79314F
BD6A038A
3E36B782
BC944247
BDEC353A
3D08B3E6
BE9490C8
3CCFBB04
BD4F2608
BD2ABA99
3E3D40A4
BD9B2B38
3CEB0BF2
3E010CE2
BE06286E
BC6069B8
3D485782
3C8A1B32
BDD607B7
BE3D1655
3D97C3F5
3D37D3A1
3DFEA0D5
BDB95AC4
3E21DD50
3CDA062B
BD2693A3
BE35CA1C
BC9E03DC
3E489D7F
3D89D78F
BD23A8B4
3BE945D0
3CB04BA8
3D112E46
BDBEB579
3D243FE0
3E076A8D
3E1075F7
3D8A79A2
3E728E13
3C0E1CE3
BE93475C
BCE59C01
BDC25A6A
3D325E24
3CFF8A49
3D5681C5
3D51FA84
BE49F963
3D501C88
BD24FF33
3DC1229C
3CF5992A
3D983C11
3DB9AB70
BDBA747E
3C3EE52E
BDC9CA05
BC6C0435
3E0DECB0
3E505525
3D047EF5
3E3C0109
3E621D89
BE1A254C
3DC33079
BDC8870C
BE392D0C
BB43C346
BCD64394
3DEB4B4B
3E2612D4
3D9CA1FB
BE1C5C86
BC5781DD
3D26C5F5
3C450C03
3D62E43B
BDC5382A
3E72D67B
BDD38858
BE327632
3DFD97E9
BDD88FF1
BE03F423
3D7A6544
BDF03156
3B9CFF66
3D53D438
BDFD30A0
3C214A20
BE91EB85
3D037BFB
3CE7D826
3E0BC7EA
BC8E6C19
BE8DD7F0
BE180F6A
3E786F26
3C3526D3
3E407703
BDA88CF3
3D83E04D
BD07A035
BC4DCB25
BE0FD8FE
BD23958E
3D9E5816
3C46D673
BD381D30
BDB94513
3D6391EE
BD5EA27D
3C219256
3CFF3CB1
3C187138
3DA7AB13
3D2B5393
BDB2BE03
3D694A8F
BD9ECADF
BD531F6A
BD2D981E
3D79A65F
BD82A666
BE22316F
BDA384AE
BD66AD2B
3CEA6FB0
BD81E41D
BD67D013
BD48C8DC
BCE49F57
BCAD546C
3D89521C
3DD8B2DC
3E0AADE6
3D408CBB
BD819215
BE23F22C
3DC0E9C6
3E0DD045
BB139B4F
BD7EBE14
3E5A87DD
BDC987B5
BD9E8DD9
3CBAAD0A
3D314F2B
BD685ECC
3D92297E
BDDBB49F
BC944BAC
3DB64495
3D14F8A0
BC8E7C65
BA8D7DC6
BE65D36A
3D9D030C
BDD7A65F
BD5116D4
3D84C4F9
BD7246C2
3CE56DFE
3CAEB87A
BD511DBD
3D829DA2
BD625DC3
BCF411D0
BC1D331E
3DB83627
BE5A912B
BD584CA8
BD594E9B
3DA70464
3CCA77B3
3D2A58BC
3DAFD6DB
3C3987CC
BDF379FB
3BCA4BA0
3D4912D1
BCF6F5C6
BDD23BF2
3D90B903
BCBDD035
3D2D7417
BD8CC779
3D2BCF3C
3DB79AEE
BDA0910D
BD6174FD
BD538A51
3D4CA981
BE012EE8
BBA14EF4
3D2D0115
BD41EC7F
BD83732C
BE12E1CE
3D0613F1
3C7DE549
B8B02A19
3E9536FF
3CCFB2BB
BC74629E
BD85C6E4
BD5E094B
3D7F309D
3C926014
3D649A41
3D330070
BD15B465
BD8B021F
3D2B6E1B
3D8BF604
3C6F1CEE
BCB90865
BDA263D0
3CC47550
BDBAE899
3D7E784B
3DA92306
BD862A56
3DC2F397
3D231246
BDA77887
3D852D62
3CAFB667
BDADF526
3DAACC97
3D834183
3BBB4DD6
BD2DFF4A
3DB5714D
3DBC6BA4
BB8B45F3
BC916741
3DA04FEF
BE8095A8
3DD10E1D
3DC0F082
BCA4C61E
BD15CE28
BDA63A1C
BCA705A8
3D20778C
3CE5259F
BD1A633B
BDBF89C5
3D8D80AB
3C394E0A
BDA2D86B
BDA72AD0
3C50CAE9
BE042317
3D63860C
3DCC5A4C
BDA3626E
BD17FC8E
BDB3DE01
BD9B3A5D
3DB3F97C
BC93AC8B
3D1E872C
3D629CA3
BB8E9465
3E65B88C
3D2DA156
BDEABC6C
BD815307
BD5811AF
BD8B2CED
3D7CEABA
3D85D262
BCA0DCE5
3CE69622
3DC67090
3DE7AA84
3C0349BA
3D7DEBF1
B8460DFE
3D804907
BE026AD1
BE8455F8
BD9B78AE
3D7FB0A5
3D78C086
BDEEA9E7
BCAA22FF
BE003ACD
3D32FC24
BD49F770
3D361F9A
3C16B24C
3D916F68
BBD3A3E6
BBC6DE2F
3C8F24A6
3DF0620B
3CDDD0B1
3C39AEAD
3D4995E6
3DD19D74
BE42B680
3D04EF40
BDAAD51B
BD1709D2
BC99C6AB
BDE5DCAB
BDD750A7
3CE5DC48
3C0D8D7F
BCAA6E3E
3C741F4C
3E0BC7C9
B8819BBD
BCDBEDC2
3D544A37
3DEAECB6
3D554CAB
3CC33722
3D608841
BCA0BA45
BD80E6B9
3DF0CB44
3D96C1ED
3AACF278
BC9CCE9D
3D98B9A6
3CF4781D
BB5200B6
3B89C0EE
3D518F85
3BF16B21
3D680E39
3D91EBEF
BD387A3D
3DA63907
3D9EFC78
3CC9D800
3CDFC11B
BD06C3A1
3D2F1ECC
BDD5F94C
3D63441D
BD49D04E
3A98B39E
BCCD4B88
3D1FEC5F
BDC85E67
3DC463D8
BD8964F7
BDD997D1
BDBF4133
BD4D651E
3D72CFEC
BDA1780E
BC8C2F8E
3D728A11
BC88852F
BDEEA1D4
BE7CC4F0
BD09F473
BD0CC97F
BBBDEB8B
BBF93717
3D41EF59
3CBB9CAE
BD1F811A
BD114C86
BD9AAFF0
BD9F81DB
BD175C96
BDB29216
3DC18BD6
BD4F4771
3C373043
3DA6EBDD
3D8C7A0B
3DC7FB7F
3D4AED77
3C029048
BC8EC443
BDBDC7CA
BBB6A2F9
3D62226F
BD493F61
3D297750
3D8D7D75
BD02A1F4
BD729B56
BD9293D5
3D299EDD
BC3883E0
BD9B5436
BC2013C1
3CD10CF3
3C089BC7
BCBCBB4D
BD6386DE
BC89FF5D
3AD75886
BC5D6E25
BD6F9DD2
3C6DE704
3D68BC47
BD90B2FF
BD8EA52F
3C8645B5
BDE467E7
BDE1E1FA
3CAA0DEB
3D3BC8DE
BD49B02A
BD331368
BD927E93
B88F3780
BD9F6C92
3CA0407D
3D5B905A
3CB5D72D
BD200284
BD8CFCCF
3B11A0C9
BD027035
BD8AA311
BDBFF01C
BB55E696
BDBE85F8
BD9A47C3
BD8F799B
BD517BB9
3DB7639C
BD40358D
3D9548FD
3C922785
3C0038C4
BD51173C
3D37A4DA
BCBC0E7E
BD145A1D
BCB8078E
BD4E9C63
BCB8DD57
3D8B5586
3DA11D9E
BDC16722
BD6DAD2D
BD3398E4
BCCA4EA8
BBF379A6
BD4C2944
3CF35A3A
3D022130
3D9F2511
3D93453A
3D393F77
BDBA2050
3D50CF3E
3D16BE9E
3E06DF46
BB9A4026
BCA94899
3A646C69
3CD3D9B7
BD4E3A45
3C268EC0
BC712978
BD1F993B
BDB9CCE9
3D077D90
BB8DE7E4
3CB7D854
3DB55A23
BCD5906B
BBD1914B
BD5CA8E3
3D264DA5
3D18878E
3CC64E08
3D27653F
3D593FCD
BD0B4942
3D9A2B2A
3D04AB91
BDB64CB8
BD4930CE
BD8E6AC3
BD14FEE5
BCAA5137
3CEE1140
3C10E445
3D01E25B
BDB3DA45
BC98CCA5
BD80B7ED
BD4140BD
3D281250
BDD0DF16
3D9A59C6
3DF211B0
3D244FD6
3CE27F4C
3DFA79C9
3DF72680
3D4E4870
3C3BCC3F
3D8BB70F
3C6384CA
BC4F9E23
BDD57FD1
BD960507
3CAD988F
3D82B002
3D45D08F
BBEFA60F
BD00AEF2
3E0256D1
3CAC83ED
3D02E667
BE2C1DBE
BAFA7052
3DF6C920
BCCD30B5
BD61831D
BDA6079F
3CB5B356
BDE15103
BDFFFF44
BD2E39B7
BDBCD428
3D46B8D9
3CD49889
BC1734CF
BE4FD4B2
3AE82E97
3DD8E97E
BD41AC0F
BD07FB44
3CB49543
BD1079E3
3E0E3327
3EA178E2
3DB798E7
3D173D1E
BBB3DFC1
BCAD300A
BC84779E
BD7E7C3F
BE99D903
3D9515B6
BDAACF80
3C50F80A
3E03106A
BDCF049B
BE2B96EB
3CB24E31
BD561D53
BC0AE503
BBAAF577
3D7628A1
BD9A791F
BD5F7038
3CA025D5
BD360919
3D82D90C
BD67FEED
BD753894
3D3C4627
BEC6254F
BBD80E81
BB12BC86
BE3FE30F
BB989BA9
3DE24313
3D896ABB
3DC38E07
BDE9E3A1
BD7515A6
BD694CC8
3E3C395F
BD0FDE3F
3D3117D0
BC1A1FC9
BC5DB9AF
BC8B3842
3D8B37B9
BCC4EDCB
3DFCCB48
BD825649
BCDC5A59
3D5FECBD
BD94B487
3E0C7178
3DA077CE
BB039140
BDF3353F
BD7AE8CF
BD1942BC
BCD9752C
BD7C9F12
3E4EB152
BDF4B5A7
BCBD68FC
BB843498
3DA03326
BC68549D
BD6A5C88
3BA5EA0A
3D858DF7
BDC39138
3DEDF5F7
3DB7473A
BCF8302D
3D1406E0
3D5EB47B
BDC4C750
BC7817A9
3CDF6515
3CD2C001
3DF73B35
3C771BCB
3CBFDB9D
3DED958D
3DA757B9
BD62B0AC
3D2B5579
BE09ED97
BD1970B7
3DE9E5E2
3D8CF311
3DFD3C51
3D7485E1
3D5B659C
BDE4A45A
BC1AAF8C
BE0DF571
BBA00401
3D898DC2
BD554023
BD879F3B
3D7667FC
BBD8E4A4
3C28FF5D
3D5AAB6A
BD9FB3D6
3D1484EA
BDBE92E1
3CFC1B4F
3D902EFA
3C7B0834
3D32064A
BCD936D3
BE370535
BD84D9EE
3D4EF2E5
BDC82923
BD689E2F
BD7D3515
BC46DC93
BCC5E7BB
3D43205E
BD27EB29
BD5E6805
BCA8D942
3D61B867
BD556364
BE07D5CB
BD8906EE
BD68A6CD
BDAF43DF
3D01BDD0
3C704C2E
BC3B4F82
396274BE
3DEFC499
3BB52279
3CA4626B
BD933982
BD363CCB
3B9DBA4A
BD52D514
BDAFA98D
3CA5DB3C
BBEB315A
BD0990D0
3B1D957D
BD5E3B1F
BD144C86
BC63373D
BD0B70C2
BD9654E9
BC007668
3C807749
BCBD8003
3D7FCAA1
BA96BBF7
3BEB17B3
BD483B30
3D789BF3
3D9E0C60
3D87564F
BCD1CE13
BDBD23A7
BCA226D7
3CF44A1A
3DC5EA4E
BD26E428
BDAAC96F
BD19AD20
BD8B4959
BCE75BCA
BDC45E8C
3D85AEB2
BCDE4763
BD024F50
BD30A1C4
BD61B4D1
3DD465DB
3D1E5774
BC98A685
BCF7C9E1
B91B4246
3DA42958
BDC1635A
BD0CC36A
BD8C6A28
3C787D2A
BDEAFC2D
3D83E088
3D24DF68
3B899AAD
3D45A46D
3BE66A83
3DFC5840
BD1CC794
BDC01B4B
3D416BB3
3C91946D
3D9BD244
3B4BF417
3D958735
BDAEF680
3C6032BB
3D8B6610
BD11B88A
BDB3CF70
3D71DE19
BD6078E7
3D91C8AE
BB8D7038
3D205624
3C573C3C
BDA44F8E
3C3DA2CE
3DC66ACB
3D2D8D04
BDA9DDF0
3BC8E0AF
BCF82302
BE02B424
BDB97AE8
3D46E47B
3D896FFD
3C70DCAC
BDA8A533
3D8186E1
BDD914F5
BC51F251
BD5AE386
BE088B3A
3D3B5869
BB9A0958
BD2C4EAB
BD0C4ADC
3D839097
BB18BA54
BDBCE3EE
BB8C98A6
BD10645F
BDB3D753
3D30E0D3
BD98DA86
BC42DB67
BD89E0CF
BC46695B
3C3672AE
BC73E1DA
3DA55B29
BD97C979
BD815470
3D8DEBF5
BDA726FA
3D4DB69A
3C0508CA
BCAC2E5C
3B29CAF7
3D0A9933
BD36C1B6
BD279835
3C409A64
BD8FF67D
3C893EC3
B9CFE35F
3D619046
BC1586EC
3D8966C3
3DAFB782
BDB8F25A
BD70BFEC
BA163DA6
3D321B86
3CF9D670
BCF4DAEE
BB2CFA41
BBAAF7D9
BC0CEEAC
BC8215C4
BD0C281F
3C5470A5
BD175ABB
3D696330
BDA4AFEC
BDA74979
3D7C4ACC
BDA26365
3C04B9A7
BD6A97D1
3D182EB8
3D0D3A38
BD9CFEBE
3D212B5E
3D3AF1F1
BDBF7A4E
BD1ECC29
BCAA1735
BC56FCBC
3DBE58BB
397D149E
BCCDF211
3D26A6F6
3DA3CF17
BCFED446
3D0441C4
3BB8660B
3D4D7310
3B895B96
3CEB60EC
3D8F5F0A
3B7213CC
BDB18659
BC288BD0
3D674FFB
BD3E4111
3D774ECE
3DC9BDEE
3D2EE876
BD904EB7
BDCCC592
BDBEF467
3C5293EC
3D7BC2DC
BAD8063C
BD758E4A
3B133B1F
3CD9A4B2
BD03E9D2
BD30698A
BDABB619
BC257565
BD3A26B0
3D47C27C
3CC344A9
3CA15235
3C3E076D
3DCB2574
3E0D934C
3DF30206
3C0FECF7
BD03A404
3DBD4A6E
3D78BAC2
3C92BAC3
3D8608C0
3A17E347
BDADBB26
3DA0E5C4
3CC2DDEB
BDAAE3BA
3D1B2769
BD9D548C
3D9471FC
3DA8A18D
BDE2AC9E
3A4810E3
BDA4DB88
3DD5BBCC
3D3026EA
BD6511F3
BCB8A01F
BCB794D2
BD0FF404
BD0289F6
BE076577
BD7BFD47
3B91C97D
BB9182E8
3DA1EEE8
BC6DE77A
BB8B4D1F
3BCE2106
3D08DFF3
3D8A91F6
BD59577A
3DBA1CFD
3BC1C4ED
3CD2F0A3
BA279A5E
3D585488
BC898E49
3D952A86
3D4FD07B
BD5FBAE6
3D02B6CF
BDB1237D
BC2D8A92
BD5C45D1
3D8C10A9
3C542653
3D943DB9
BD7D7660
3E18ED37
3D7B21CD
BD2F56E0
3D1968FA
3CE6C145
3BE460CC
3BCF4B86
BD15AC4C
BD553BCF
BD3995AE
3DB13179
BD6AB154
3D977D83
BDB4E13A
3D3749B3
3C97BC3A
BD1E1AA5
BCE3C1BC
3C2B5F95
BCA256A7
3D1AA7D4
BBD2C4E7
3DB7E222
BD8ADE6E
BDC72A14
BD41CE13
BD12F456
BD393A6E
BD469726
3C8E53CB
BDB69019
BC9E2B19
BD39D4FE
BBFB3FA3
BD969308
BD0436EC
BC36F0E3
BE40D9AF
BDB2F230
BD8CE5F6
BC04FAF7
BC7A359B
BD5ED54B
BDB0E0EE
BE18E538
3CD071B8
3DDB3B25
BDF760E8
3DF50820
3D87FE1A
3D33651D
BD972AAD
BC968A96
3CEA59FB
BDB05D14
BBF2614B
BD0973D5
BD8F05F2
3B4F2FCF
3D590B04
BDB27B09
3D70F678
BD77B013
BDB14302
BD831C10
3DEE9E79
BCFDAC73
BD0C0D32
3BB44B74
3CD55384
BDBE2755
3C91181B
3D7D373B
BD8C91DF
3C941744
3DBB7A57
BAF3B4D4
BCCFA936
3D2A33B8
BBB78F79
BD3E88F5
BB3406EE
BDB435CB
BDCEEFA2
3DA5B666
BC720D23
3C0E8A13
BC048507
BDB2E759
BCB6D031
BD0505A1
BC187C53
3CF387CD
BC435494
BDD2F53B
BE4965C6
BDB7FD9B
3D870CAC
BD5A1578
3BF9F7D8
BD0E77E0
BE8A7031
3CF3D067
BE008589
3D20349B
BE84C5E8
3D09A332
3DC3DF2F
3D82B64A
3E019949
BBF68ED0
BD92DC3F
3E0928EE
BE8AE92C
3C83E395
BCD295F5
BB35EFD1
3E69A706
3CB15DA0
3B5CE834
BBBC8B38
3E27BE5C
3E059FFC
3E0C5649
BD535E74
3DC6E295
3DC28D33
BD5F79E0
3D8AC969
3DA301AC
BD7A5612
3D520EB3
BDEC9760
BDB48D36
BB90A9E0
3EA56CC9
3D98DCE1
BE2DFC64
3D244DD5
3E3F7A2D
BE2F4F0E
3E8FB169
BD7764F1
BECEA5B5
BDB1B571
BD1D71E3
3D49A171
3D8FA0F1
3DB786E2
3EADD261
3E3A8B53
3D2254DC
3D97F2ED
3E83A422
BDD55AA5
3B1ADC6D
3EBAF98B
3DBDC9BD
BD28ECB6
3C94BA4C
BE383014
BE1C5E63
3D459317
3E5B06FA
BC4894A4
3D3C4546
BE0BAE33
3DAB010F
BD0996AA
3D16B6EC
BDBBF04D
3DAA7B12
3D65EA93
3DC8C5E7
3DA1AF89
BDC504D7
3D2B9E79
3ED81762
3D0DD4D5
3D9721AD
BE0D8864
BE8323E4
3DAAB7D0
BCD6A0BB
3D882F7D
BDA0968B
3E6D72AF
BDCB4F07
3E191D22
BEA6FB3F
3DD8CA59
3DBA5CF8
3B7F09D4
3E2DB644
3DAF7C67
BD70EF06
BE774E15
BDCFCB42
BD9FF232
BCA23C05
3D883CD9
BDC82822
BE8CEB00
3E2C30BF
3CCDAB6A
3E3823C2
BD1842F5
3DBB5F2D
3D1E7219
3E741A77
BD61FA69
3E7A0B5F
BECA8003
BED724C2
3B42F288
BD94988E
3D9DA87E
BAF19381
BCFE0CE6
3E65EB7B
BDFA25BE
BE32E8D4
3E01997F
BEA48377
BE361284
BDE4CD31
3D39DC93
BE52B5D1
3DC4A160
BD5F9FDB
3CD9D4C8
BE0CA32C
39F28594
BE201EC7
BE126D7E
3C8788A0
3DA9E4CA
3E73515F
BF0F955E
3DCD1740
3E071972
3C74D5C0
3DF7C8B7
BC417BF6
3C814570
3D0ABCCD
3D5F412E
BC69720A
BCC8F949
BC9DB5F3
3D42A14D
BD997440
3D09A0A8
BD0CFBEA
3D26EB14
3D49D86E
3E18B4CD
3D098B5A
BCF3D4F9
3CA36119
BCE37B45
3D173D59
38C45E90
3CF182DA
BD1337D6
3D0F94CB
3DB1B0EC
BD569FAA
BDDB2BAD
3D7B7DB8
BC26654F
3CDD6DDF
3DEB08A7
BCC7DDDA
BDA1B6C7
BE04469C
BE1AAFDE
BC7065E4
3D480220
BDA10D6E
3DA66D7A
BD17D732
BCDB92AE
BD9AFD56
BDF61D1B
3DB445E5
BDCE6305
BE281F2B
3DC224EE
BD5BDFEB
BC8533D7
BDC4C325
3BCB6336
BE050F26
3C8FB651
3D92FD20
BDE1E845
BC84365B
BB81A1E7
BDDAF8ED
3C9C0798
BB9BCD30
3D7F424B
BE57EE18
3C19A005
BD857DC1
BD7C2C33
3D1EE50B
3C01BCCC
BDC25B8D
BD8522EF
BD2FC51F
3DBA45F2
BE032C33
3B306570
BD9802B7
3D4CB0D0
3D391604
BCF96FB8
3D8833E4
BDD44277
3D924769
BDB85DCA
BC15569C
3D8C75C3
3D76F01F
BD984B36
3DD5F94C
BD3226A4
BE07085A
3DE45EC7
BD680971
BD90A5DE
3C882CEA
3D949AFD
BC7059DA
BDBEB954
3CD7F433
BCAD101E
3D2120DA
BC827DFF
3C9F9399
3D940D3C
BD7142E3
3CBC46C8
3DEEF77F
BE5C4DFA
3D7BAE97
BDA5E05E
BD6588A3
3D3C919E
BCF76AC6
BDA4EF93
BDA1CA4A
BDC8ADFB
BC14161A
3D307A6F
3B982EE0
3C3DED97
3D13BE3E
BDF0A35E
BDC849D9
3CD2E3A2
39DFAB2D
3B481307
3CFC1646
BD55A96A
BAF389A5
BDF07B86
BE075B95
BDB24530
BE2E81CB
3E1CFA63
3D87DAF8
BDE85BFD
3D30615C
BB7213E2
3C7A17DF
BD1FC08D
3C37F712
3B85AC76
BD631300
BC97B63A
3E089686
3B8A6A78
BCA5AFF3
BC95A472
3CA10D00
BD81D364
BC214B59
3D3CA42B
BD03336C
BB9C4453
3BDE9C5C
BD5D652B
3DBF0850
3CB683F6
3DA500F3
3C073184
3D9A49EB
BCDC47B4
3DA44059
3DACF340
BE46588F
BDDD0C3D
3E8FDE83
3AAA5ECA
3EB31187
3CCFD57B
3E5B92EF
3C988664
BCD0DDE9
3D4BC7BA
3D1A8138
3DB64119
3EA3D56E
3E4BCE5D
3D208BB4
3DD04C64
3CA6EDA0
BD6F4B1C
3D592372
BD2FB9A4
3B8C534F
BEA2C746
BDC26E14
3DA9B863
BD70E6C3
3D8D6F89
3C124876
BDA75F3E
3DF38972
BD90F04D
3D108079
3D9DB5EE
3DFD358E
BCADA438
3D8C122F
3D44BD6C
BE59DF5B
BCE6EEC2
BD75853B
BD63D425
3DF71F36
3D97E597
3E217078
BD248A86
BD9636EC
3C3711FA
BDBF2217
BBAB5FE4
BD4A519B
3DF44E79
BD7F39B7
3DC8E3E2
3D9559F7
BB5D1A96
BD17F2F1
3E6F5918
3E2576DA
BD96ECEF
3E22F7A4
3D553117
3CD2E39D
BEF8F0F3
3C83DAAB
3CECFD8F
3DFE7E99
BE766C03
3D06FF96
3E36B9A8
3E15027D
BCB4F926
BD01E289
3B7E4AC9
3CFABD46
3CDBA8AD
3D47DE08
BD8A607A
BE01D495
3A8EEFD0
BC1A3CEA
3D1AEEA6
3D1C0780
BC920424
BDAFA3B7
3CDDBBBD
BDB24171
3C2DBACE
3BBC2DC7
3DB6521F
3DD1A7BB
3CC17794
BD6750C4
3E1C07AB
BD38398D
3D848E13
BD8688AE
3E407C8B
3D0BBFB7
BDA7958B
BD6A1EC0
BE22460A
BDAADD3C
BC1202BE
BD02CF60
3CFE1A17
BD98359E
BDF4C504
3B69380E
3C4F3C33
BD0FFD39
BCD276E0
3D4D8F65
3BC8AAC3
3D5BD8CF
BD1DFE6B
BDF0616A
BE04E959
BD37871B
3DBC723C
BD627FDD
BD2F0224
3E6BDEDA
3D628010
BDD407E7
3D8CB13E
BD16D684
3DBAC600
BE0AB390
BC95C081
BC0B7B60
BD95E68F
BBCB0130
BC84D963
3C9A1890
BDC43410
BC51EA6E
BDB4EEA1
BC4C3E3C
3D4926AA
3DA3B17E
BCA721B8
3D1BBBFE
BD738A97
BD797A07
BDAF3F7A
3D7BD843
BDD69A69
BD8F859F
3BA394E3
BD8DF7EC
BE05C8F5
3D8BFD01
BC9A5EE1
BDD4578B
3D0029EC
3D4EA2D0
3BA0C82E
3E052B6F
BD902F85
BBAF8A1E
BC0E61BE
BDB981D6
BD7D5C04
3DE22CF3
BBF4A824
3D4504FA
3D5551E4
3EA52C03
BC5B25A0
3D0329EC
BD7C3E44
BE228A68
BD92B475
BD2951A0
3D15BA57
3D756F30
BE056B9B
3D636F66
3E0D9B80
3E38BD4B
3DDC698D
BD9CBD78
3BF8A2EE
BDD2FED3
BAEF1A43
3CC1E44C
3DB50341
BC98666E
BD8E1CC6
BDCC2717
3DE4B267
3D1C78EF
3D0B8D2F
3D31B1F4
3C94F936
BE26F81A
BC894818
BDCD0013
3DECD68D
BBC18C43
3BC4A6EA
3D90BAF7
3E248656
BDF98F2B
3C26B952
3C65F0AA
3CDBB7B1
BD877908
BE8E8E8C
3E1A3E84
BD7709DD
BC709036
3D1A7699
3D7B6970
BDBB4C4F
BD599314
BCCCFE20
3D976480
3BFA0D19
BAF5ABE1
3E041751
3D8E815B
BCC04814
3DEAE47A
3C7434DB
BD877BFB
3C3CC50D
3C7EB6B5
BCBFA359
BA97107D
BCEB431A
3D9B92EF
BC52E87A
3C997969
BD2A1C3E
BE01C61D
3DB0875B
3D850BF7
BD7BBC6C
3D2B017E
3D8F3B35
BCD5591D
BD951ACC
BD04A690
3CCA3AEC
BDC2588E
3C1EA588
3D9972C1
BCBE1686
3CDE0D7C
3D9A35A5
BDA51EF7
BD8DB6B5
3DD383BB
BDF96016
BC7D9928
BD07DB23
BDD0C04F
BB173A9E
BD179184
3DB98133
BCC0C48C
3D56A3A0
3E305DE6
3BD15E53
3C95AFCA
3C3359F5
BCF19803
BD51E1AA
3DBB4C27
BD0E5B22
BBEF90AB
3D24120B
3BC65E9C
BD295EFF
3D112490
BCCCA17E
3D895E9F
3D8F2F10
BD9B98A9
BDDC9AE3
BC387A90
BCB8E046
3DA6839D
BBA7720C
BD0FE1BA
BDF148A0
BD222AFB
BE10FDB4
BD58E37C
BE23BFD7
3DAB1803
BBC304F6
3D45E8AA
BC4F7680
BCBFEA36
BDB007EC
3826818E
3B7214D7
BD06D59A
BDDE4F18
3DA16EA1
3DB425F7
BE475DD6
3D806BE9
3D28A5E4
3BAED4AE
3D9DDA0F
BD0BFC83
3D22E8EE
3CF49E68
BC9A0708
BDB496FF
BD2D53B6
3997CEAD
3D961AAB
BDB496E1
3D59A8AB
BBF7CADD
BD108861
3CCD4116
BD4058DE
BD32B89C
BD70BCAC
BD5931F0
3DD5D0E0
BDDE1B9C
3DB889DD
BE3DF5BB
BBD5B6BC
BCCEF805
BC2184D4
3DE8A47F
3D2B3B22
3C06F237
BBE656CA
3B9900AF
BCCD63BB
3BC3A99F
BCB6815C
3DAFA7AB
3E771682
3DC805E1
3CF58E4D
3CDB7A4F
3D45E186
BB1608A7
3D8E9FDD
3CB1D1FA
BDADEC1F
3C9DC4E2
BCB110EF
3D566862
BCD222F3
3CD9794E
3D81CA6F
BD704FB9
BD3B1024
BE2CD204
BD321158
3DB34DD5
3D7B0E9C
3CFAD752
3C8B6640
BE33166B
BE362EBF
3D39AEBD
B9305422
3CCAB1E5
3D13958C
3DB35586
3CFAB3F6
3DEAC4EB
3D904FE5
3D698AD9
3D860894
BD2BB045
BD9D8D39
3AAC57A6
BD53A267
3DDE1529
3D9C023F
BDA2ED7A
BD3D8BBC
3D27E7CE
3D189E5F
BD4B0A98
3D74FDEC
BABACBC3
BBF696D8
BD8B6470
3CD497E2
3DC958C8
3AFCE19B
BD766852
BDA559A2
BC49FDBB
BD5AC764
3DD1B110
3D083A01
3C13B02B
BDAA4715
BD035186
BD0B0F93
3DC8E525
BDD7BE63
3B31ADC0
3DA6FCD8
BDAB8EB6
3C8F6A1B
3D0C35F9
3C75AAB2
BA746D53
3D4DD9B5
3D98CB9A
BDB43B74
BA0C12F7
BDCF9C3A
BD01A653
3DD06C87
BCF4DFC6
BDA65CB1
3D3CA6A4
3D285353
BC4AA286
3D18B904
3D992D9B
3C71B7BE
3DC2B9D5
BCE64437
BD3FAE79
BCBB2A3D
3D9D4050
3D1408D1
BD90A425
BC972B65
BD087E21
BD9AE21A
BD800EB6
BD50836E
3D4775E3
3D10310D
3D9D9205
BDB64139
3B628AA0
3C8504B2
BD30425B
BD996464
3D6E0115
3CB26E27
BD7D5B58
3DEFD1DD
3D29392C
3C8A9708
3BF89C65
3DFDCD56
3D7B618D
3D257A96
BCA1B9C9
3DA7BEB0
3CEA6584
BCF8EAE3
3D821E58
3DA2C7A8
BCD879F4
3D9A6A6F
BD3FDEAD
3D4A601E
BD8B48CA
3BE12A94
3C01EA2B
BCED4AA1
3DA9DE63
3D7B4635
BC081CD4
BDF16E7A
BE12101E
BC7E3AD9
BDF10A71
3CA3DE31
3C6973C2
BCDE31CA
3DAFA8CC
BD8EC881
BDCE8B20
BC2E8BEF
BC72DD6D
3D8B8C67
3D48A13C
3D308747
3BC7F148
3E014764
BBE317FD
3BC549EC
BC995C72
BC5EF584
BDE45374
3DFB0BCD
3DB9A3A3
BC3FCCFF
3E0AD53F
BB524C1B
3B4C590A
BCF6BA2C
3C9A5E30
3CB53F67
BD4365B8
BCF9D5EA
B891E47D
BDCAE47A
3D8F54DB
3D0EF719
BC1D1C9F
3D095CEE
3D9BB652
BD59ABA3
3D85A181
3E357357
BDFC0A57
3CDC3CA7
BE13615D
BDE2443B
3E366688
BE346442
3D2AC1D5
BDA32453
BD552C32
BD98510F
BD27F3BF
BD2B3C26
BD93D066
3E4BB01D
3D530AE2
3DDDB545
3D15BB61
3D470106
BD50E8CB
BDA8AFF6
3DF1B9D1
BF0206CD
BE678BA2
3DCF87AD
3D09C5DC
3C890151
BD08A0B6
3E60875F
3E8268C2
BD6EC4AF
BD04D616
3DBB5557
3E224A56
BCDF99AE
3E4DB0C9
3C81D218
3A83617C
3D67CB20
BE603871
BD5CDD13
3D98F3CA
3E0D20F9
3C175409
3D2BC7CD
3D8C8851
3D9F288D
BD67AF77
BCE45A6D
BCED81EE
3D62146F
3D217EE9
3DD6AEF6
3B1E646B
BCBFCE0C
3D9961BA
3E4ECCCB
3B4F411B
BDCCB963
3DFC2D6B
BE1E6FC9
BD36CD31
BC30FD38
BCC41447
3D7FB639
BD97C3B5
3D361F74
BE20D336
3D717AEA
3DCA761E
3D6A33F3
BD5E5269
BE1DDBDB
3CAF1DAA
BDD75544
BD77269D
3D4E9B2E
3DE466DA
BCD2BDB2
3C6FDC06
BCB6ECA6
BE564DD6
BD578682
BD673407
3D2F7A59
3D07B9A5
BC741E0A
3D6148DD
3AA892CB
3BD55DC4
3EA7023B
BE0CCD46
BE27CC12
3DE9BFB7
3C873345
3E25F4C3
3C8E6604
3CB4A203
3D5A754C
3BC90784
3C981A63
BC03DCDA
BE7AF3AF
BE00E106
3B222428
BC9E5E5A
3DB9DD65
3D33F862
3DCE6271
BE29A5EC
3C37579B
BCE9A392
BC90E93C
3D5D5883
BDD2D8DD
BC9E84A5
3B97C9AB
BDDA0133
BD526502
3C4F0ED1
3D8D8DDE
3D80A531
3C8D94FE
3D23C7B6
3DC9D03E
BD238018
BD8AD124
BAB80B16
3B7BA51F
BD45AC17
BDC3D9E3
BD8B8EA0
BDAC48C7
BCD2A300
3D4B4C4F
3E045162
3C145F21
BC2EA4F9
BD92DFFB
BA9EDB9A
3D437B72
BC723882
3D1414ED
BC2B59AB
3D27D47D
3DC582CA
3D30237F
BD5CE093
BD06ECC1
BAEB1B05
BDD02C91
3CA94C14
3DAA575B
3D0EEE78
BD92DE1C
3DFD8DCA
3D6ED65F
3D5B7F17
BD8D21CE
BC9EF54E
BD1FD7F7
BD50F383
BE32183E
BDA58AB6
BCF587C1
BD8FD717
BC3201FB
3D051206
BDA1A68D
BD33AE3D
3C1A06DE
3D1E5411
3C71B443
BD997ECC
BD5B0D57
3D1BF031
3DAEB39D
3D3CE7D8
3D8C0812
3D867973
BCE1D94E
3C8E0983
BD76582E
BD8AB389
3D44C768
BE130F06
3D80583C
BCBF685B
3DB40A41
BD39C52E
3D81FB0F
BDA09891
BD00A463
BC50ACAB
BDB72FA5
3D3C1930
3D55C8FA
BD5256ED
BBD5B052
BA9B013D
BD107D33
BD727D89
BD96F648
3D1603C3
BD3AD82B
3CBD9F2D
3E39ABD2
3DDBFEA6
BD48C503
BCC16FB7
BD19AC29
3BCA7573
BC38184A
BCE6E202
3E0740D2
3DC36505
BD3F000B
BAC7F28C
BCC205CF
BCD0FED1
3DC69E94
BD697AFE
3D78BB2D
3D17EA5A
3D9C783D
BDBA1591
3A57B0D1
BD762510
BBFB1C83
BD96A66D
BD2F196B
BCAEBE54
BC8A4117
BD3ED2C4
BD61C2BB
BDECCF79
3DAE0DAD
BD314E71
BCD45A0F
3D16BE4B
BD9EFA07
3DB315F3
3D549C52
3C9E4D12
3CB16FB4
3DB0A60D
3DDDBC81
BD7FF533
3CEBACF7
BD6496AE
BE114CBD
BD8AB118
BD50F2FF
BD09F81C
3D249980
3C37366D
3DD49C04
BBA8DBD7
BD6909A4
3D32A313
3D94612D
BC8A6E7E
3D08DE02
3D86334A
BCB4172E
3CFFEFCA
BCE1E53D
3C58AA7C
3DD21DF5
3B0562D2
BB146A5B
BD650AA6
3D522A42
BCB7D493
BDB1129B
3D9B78CD
3D6ABF51
3D0548A2
3C3DDCA5
3C8BE41F
BDC6DA24
BC03A545
3C855016
BD0F5832
BD7A461D
3DBE6551
3CA0EF23
BC7E0910
3DEFD7BC
3CE476F3
3C2B82DB
BD3E8346
BD360736
BC931CEE
BD4A860E
BE3B64E0
3C091993
BD00D753
BDB78620
3C66626A
3D8C76BD
BDE98641
3CC51D5B
3D08588C
BCFAB868
3C8D78E4
3D88C5C6
3D0B5EC3
3D679D28
BD9EE026
BD563340
BCB27005
BD1B117C
3DA3024D
BD7DE3C1
BD881305
3CA52B02
3CB1E19A
3D0E777D
3D6E0DB7
3D95CAB9
3C0A519D
BE1BFF47
BBEB0412
3B2CD137
BD9BBE3F
3DE7804F
BBA23E52
3D4698D1
BD79FDE5
BD23E1CF
BDA962F5
3D9EF4F3
3D40820B
BD9F7A2E
3D242465
3B871D1C
BCAE1B21
BD27A203
BD299EA7
BD450062
BD36C6C1
3BBF8AB4
BDE2FCF0
3CD321FB
3D80EF5A
BC438256
3DDDB1DD
3C211F7F
BD1B904F
BDAC54C8
3D047B8A
BCB93DD9
3B892129
3AF9DA5D
3D81FD17
3D84DA37
BD1AB4BA
3A77751A
BDAD5249
BC35F7D4
BD13D120
3D97838F
3CCB5E9E
BD91E11A
BCE035DB
BD8E75E6
BD9C8814
BCA80FAE
3DB36B34
3D9315FA
3D39ABD3
BD50958C
BE4A2DA2
BC8F403A
BB5682AA
BD0909A4
3D60F2F7
3C6D0902
BDBBDAAC
BDC10EB2
3CCAC64D
3E1B934D
BEA53E7B
BD147F81
BCDA55C2
BCA93CE5
3D153D92
BD327822
BD1F6BA6
3D0E0F5D
BD40E5AB
3D550A66
3DB3F3A5
3D8D1FA2
BD479749
BD975D29
BD906888
3CCE0AC0
3D0F9DF8
3CF1AE08
3CD908F6
BD69E46D
BC4274F0
3D945BFA
BD9C0F54
3DA6A9DE
BDBFC4FA
3CD23C68
BDBAAB89
BCD77CEF
BD1F3A15
BD4E497F
3D95B6CE
BC0ACDC8
BBB9A47C
BC94119A
3E21B2E6
3D3194C3
BD95B62A
3DAFE0D3
BE9E1B5C
3B9684A0
BCA5873E
3C8D4B1D
BD6D69D3
BC8B88DA
BD2DD7AA
BD05DAF9
3CF28A66
3D87D4F7
BD29D4E8
3CDB3B5A
BD1B328B
3E2B0BB9
3D4B0951
3BAA7428
3D41ED48
BD9D7A33
BC8D7C80
3BD0CBB5
BCAF6A4B
BD10C07F
3D5679AF
3CC6CAE0
BD3E98F8
3DE28F41
BCB4A55E
BD2FB189
3DB9590D
BD23B6EC
BD36C211
BC227D56
BDBE468F
BC9842AC
BCC346D7
3C8010E7
BDEF25A2
BD50E76C
BC48A002
3BDA103B
3D7302D7
BD0A1CBC
BD0951BE
3D7BD11A
3D4AFD6C
3DD256D7
BD3A6B69
BDFCA09A
BD9926DC
BDBF8B08
3CFD6D9F
3E896207
3CD44D3A
3D764CA6
3D41C64C
BD732571
3D321899
BDB2272C
3D7A972B
BDC180E8
BDAC0F5B
3BD08BD0
BD590082
3CE5F8A3
BB8BCBAA
BDB5A755
3B568DBC
3D501359
BC5ECC94
3DC3DE1A
BE263701
3D95FEAF
BD7DADC8
3D4BE201
3D329E9B
BBDB57E4
3D807EF3
3D90704D
3D087CA6
3DA813CD
3B8A959F
BD42D5D8
3D87F066
BD2E6777
3CD21383
BD6B25EB
BC966664
3CDF7714
3D9117B8
3A547870
3C523F73
BD96535C
3DCA37D9
BD1B8DD8
BC4635CF
BDCDB8AD
3C7BBBF9
BC191A71
BD9FD9AB
3D0BABEB
3D797D34
BDB5FEDC
3C37E925
BDBDB884
3D4F6617
3DAC399D
BC4D91D9
BD41C037
3D63826B
BD9EA07B
BD558233
BCEC375B
3D457D58
BC4BB870
3D4DD4F8
3DA4F5B2
BD6F8BB9
3D9EBABE
3CDC5C9D
3D6141EA
BD945709
3CB07771
3D26F872
BCC33A47
BD5711DA
3DE2EA1D
3CCD12C3
3D2EB517
BDB45F2F
3E3363FC
3D1BA870
BD284584
3BC738C6
BE7FEFA4
BC9BCE3D
BD4B7AEE
3D13B313
BDC7FF48
BDA0FD7A
BD01630F
3CF53475
BD699A9E
BC80C766
3CAC99E2
3DA44E0A
3D1B8CF4
3E0B20DA
3D6E2758
3CCDDC6C
BD80DEA4
BCF9C615
3D9C190F
BC25233B
3D021030
BD50054C
BC0804F5
3DC2C84B
3CAC4DD7
BD18543A
BD501B46
BCC1FD71
BD8E1818
3D89DA49
3CC93D00
BD999D7C
BDB11F62
3C3E7485
3D55E931
BD133D34
BD895B14
BB798824
3CE61F84
BD2AAD83
3D85A092
BCE90791
BD59E2BA
BC6EC4A4
BD85A4B6
BCD2AC8B
BD8FF777
BD5C6E25
3D6D36A2
BB1D869B
3D694D84
BC31A615
3CAEF393
BC2D637B
BC36039D
BD353742
BD30F4F0
BD7E7E7E
BD10F528
3D2D7C62
3D3874F7
3D96F67C
BDBDD1D9
BD87F73D
3DC6B550
BD9279EB
3D90A335
BBA536CB
BC82633C
3DA9D9E2
3D91982F
3DA7DDC8
BC282868
3DB44EF7
3D7BB3CB
BC10FAD6
BD9F416C
3DAB925E
3C28C7D5
3D20D7BC
3D09D988
BDDB574C
3C42CB97
3CC42AED
BD7C97A3
BD98DE04
3DB2B8FE
BDA83939
BD153061
BD7D9989
BB8B858D
3CCDAFAB
BD3E515F
BCA0AB87
3C869810
BC794134
BD383B76
BDB8C7FB
BD8AF195
3D1ECDF1
BD87B7D9
3DA9E834
3D381654
3CE07EA6
3C93695F
BD178FA1
3D79D724
BD86FA82
3D4BF5ED
BD9F1E42
3D4B546A
3DABF7F3
3D63C557
BD02F69D
BD89C145
BDB92C29
3C4EAF45
3BF1D3D4
BD9E8BB7
3D812015
BAD43F07
BB8B5A6B
3D95FC00
BDF13B26
3CFE687B
3D05D27A
3D525715
BDBF5BCC
3CBF1EA4
BD241FAF
BD39985A
3E2F18EC
BCA2312D
BC7D2606
3BDCAA8C
3D3A2AEF
3CD5D397
BBE30D07
BCF2FDEF
BD59BFD7
BC7FE304
BD9F8C56
BD909DEA
3D627A00
3D99A23C
BDABC513
3D19A1CA
3DB45A4C
3CECA30C
3DA6632C
3DF36E9A
BD3B340E
BDCDB84F
3D85DFFC
3DA95F2C
BD28015E
3D8D439B
3C191CB9
3CB9E600
BDA4BF0F
3C3F0BA4
3C926070
3C8EA7F9
BD6C890D
3CEF4A60
3D286636
BD2937E2
3DC303DE
BCD21A1E
BD3CFF75
BC832722
BC8C82A0
3D3FC085
3D4FCF79
BCAB859A
BD20BA32
3CEF1B36
BD125CD7
BCDB05C5
3D506403
BC28FA35
3D85D003
BDCD58D6
3DB4C8E1
3DF1A006
BD86FFB2
3D9D3D09
BB2D6FFB
BE7F0803
BD825D8D
BB9F7E6F
BC7A3E75
3D41D2F9
BD56215F
BDCBE8C5
3D305398
BDA6FBD2
3D2CC464
3CE8753A
BDB3C393
3A686CEC
3CCAB5EC
3CD440AF
BD9D0210
BDAF43D1
BD8FF557
BD017A89
BCEFCEB5
BD3023D7
3D60FE3D
3D0B6F4D
3DBC03CC
BD67291C
3D62B214
3DA8773A
BC9550BF
3DA56C05
3DAE65BB
3C78E69C
BCD25DE6
3D2DA8EB
3C81A4B6
BD9EDFCD
3D78A98F
3D2784E7
3D064C0A
3D0C2B9D
3E1ADA55
3D70F55E
BD953921
BE217F77
BCAAC08E
BE5E94BF
3D9F6455
BD619040
BD15997F
3E05C18A
3D9F1262
3CEEA742
BD4B1280
3C62CCA9
3D64D3F2
3D5D9F28
3E05EDF2
3E142A09
BD68317D
3D46B9A5
BD5A8651
BDD54A14
3D92AB69
BDC7919F
BDB5D36C
BD5A4080
3D61FFF2
BD58F885
3D39FD5A
BD9A948D
BDF67B95
3DBB5793
BD85411C
3DEDC5F1
3D2A8B16
3D7EF1B5
BD0F4542
3D3F80CF
3EA5311C
BE526F1E
BE1A3DA0
3E5EB980
3DEFF731
BDD6FA5B
BE04788C
3E56CCB0
3DD5E1DC
BC797C8E
BD7D6607
3DAD57E3
3E9C21C0
BC8D8F75
BE00C989
BD9BF87B
BDED0303
3CE6B297
BE23C64A
BD95A4F9
3BF72847
3C50E535
3D9898F1
BDC45033
3E1B1198
3DAA7870
BD87E063
BD98E1D0
BEC30051
BD1A218F
3C8DE9C8
BD508182
3D82F892
3DE2230B
3CCF1E56
BDB8ADD3
3DF3A7A5
BDE7BE98
3E14E2DF
BDFC929B
BE282F3D
BD6E6104
3DA04193
BA275576
BE527272
3E1D138D
BDFB5B56
3E99458B
3D36CBDC
BDD88C03
BE2644BE
BE0C9986
3E0FE111
3C554CCE
BD20CB42
BE2CBAB0
BDCFA9E9
3E038484
BE5F126B
BD06353E
3C872411
BDC26A02
BD297966
BCD7ADA1
BD018409
BDC0547B
BC1B9768
BB875CC3
3D91CE64
3E380516
3E0E7275
3D85463A
BD9FBA2E
3DE2B496
3D83B42F
BE2AC527
3E50DC12
BD88EE20
BD7ABC9C
3E19A44C
3C68ED1F
3D171EDE
3D257FE7
3D6A8E0E
BD544F83
3E8D5B0A
3CE36779
3E5B9998
3D6DD791
3DC9D9B4
BC8F5324
3E4BFC6C
3E82FD9B
BDE6800A
BD6892E4
BD1CBECB
BC8EC1D5
BC6D7F1F
BD677A1A
39D00BF5
BE01F9BA
3D0E1FD6
3CB711D0
BD26D983
BD99F8F6
3B2EC0AA
3CE42198
BCA3B039
3DAACA9B
BD0271D0
3CB0ABE5
3D3843A9
3CE58CBD
BD96928C
3D1C1E09
BCD4B69B
BD847D8B
3D894721
BDDE0AF0
BDF4B28F
BCB8858D
BD9F8622
3CE941AD
3B6B8C15
BE0D8502
3E1B6106
3E11D092
3B826EB8
BD0E42AE
3DC1E8CF
3DC88A5D
BD41A0CF
3C1A34AD
3E2DC58C
BDD899B2
BD83A10C
BBA9F025
BD3B287D
BDCA2B7A
BD91BCA1
3A060779
3D33FF2B
BD8209E4
3D6B1CBC
3DACAB54
3DEAE8D4
3D4C703B
BD12F42E
3E16DF1E
3E0D5CBE
BC021C0F
3CD22908
BDE6B3E4
BCC1CD25
3D2F7335
3D9CCBFB
BD9466CF
3D3666F5
BC404EBA
3D93DD98
3CF80474
3E1DF535
BD33C48E
BC65BC12
3CD03613
BD961749
BC9D1FEC
3C1E32F4
3E35F098
BD84CC07
BD72E70B
3E2C7362
BD161304
3D872E3A
BB6CFC7A
3D1DDB15
BCDEBC84
BDF48D2D
3C63C064
BC8C55A4
3DEE2768
3D9429CB
BD37FF6B
BDAF5165
3E391DA9
BE16959D
BD3729E3
BD6E7576
BE208AFD
BF226E09
BD8D8F56
BD8BDD42
BD1609B7
BE506F0B
3DB44D3A
3B5FED88
BE27C215
BD5D275B
3D8ED99F
BBF8BAD0
BE288AD5
3C9C93BF
3E40BB6F
3D9FFB01
BE0EDA81
3BC4ADAF
BB18CF74
3D3C9BE8
BD8A9636
3BAB940F
BD71AA90
BD774CF3
BD62700D
3DB56BB9
BDCD4FD2
BDA2F00D
3DA447B3
BCF6F270
3D5A0E31
3D9E27D5
3C3E6D18
BDA7130C
3D3AE221
BD1C11AC
3D85BDB6
BCF3BF1A
BEA887C0
BE045C5E
3CB60E75
BDE932D7
3D893394
3E210B34
BD8DE307
BAD3D9F6
3A5A1276
BDFCC195
3C2A86E7
3E06750E
3E51F6EC
3C701AE5
BA2A3184
3E959609
BD8147D1
BC4F7B12
BE0484D1
3D483937
3DE0BF43
BE045FB2
BDD95190
BDC0FBFE
3DEA5482
3C7619AD
BD715FB1
BC5DE6BB
BCDA5826
BDA1A21C
3E2FC280
3D0C1F73
BCB795F4
3E7C12CF
3DFC7F85
BE06A268
BD5567CE
3E094A25
3DF7FD68
3EAC175B
BC536E9D
3E07A79B
BE6D232D
BDB4BF0A
3BDB3B96
3D7DA9BF
3D508A6C
3F0AAA32
3E35C988
BCEA6B7E
3DADE468
3E5822E4
3C0F31B7
3D4A7691
BE5494D5
BCA9CA94
BEDFAFF8
3C989B92
3D6BF2A2
3E063D81
BD9BF173
BD7EC667
BD63997A
3D2F24B1
BDC9E439
3DE2F159
BC9D8F5D
3DEB9204
BDD16624
BCC19E81
BD837147
BDEE7CB5
BD09D89F
3D6A2CB4
BD7CA03F
3E522A40
3DA931C6
3DD90E82
3B4B5A8F
BE035AAE
BE4672DA
BD4C98BA
3D7739BB
BB3B2690
3E57547B
3E00BE22
3CA1D72B
BDDEF673
BD72CB61
3C0767F4
3E2BD109
3E0C70A8
3C05D28C
BE61EF7A
BBB2E45F
BE8C322D
BEEC4B83
3E4D2213
BDCF50AE
3DF457CE
BD78C63D
3DF12AE6
3DEB2413
BD09B236
BAA11C8A
3D7E2C2E
3DE71129
BE22F655
3D586844
3E2B1430
BE2D88BB
BE3D8BD3
BCF75BF7
BE174AF0
3CD979DF
3DC2A4F7
BDCE5944
3C1A46E2
BE08DC70
BDBAB415
3DC85E71
3DC6D5A1
3E0C46B0
3CF71855
BC945A90
BD92412A
3E905C36
BCCFCEEB
3E8BD4B8
BDC52C38
BD50246B
3D379230
3D54DD32
BE587D62
3CDADB99
BC169415
BE96A09C
BD6052A9
BCAFBAC9
BD8A2C51
3CBF3F1B
BD93B504
3DBB86B9
BD82BC4B
3D90C3EC
BD23D151
BBE6636C
BC0112C2
3D193F44
BD089FA9
3D57254E
3D67DA19
BC962E4A
BD0631B6
BB88127E
BDD4A34D
3DB7E8DC
3DB3CF28
BC4FEEAB
BCBAA441
BD5CC4C5
3DBCC23B
BD0E67C5
3D33F03D
BD67DB89
3DC27DBE
BD9F9669
BD88F394
BCDC92D8
BE0CCADC
3DF11DCA
3D27BD94
3E41E683
BB735668
3D9EEF08
3CD9C244
BD9659D3
BD7F644C
BC65DF17
3D9EB4BF
3D9C7263
BD168EF3
BD918584
BBA472D7
3DB2991D
BD1B935F
BD29AC06
BE1DBDF9
3D8FCF6D
3CB1B915
BD9BCA41
BAD4A2A6
3D96053D
BD219CAD
BDAA388A
BCF03364
BD421E53
3CF56D50
3D588126
BD7F3E1C
3CB526EE
3CAA1EDD
BD118A8C
3D0BA199
BCF5A3B1
BD2C52A1
BC153C92
BCCAB093
BE1F42EA
BDCC0344
BD3CC5EF
BD865C7B
3B496383
BE164551
3C86DE20
3D1949AD
BBC3ECE8
3DD9DA3F
3D518444
3D676359
3D64993C
BDE08E22
3D3B7BDA
BBBA4888
BDC3ED49
3E30F4AF
3C5CE122
3C666F96
BBDF7802
BEA69304
BDC25A22
3DA54434
3DC00110
3E19EC77
3CDF6C06
39E9A395
3C27FDAB
BD3439EC
3CA52467
BD7DD505
BD82BA08
3D62CA0F
3DAFDB78
3DD569F5
BD956512
BDCAA9A4
BCD0E5BC
BDD4146F
3C2ED93C
BD8712D9
BDFAB6B5
BD845354
3CDD8D49
3DD18DFD
BB7EFDCC
BCC6DCBE
3CBCAA76
BD42655B
BC642BB9
BD0663C7
3C3D843A
BD491DC3
3DB56AE6
BC6AF1A6
3D8A965D
3D90E07B
3E9927DE
3D826C6F
3D408D71
BCB0BE5E
BD907E60
BE5DCC06
3DB73E07
BE783163
3E69B414
BE2E8D04
BDCF642E
3E8FF63C
3E32C867
3E4CA679
BE4E656E
BDB4EBD4
3E67EE41
3E008D8F
3E4FF90E
BB021311
BE0EDAB7
BDDBC8F6
3CA92C2E
BE574037
BE70A640
BD6C592A
BE1AC718
BE357CB3
BDC2E668
BE041C82
3DF82568
3CD671F7
BE18BC5A
BE6A2A7D
BE0C8473
3DFC580B
BDFA6117
3E644E5E
3DE29AE5
BE25F43C
3E0E759B
BD39991E
BD97AB46
3DD3608D
3DF88682
BE42AE73
BE2ABF12
BC5C26BD
BE9B6A04
3DF32089
BE4D4E90
3D80AA86
3E4C5FFC
BDE9EEE7
BEBBC7F1
BDEC3AAE
BE3DCF7C
3E0BA190
BD33710E
BBC9887D
BDB1BF77
BE89D378
3D91F9F5
BE445AD9
3DBF1997
3D95A0EF
BE1C9C7D
BE3248A9
BF10BD97
BC965A2F
BCCFA39C
BEA6B393
3DBC7BDE
3E5F9526
3DA290F0
3E442DF8
3D00ED10
BE4ECB67
3E05AE02
3DD6CF4F
BE067DB4
BD3ED6DB
3E6FB7CE
BE3033B9
BE3A099D
3E2C7D73
BE1C4370
3E19487E
3A2D53AF
BE2C7D0E
3D6CF0CC
BE4BC587
3D3F303C
BC6EC200
3DB7B971
BDC5183F
BED832A9
3E8A92F4
BE851301
BA840A55
3D6245CD
BE75DF4A
3CEE6F6A
3D8CC573
3D879BC4
BDD043B0
BDA58A24
BDE50218
3E8420B0
3D60F3E6
3E4F42BB
3E4C020F
BD9E4914
3D83E4DF
3E2CFA77
BE37381D
3E6BCD94
BD262D84
3DB68051
3E564E5D
BE870F1A
3DB0BC3A
3D89544F
3DD9CB76
BE325687
3E9E2F5A
BE52C908
3E2A1E5A
3D1345E0
3E2E90F2
3D81AF84
3E502808
BE011567
BE0C6A86
BE14CF8D
BD995803
BD36D8DA
3D9882BD
3DCACDE2
BE228EEA
3D9F48DC
BDA950B1
BD4BEB43
3D4B44AA
BD92A348
BDA125A7
3CB1112A
BCB8E306
3E1A8361
BD89E5FA
3D645D90
BDD1F13C
3D96D7AF
3D7A6010
BCA713E6
BB9E1678
BCA17957
3DE25EDD
BDB366E6
BD72E28E
3D935114
3D0401A5
3CE2A75A
BBCDA518
3D9A9C84
BDA3D567
3E00CF7D
BD608D46
BDF215EF
3C8A0E16
3E795D70
3B857179
3E51EDA5
3A16693F
BE974197
BE3ECBE0
BDEE8EB1
3D539922
BCF45837
3D13C346
3EA91DDE
3E1E59A2
3D96BF71
3DB3C249
BD2197D3
3CF9B614
3DF147BC
3EBD563B
BDFF0B79
BE6AC443
BC7E608E
3E42C916
3D7F7C7D
3DBE68A5
BD8166D7
3AF25BE4
BD53EDAE
3CBF7668
3C1BF6FD
3DCA0747
3A91F9AC
BC14BF88
BD190CA1
3C7F4F4B
BE32D6DF
BCF1B895
BE07099C
3CCEB50A
3EDBC512
BCF43AA5
3E0E7F25
BD05E7E9
BE57670A
3E318CB4
BD673B3B
BCD12CBE
BD805C15
3DB3AB4E
3D4810FB
3E17AFCF
BD737EDE
3C13E60A
BD4286B6
3E155A47
3D67F750
3D084A44
3DA908EE
3C4027CE
3D545E81
BEC8C4DB
3DB82AAB
BDE8B14A
3D144AD8
BEA354B4
3D1A0CD9
3E096CE8
3D78844B
BC267804
3C20CC61
BD76AC85
3DCA8590
3CC62457
BD1D19DC
3B68490C
BEA99356
BBA07E61
BDF91545
3D8F332D
3DED8567
3D01AE46
3BCD80B8
BDC9784D
BD989848
3DFEF3AB
BE280C23
3D1E2FE1
3CF4A79D
3B8C3441
BBAE9038
3B06ACE0
3CE2C699
3DC7472B
38993DAF
3E01A5B6
3CC04921
BC8A8991
BD1AE1F6
BE1B4338
BE40423E
BE31BC0C
3E59427D
3E2DEA7C
BD85F84F
BD91A7C8
3D3EC9A7
3D8557C1
3E9504B0
3C8CECAD
3D08E18E
BD58542F
3E4460AA
3E5BEAA6
3C844A8D
BE216A48
BDB9F21A
BE016A71
3D187E8C
BE5DDE88
3DD95CF1
3CE079D3
3DDDDE2A
3DD59302
3E183028
3DE668B5
3C9985AD
3E16F629
BC194635
3CED2892
BD75EB7A
3E0DA116
3E3874FF
BE79E768
BE9141B7
3E70B631
3DD42112
3EA22E9E
BD72E0FE
3DF546B9
BC815B7A
BD6DFD01
BD8F5AEE
3E623B5E
3E21C320
BCC328D4
BD0357DC
BC74C463
3E64018F
3DEB23DD
BDD9B421
3E467DC9
BC538111
BD34DCC4
3C9FD6A0
BDBCB142
3E859A52
BD1E639B
BD216144
BDD3BE81
BDDCC101
3E2355B3
BE2DB7AE
3D94937D
BD483F64
3DC0390E
3E6E17B4
BE30D145
BBFB04D7
BCDB1E9F
3D0C0752
BDB8AB29
BD09D4FE
3ED0A2F3
BE2E31AF
3E06172E
BCFF6068
3E28065F
3E2F2346
3DBA3750
3D89AB39
3BD8C160
BD33F235
BD5D543F
3E8489C8
BD887FB3
BDB6F59D
3DD8925B
3CE90B31
3E4F3B2F
BEDC7E32
3C3B61D6
3DCBF272
BC090294
BF2203EF
3DB53C21
BD8AB129
3D0A64E9
3E1D590C
3DB990F4
3D0C0074
3E3B1AC5
BD2D1009
BCAAA3BD
3E2ABFE2
3DE13173
BDC02884
BE6DA979
BCD10DCF
BE06958F
BCF82BCB
BCACEE2A
3C8AF8D2
3D2ACA49
BDD420A6
3C638FD2
3DAEE43D
BDB5E316
3DE14262
3E68579C
BA2DDE11
BCBD14F4
3BF5ABC5
BE06FA03
3E23F240
BDCA21B9
3D7CB924
BE3DFAD1
3DBE3B2C
BDD8B90C
BDA47727
BD531586
BC980372
3CBCA36A
BD89784D
3D008673
BD0CF391
3C91FECB
3C49D414
3D84ACF4
3DFB8B84
3C964DD0
BC637B0F
3D8E6928
BD9D3391
BD39AE4F
3C1D85D1
3BDD3315
BD77B510
BD2C0E99
3D8EB517
3C67305B
BC1009C2
3D358543
BD11CB5F
BCDFC5E9
BD1F0DD5
3D3E0859
3D7D85BF
3CC8F4CC
BD5B528C
BC7CDCB5
3B637CF4
3BF89A8F
3D8540F7
BD8E66A4
BBAFA030
BDF5DF4A
BA99D15E
3CBFEF9A
3B9BE548
3B3B5D46
BE8CED0F
BCA25F81
3D16740B
BD57F984
3CFE0D92
3D1478B8
BDB34055
3CFB1CA1
BD93EF1C
3CA54361
BDA2FD30
3D30E487
BD9BB9D9
3E1DC15B
BDAA7040
3DE82617
3C6FFA79
3D9B2BB5
3D235D22
BC2E94F4
3D7DBB90
3A80ACCB
3D8248DB
3D7252B9
3D7869A9
BD8AF329
BDB46E5C
3E32830A
3D0E197B
3D0965A2
3D8F20AB
BCD590A0
BD6763E2
BD33B554
BDAAC408
BD8FC5F9
BCBB2A5E
BD0A57C8
BCB9D869
3B73D065
3CA94F5F
BD78DF7A
BD9A9FD0
BCA8497B
BCEB08B8
3DD2BE99
3D349BF1
BB3FCA41
BD94EEB5
3AC5036F
3DC0A2D5
3CE18D39
3D0B7816
BD4B8DC0
3D8D1D38
3C1C9205
3DC5A90E
BD781B0C
3D806092
BD521236
BCA8BE40
BD98CE51
BDEEFAB2
3D6986B2
3BDD1C36
3D38305E
BE0D758B
3DC9AC21
BCD8DBB9
BC972028
BE08ECAA
3CBCE05B
BD8FC59F
BCB22856
3B9C53E2
3C81C755
3CE0EACC
3C2F2257
BD1B6B26
3D766DA3
3C857BEB
BDA7304A
BC590AC9
B9C7A5FA
BBB00DF2
3D82828D
BD16C5BF
BD1C742F
BCAB999C
3CC6B8B1
3D353EEF
BD95E917
3D448068
3E2DD7BE
BAD77D91
BF5255DE
BE0F7616
3CC354DF
BD96F28D
3D9216B3
BCBC4921
BCF5C122
B9DB63A3
BC39E930
BC3A3D3E
3E005BFD
BDB2A69F
3D8B6F22
BDCCB8A5
3DA13657
3D4423DC
3CAF93CC
3D5429C8
BD93F86B
3DE494E2
3D2739C6
BE1ECB2B
BD5D1FF6
3C78C437
3E4929B8
BDBAACCA
BE14C540
3D7E7CFE
3CE9C5C1
BDDCF264
3E7203A3
3D20B196
BC93DEC5
BE1444F5
3E8713EA
BD45A43A
3EA1DE7E
BD93542D
BD25879F
BEDA8082
BD72B788
BCA2A54C
3D897E46
3D3A98AD
3EE84DB6
3EDBC456
3D105951
3DD82EE6
BE1DB391
3C4D1445
BD3F1534
3D79913E
BE492E7D
BD6BA42E
BCBAEE53
BE8FF7F0
3D15247A
BBA612ED
BE054D6F
3BA4F56B
BDC7FB9D
3D398F30
3D55E946
3BA17EC5
3DB42129
BE3CEC92
BCCC6E38
BD466014
3E851A36
3D209185
3CC739A5
BD9BE9DA
3E92AD13
3E09DBD1
3D9735B3
3DE19DED
BEEC1B94
BD682781
BB510F2F
3D58DB08
3CFD86B4
BDA81220
BD87EC3F
BBF6F505
3D6CC941
3E6DFE18
BD8060A2
3E01C249
3CAC4259
BE0D1DF6
BD23329A
BD17FA48
BD1D09DC
BEA798D5
3E04002C
3D720FFB
BD202691
BE028F20
3CD586E5
3E00BD6D
3D08A5D4
3E6D1B49
BDA9CFBA
BCA608B3
3E6C161D
3DAF62D0
3CAB03EF
3E2E2C27
BE06BAFE
BDCD504B
3C2C1C28
3B8F2F35
3CF2F26B
3C014150
BC030F00
3E0C8C50
BC505212
BD7CF5DA
BC723E41
3DBD63BB
3DCFCD40
3D05B7B2
3D21A603
3E76A3BE
3DC6C50B
BE3F547B
BD9CB99C
BE32B6C9
3CCB392F
3D8CB67A
BD1EB364
3E07B092
BD10A15E
BE099517
3D8B8569
3C6E0EBC
BD995703
BC850365
BC837ADF
3D2D3AD4
BD154EB4
3D5AA9AA
BD8107E8
BA44B442
3A7A305C
BD365B9C
BCB67D05
3D66FA38
3DAE8D60
BD9A56F2
BD46C237
3D426ECD
BD08B6CB
3D0BC7DF
BDB5D428
3D657D9B
3AB27852
BB1019FF
3D8C0BBC
3CFA4C01
BDA46714
3E5ED839
3BC35E37
BDAB1CE3
BCED041F
3DA64E83
3C57B589
3D4B244B
BAED3DCA
3D872989
BD9251E4
3D991382
3E010F7A
3DBAC0B3
BBB2E43D
3D3187A7
3DA3FC30
BE069362
BD53090F
BD235EAF
BC855468
BD6653A9
BCA516D0
BD700FD3
BDBC9A75
BD4ABC5C
BE07F0D9
3BF75EA6
BE0ACA65
BD01DE47
BD8D0F40
3D340761
3DA15C10
BCABE0AF
BD46CC0F
BD55653F
3D7E1D7D
3D84F631
BE3C5FF5
BD8698E4
3C5F0B33
BE3B479F
3DA06CB2
3D3F1778
3B6D46D1
BE44C617
BD39E26A
3D360095
3D890E57
3D88AA03
BD87B167
3D487E26
BD4FD9DD
BBCE853A
3D0E9009
BD903DB9
BD610A5F
3D5D9189
BC20CA46
BD92ED86
BD007F9D
BB77C830
3E07563C
3DBD2B11
BDC422E2
3D09A718
BCEF43F0
3CD1ABBF
3D8DFE04
3DB8FC79
3DA42ECA
39A36C5A
3D1ECAE7
3D383A34
3DADB4A4
3D5AD477
3D9A3319
3C144B25
BCB4B9DC
3E37CFEC
3C34C153
3D10DE3A
3D1D5080
3D3A75F8
BCC879A7
3C1547A8
BD4F5CFD
BDCB30AF
BD7C0618
3D658A4E
3C81D7D7
3C729B3E
3E10EA91
3D8BE7A2
3DAA94E3
3C02A4EF
BDCF7927
3C258C4C
3DD3113A
3CA6BE80
BB447196
3D514AE9
BE93489E
BDC3DA46
3CE08D7F
BD972915
BF32CB67
BDC35351
3C4610B0
BDFCBA73
3E93FDA7
3D137EEE
3E8FEF07
BEAAF102
BEC8B58C
3DCE28D3
BDCEE675
BE035796
3EB3B891
BDA05B85
3D93BE81
BE08EB5A
3E749788
3E2F0B2F
3E869A18
3D74D270
3D7B6CD3
3E8DBE49
BF14D0EF
BCB93749
3E5197EC
BEAFF7B7
BEEEBB02
BDBF7C43
BEA1953C
3D8A118D
3E816327
3D5CC1BA
3EA94196
3E517262
3DCC29EF
BE834A77
3E90D6E8
3D47D04C
BF42AD56
BED00E3F
BD175ECC
3E6F67AB
BCB89DF1
BDB21D8E
3EB1D646
3E774CCC
3B734271
BD9F6E9F
3DEE3327
BDB934BB
BD8DE787
3EB23FDD
BC91C20F
3E61D983
3DC077FD
BF41083A
BE26CA04
3DAD8B97
3EB7D718
3E8AD9E3
BDB211FB
3C21E6A2
3E3AA2AE
3DEAAD6E
BD790F0D
BDBA5F7E
3F0F6BA0
3D5BFCF9
3F09D93B
BDFC60BF
BDA89DFA
3D9A3CF2
3ECFF2EF
3D0D68CC
BE3C8203
3E3C005B
BEF88377
BEEDE0F5
BE91ABAD
3D0B08F0
3E1D2285
3D0942BF
BE835B56
BD47F887
BE3F1D5A
3E980F88
3E12F329
BD2B0CD1
3E4F9300
3EE72808
3E0B73DF
BE3503B8
3E033E28
3DF8AAFF
3DF4393D
3E18A24B
BDE1942C
BECD447B
3DE9B18F
3D0A9867
BE88C5D0
3D7CD5D4
3E18379A
BDA08094
3E238EB0
3DFD81C9
3F2799AF
BF01FC49
BEF226B6
3CAF55C4
BE30CE63
3E9EB9A5
BDADFAC8
BE00AB49
3DC44849
BD8BD05E
3E05849E
3E475E7E
BF50BCCC
BE8A32AA
3DF48ECE
3E6DE47B
BDEFD2F7
3DF914A4
BE270E04
BED66472
BDE9024A
BE26F304
BE0117C9
BD990374
BEDA4CA8
BE49428B
3E322483
BECAEE05
BCEE8BB9
3CC0FBC9
BE02DD3E
3E7ABF2D
3BE53D8D
BDE70FBF
BD921E1A
BE042345
3D5716B5
BD3CBB14
BC60DC99
3E95A40F
BBB6DF38
BD35DDB8
BE131F8A
BE48E57B
3E4460E7
3D6B4104
BE11267E
3DC1A106
3DC06B84
BE4274C7
3C660868
3E7282EF
BDC74144
BE1D3006
3D657728
BD855E6A
3D2742E2
3EE04BBF
3D833FCA
3C477E59
BDA85965
3E516F36
BE2CD46E
3EC11156
BD8F1665
BE9DAE92
BE062831
BD469147
BC210114
3D9173C8
3D8AB58B
3EF3EAA9
3E98E49A
3E1474F5
3DC5EDF9
3D609B84
BC89F2A2
3D247505
3E28D0F4
BD9B8EE5
BE3834B8
3D2E492C
BD986943
3CADA3C2
3CB05B52
3DD0D951
3DAD42DD
BBA78ED0
3B8118E2
3CABA799
3D7F4C7C
3E32C040
3BC0A265
3E3CD58E
3D5E7F67
3E0CB098
3C128B56
3BFEDFA0
3D933801
3EA776D9
3D984CA3
BE3BF97C
BC770C06
BECF3B2F
BE5B223D
BDA57A19
BDB61083
BC8F9544
3E793265
BCA5EF68
3CD952E8
BDF360DE
3E27321D
3DEB9A0A
3E6B3489
3E3733DE
3E400A8A
BCB2F017
BEB5622F
BDDF2D3C
BE8A09BB
BD05EF96
3D34178C
3D3F74B0
BE8CA9EF
3E256A45
3E84A849
BE049DA4
3D3BA565
3E3199DD
BCDE0361
BCBA4C5C
3CDCB481
3E8AA0DC
BE51C49E
BE06EF44
3D8710BE
BE0102C3
3BDDCAD7
3D800A6E
BE27C640
BC4EFCFE
BD655956
BD88E3AC
3D191555
BEDE3114
3B93D4E5
3D77074B
3D492078
BD7BACCC
3E4D21DE
BE13F657
3DDBF353
BD46EBC7
3D0CCBFE
3D0AA05A
3DE4A904
BD5FFF31
BCC83E1D
3D53DFEC
BE112BB6
BAE1F1C4
BD8ECB5F
BD6779B4
3D28E23F
BD0919D2
BC9DDD9C
BD62FB07
3C9FED05
3D3DCD60
BB2282DD
3CE3C13B
BDA3AD35
BCBF27F4
3DB684CF
BD4F0DF8
BDA05268
BD5E5424
3D84A01B
BD99F9CB
BCD74EFC
3D5AEF55
3C9DE8AE
3D9A1629
BD847AD5
BC369C54
3DA289BB
3D1D10B7
3D304D07
BD146EAD
BDA7FD4E
BD81EDD2
3CADA3AD
BD99AD4E
BD2B7E63
BD26B145
BC35DE7E
3DA7AD63
3E0AFDB2
3D60E129
BD8C6451
BDCF52AC
3D86FCBD
BD9F252E
BDD35BAD
BE4A3854
3D673ECE
3C0499FD
3DB70638
BD18E5F8
3CFA7470
BD2FFBCE
BC9AE107
3C29548D
BD294C1A
BCC4E9A9
3D853BFF
3CAE2847
BD5AB256
BC2E53A5
3DB72C77
BDB0FD12
3CDF9B1B
3D240515
3D9DEA0B
BDD89F4E
BD6E2807
BCB909AC
BCDEACB4
BD92371B
3D016D56
3D9D3FC5
BDDF3634
3B3C8DFF
3CF7BDBC
3D37BA7C
BD3FCC13
3C08DB3F
BCBCFFDB
BC86BEA6
BCC3EC4E
3DA529F5
3D978DC9
3D83AEBD
BD44791E
3C44497B
BD0A3A36
BD1FB2A0
BD6E2A78
BCCCD368
3DACDE9E
BC28D6CE
BD9B1251
3D2AEA2F
BC6BBFAC
BD63E7A9
BC9863BA
3D8C0A4A
3D839C7A
BDA2E348
BD9B63B9
BDBC70CA
3CE99FFC
3CD1DA43
3D8D3F71
3DA6CB5A
3CA6A9D8
3DA95F7D
3DCBE1EF
3DA27432
3D85B72D
BC6A8ECA
3BF3B582
3C4416A6
3BFFCB4E
3A8BB000
BCB887E1
3C1C486A
BDB81223
3DE61657
BC9E93FA
BD70B775
3D92ECB0
BE489898
3DA17E21
3D7221B6
BD08577D
3DC20D4B
3C584AE5
3B187D0B
BDB30C5C
BE06F516
3CCFD1AA
BE28C126
3DD9E930
BD7B1CF4
BB74B15C
BD6F7A92
BC90171A
BD88E153
BD88BFFB
BD8DFE3D
BD285693
BDA85545
BC221524
3C23870E
BC8B4893
3D859385
3D748B75
BD3AC553
3DA530D7
BBDD8919
BBC273AD
3DA93C0D
3BC20BF6
BD2B0E51
3A416307
3D88263C
BD03893C
3CDD9C43
BC9A86CA
BC636D2D
BC6F15ED
BDB99A1A
3CB9D742
BDC534F2
BC85D577
3DD30EC3
3D603F0A
3DD31833
BD440863
3DB6E7CB
3CF779EA
BDA36E1F
3CE85DC2
3CAF48A8
3D1B14FC
BDAD6DF1
BE1D7328
BD8D7979
BC4731C3
BAC98146
BDB7D69C
BC96E5DB
BE32E042
3DA073F0
BD3F99F1
3D1E8FEE
BD5F452A
BD7F7E45
BD8C08B9
3BA6FAF2
3BDAB08C
3D1474A1
3C9F0138
BDB03567
3D8865B1
BD6DDB55
BE0EDD99
BD99B5B9
BD2C1F83
BCA15BB5
BC319650
BD0B6907
BCD61825
3A834906
BD3D1F7E
3D0EB6D5
3D00D250
3DC6E050
BD0E2A2D
BD7EF457
BD7EA603
3DC3F6A8
BD4FDEF3
BAAF4915
3D511C68
3D796CD1
3D47DAC8
BC98248F
3C8689AD
BD9CDDF8
3DA3BDD1
BD0D4A91
BDB2A7FC
3DB93719
BD50B1FC
BC96FFA6
3D4B267F
BD44010E
3DC86BE5
BCFD21BF
BD4A13AA
BD8BED8A
3C9F8DBA
BC217FBF
3C89C2FD
BD102EDA
3D75B287
3C3796BA
3CBA5E15
BC8307DD
BBC37D99
3D89F140
3D3DCBBB
3DA66505
3D7F4B6F
BDD4EE47
BC4E20EB
3D07B266
3D95BDEE
3DA37177
3D5FD580
3D93CB9B
BBD0F214
3D93A6D5
BE234261
BD69D46D
BD32BEBC
3D9F66EC
BB725591
BD8C489E
BADD11E1
BD9EA60A
3CC92558
BD6C809F
BDCA83E9
BC414AB9
BD720714
BD98BB7E
BD73D397
3D7D350A
3D1467E7
BC1CF476
3D811B1A
3D79754A
3DB1678C
3BFFC8FB
BC6A017C
3CCE64FD
BCA0A06F
BD85EEDB
39B0BE46
3D1E4296
BBE786A4
BDA1E419
BCF872B3
BDE7C866
BD30EE52
3D86CE52
BDAEE5BB
BDB3B718
3D1F56FE
3D67F5EB
3B68936C
3C858E6F
BDA38B57
BDDF0711
3D254826
BD96AE34
3CF964EB
3DA8520E
3C920CA2
3DD3CAE0
3DA9A6E1
3D519F4F
BD9F56B4
BD784828
BD9CF5A0
BDC2E7EB
BE019631
BE6A05F2
3CDA7C2D
BD22A4C0
3C677FEC
3D280552
3D0C8C6B
BD7382FA
3D2E0AC5
3D510D84
3C0AD188
3CB6D29A
3D0B26A2
BDE6A792
BCB48766
3CA9F1C1
BDB0DDF6
3D7F1524
BD89D1C8
3DD5B490
3D69BB35
3DAADDF6
3DDD576C
3C774AAF
3D388D90
3C8E306A
BA246E09
3CD2E7EA
BE3F2390
BDC032CA
BDA3C7F1
BC8A2994
3D5E6D84
3D2DE6D6
3DD8D8D2
3D4D42AE
BCEE2A0A
3C39F748
3DC2214A
BD3E34CF
BD4DE31A
BD467929
3D3A3322
3DB29BB0
3DA1A707
3BBCD562
BC327197
BD511437
BA82C839
BD6BDE83
BD929333
3DAA6568
BD6027FB
3D608353
BD407947
BD8E8977
BDED6528
BCCDA1AF
3CFF3077
3CBC91D7
BD13394B
BDA55493
BD2F1A98
3DF6EBBA
3A7CA27D
3C5E7A34
3D814CE0
BDCF0988
3D80A080
BC983F82
BCEDB5FB
3D96209D
3D4FEAA9
BDC81F90
BD77E173
3D801F66
BC3F7FE8
BD40CF91
3D596D17
BE0375D0
3C938690
BDA1D85F
BC9BEB79
BBBA827D
3D6E5A16
3E0B71B2
3D513F8B
BD4A01B7
BD9F52ED
BDEFC131
BC9F811A
3CCAD541
3AA457D2
3D6D271A
BD788E47
BD4842A2
3C17B16E
BDCD8B39
BDA02BBA
3D4FC87A
3C4F6BCE
BC86631C
3D085C8B
3D7DFE78
BC322FFE
BDD43386
BC9CACAF
3C4F085C
BDDD6543
3D73A549
BCDE1E94
3D3BE292
3B5D61B0
BD5236D1
BC46EBCD
3DD70C21
3D815B38
3D45252B
BCB71205
BD010C7D
BCF07452
BD5D5538
BDB2D319
BD0932B4
3D245130
3CC646C6
3D1566B4
3DD11574
BDA40637
3CC95102
BBD01D9C
3D845899
3D040263
BDD3C57A
BE43A3B0
3CDE34DF
BD908D7C
3D4BB1DA
BD47BE17
BD438540
BDB842FE
3CEF6955
3CA3D044
BB686906
3DFE5322
BD692764
BD5B1735
3CC64396
BD41AC0D
3D3E8B91
BCD7D737
BDA3F5DE
BC3C05F5
BC2B6096
BCF8E610
3C29E73A
BD9819FD
BDB6EF76
BB14B109
3D78DF3A
3D8014C7
BC2D614D
BD12145F
3D2AADA6
BD448395
3CB8C625
3DA825FD
3D678ABC
BCF2B27F
3D5B65D5
BC0CC86F
3DA08312
3D3300DC
BDAE130B
BC7B6C1D
3D147781
3C3319B3
3D5AC345
3C67B175
3BF4CE53
BDDE4CF2
BC43661C
3D5E7881
BC214634
BD25770D
3D9C53EA
BB3F177A
3D168B5D
BD3A4830
3B4A17DE
BBB7FF4B
3CDC189A
3D6AE475
3CA08190
BDA80FF8
3C697E29
BB9B97C1
BDA76967
3D2E8D2C
3C430DFC
BD4E6D69
BCE18291
BCB26D2A
BCE69784
BD818BDE
BBD70381
3DD6842E
3D4A2593
3B4A6CE1
BCEA1E01
3C532C78
BCB079D0
BE1D69B1
BC556FC9
3D08DCB3
3D2FAEA7
BD152A31
3D707518
BDA291CB
BD005781
BE655128
BE259B94
BE32BB66
3D4CFCF6
3B176232
BC90283C
3D9E4C1B
BCEBF1D1
3CB84912
BD6CA760
BD9F0A60
BC94EE2E
BDBD8A96
3DAC75E6
3D95A811
BD6F88F7
3D18603C
BC4D5FFA
BD12B176
3C0152A9
BE294EA0
3CDCBAEC
3CA702C9
3DDA3F8A
BCFB5414
BCD0A691
3DBAFC6C
BAF3B157
BCBDE4D2
BD140A51
BE9F5CF2
3CF5ADB7
3F278489
3DCAB72F
3D875DC0
BD14A0F4
3EBF7095
3C93C0D2
3EA7CC44
3D5843B1
BDF4A028
BEE9493A
BDCAE66E
BD9E2588
3DD4E01F
3DC9473B
3EF0E6EC
3EB8208F
BD8174E5
3CA34778
3DEA5A04
3DF24067
3BC40D00
3E13154A
BDBAE4D8
BD80DBF8
3D0E5BDB
BE64814D
BDCE58D9
BD97F136
3E2EEC7D
3DE30FDD
3CEB1654
BCFBB3B5
3D2A72A2
BBCA17DE
3D3FC870
BD5703BD
BDBAE59E
BCE4E410
3EAA9545
BD89705C
BC06795B
BD25B01B
3E5E7495
BDE9DF3A
BD541D00
3DA1A0E5
BEE05E12
BE0931B6
BDD9C2B4
BD3D99DF
3D17F001
3D4BFC45
BD1603A2
3CF420D9
3C95CC45
3CE87BF5
3D333628
BDF501FD
3D18D531
BE1C6AAE
BE462054
3D349E32
BD576FB1
BEF29A30
3E0927AC
3D8B134B
BCC60BAD
BDEE4BD8
BD44CA8D
BC08DF4E
3D447878
BDB01E03
3DDE6C8F
3C3BB106
3D07A7CF
3CC43EF4
3E83844F
BDD32B63
BE2FB2DA
BDC3430E
3D166725
BC444488
BDA3E9CD
BD4058F6
BD633422
BDA28495
3CB7E01C
3DDB192B
3D0D2D15
BD012163
BD5A9DF3
3D1A9D55
3CFDBD15
3DFD9331
3D15A457
BE1B886C
BC98A7ED
BE18FDC8
BDB521F4
3E43ACD6
3E1DC31C
3BD105C2
3E992865
3F3380C3
3BEA0F64
BDC835F6
3E0F5E13
BE18F5A1
3E429B43
BE6B275A
BE086325
3E56249A
3EA4A0AB
3E2AB021
BE587930
BD6DFA41
3E425AA5
3EB5D481
3E804157
3E1DACC0
BE8CE2E3
BD27B907
BD626B62
BEA568B2
BE24E004
BDB9E577
BE7902AF
BE3B6772
BE237069
BD97EAA9
3DD86BB7
BC2054DB
BEB89DAB
3E8EE43B
BE165FED
3DE2F14C
3D2E2AAB
3DBF1765
BE5912BA
3E170D34
3E78661B
3E400226
BD490E5C
3E785130
3E21EF37
BD752665
BE06F5E6
3EC5ECEC
3E08AFFA
3E91D9B8
BE3852A1
3D18C42C
3E79DB9C
BE4C7637
3DC8AF1B
BE5B15BC
BEE71EEC
3EA06FEC
BE1B1C43
BE3050CB
BDC068A0
BE046357
3EA4AF99
BE9E1D7C
3E50419D
3E21478D
BEB0EDC0
BDF1589D
BEBE4FF3
3D703F83
3D6115B4
BE541589
3E7F8056
3E6BDD7D
3E51F0C3
BCA6372C
3E2C8719
BD51A91A
3E92090D
BD241C0C
BE6976A8
3DAB666A
3E8BC1A3
BE065AD7
BDAE66E6
3E79D05D
BE88B425
3E82891C
3E7A4AD6
BE80DF74
3E81A979
BE3EFC95
3E429846
3CEEE08E
3D01CDA8
BEC3DC56
BE99DD71
3E280D30
BEAFF14F
BDB59DFC
BE2F5E20
BDEA0748
3D943C35
3C2AAF6C
3E2DC033
BE000926
BDB92FDF
BCA488C1
3E7F0337
3EA81023
3DD00D44
3D92E878
BE3BA2B1
3E133E43
3E9AF16A
BE6203C5
3E40812F
3E6855EE
BCB5D8BF
3E983340
BE65AC91
BD8000EA
3CB33A5F
3E61A7FE
BE4E6DB0
3E4E5D83
3E30A75A
3E6E7BD1
3E8666BA
3E8AD6D2
3E50A33D
3E4AFF16
BD808781
BE6E846A
BD0801BC
3E17F137
BE059FEE
3CCB0CEF
BD1CBA08
3D1DDA41
BC9986AF
3D343884
3D16F926
BDEAAFA1
BD96CC2E
3D96EE99
BD6141CC
BD976579
3DB02AC7
3D198A3A
3C4028D0
BD6CACB4
3E2A273D
3A337204
3E082067
3D83ADBB
3D2A6E08
3D7F8EC9
BB9F616F
BDAE0425
3DBFA75A
BD820D9F
BD6074AF
3DC665C0
BCD6BCC5
BDB51CA8
3B718D07
BDBED696
BC3D7912
BC85C75A
3D5D2ECD
BDA2BB46
3B897EC2
3D4E76BB
BE8F55FD
3D3DB4DC
3C2DFA4F
3DA0EC86
BD9D8256
3D1C0F5D
3E8F6A7C
3E364693
BD5CA354
BDA549EF
3DB8709D
BD7835A4
3BF0FCA2
3DC9C2BE
BD56F1A4
3C44F37A
3BA0E582
3CC177A4
BC22C5D2
BD707BB1
3D85ECFA
BD77CCD0
3D80ADFF
3DB1D6F9
3BD926A7
BD823A2A
3D739261
3C547D7B
3DE03E7F
BD3BB3C0
3C0072A5
3D6F9EA4
BD3133A2
BB4FCE8E
3BB79F85
3E1DF853
BD3FB6C7
BD24A45A
BE0252AC
3D6A8A60
BD1459E7
BD625311
3D5A1D3D
BC35637A
3DAD5746
3D462FFB
BCC6E247
3DA0441A
3CD3384C
3E05A35D
3E171279
3EB0DB7B
BD378293
BD8A47E9
BD7DB4DF
BCBB44E5
3DA946D1
3CD2D5EB
3D45B13F
BE1E0C4D
BAD11CE9
3DC30B5F
3C8749D6
BAF9BBE6
BD8A2B9D
3DA18D8B
BC71D108
BD48C1D3
3E05A1DF
BADAA6CC
392C49C5
3D819750
BD6C0897
3D90FEB2
3B34E6C1
BDD29648
BDA3C07F
BDBAA63B
BCF2BE94
3DA04ADA
BDCE4C94
3D225BC0
BCE377C4
3CB01BAC
3C6FF607
3D7D1E8C
BC460CBF
3DB848EC
BD05BCA5
3C251B38
3D1915F9
3DD2D590
BDA4C4EC
BDAD524F
3D8B1890
BD2247E1
BD364051
3D0541BE
3D96A258
3DC3FB13
BD36527D
3D82AD9B
3D83569C
3C229A45
BDA0E6E4
3D21D3B0
BCA3E71B
3D8EA10C
BCD6A65A
BD08B72E
3CBAB2A9
BE1A6197
3CCE87BD
3D8E3009
BD68A25E
3D6F5441
3B579F86
BD9D6EFA
BD177EBA
3D931374
3D9E2738
3D8BCFD7
3D9CB955
BCB39A81
BD153C93
BCD73495
BBFE1DF9
BD5E5CD2
3CD3796A
3E2017E2
BD34B5B7
3D017C4F
BD2E9A2F
3E08B348
3DA79065
3C30B1D9
BD5C3BD0
BA8C87B0
3D754809
BD4785E1
BDE50863
3C162713
3D8390C9
3DACB4C6
BD90A593
BCA45CFC
BCC7E247
3DC93758
3D68FA70
BD279250
BC8458C5
BD1146F8
BDAA8C96
BBAC917D
3CC905B3
3C1F012C
3D40C1CF
BC5F5E95
3D4D94D1
BAF33C2B
3DAA7E82
3CF85F72
BCC4689A
3DBE792D
BD695A9A
BD69661B
396ABBB8
3D9B9F9F
3C85B073
BD63F141
BDE765D5
BD8EA418
3CB9166C
3D8F8A9F
BBAF51D2
3D8FC75F
BC803E5F
3CD0F35D
3D40C1BF
BC7F4AD9
BD40223A
BD857A6E
3D2E5C2E
3DBC64E2
BD03BAD0
BD24608A
BD1C8DE8
BD9F7E47
3CDD3C8C
3DA337A9
3D3F1DAA
BD73D3A2
BCB78761
3D1F0623
3C9FA918
3D20794A
3D07785D
3D374422
BD7DE96A
BD1BD41C
BA59AC90
BBA79495
3D2E4F03
BCB2ADD8
3D2E5426
BC68A281
BDAD3701
BD5960A4
BD54B4F6
BD9376F3
3CF878AD
BD7F8ABA
BD4145FE
BD47C376
3D35C1C9
BD107594
3D2EC4FF
3D4A737C
BDC105EC
3D9A81B0
3DA02D18
BD978B22
BC8B45E9
BDC35594
BD15E34F
BC8519E6
3D663231
BD306D79
BB841509
3D87D7B3
3C823F15
3D490CC1
3D8F929B
BD68CB2B
3DF0FA4C
3D77D745
3D0DA21D
BCF8F768
BD431E0A
3CC09C7D
BD4B9801
BCB15AD6
BD3E122F
3D17E00B
3D90AA2C
3DB2D5E8
3D392DD6
3D05F403
3C12B86D
3D847583
3CF55E71
BCA76B74
BC38B838
3DB0A7B4
3CF59070
BD96B83F
BCB9562D
3C369D96
3D9D766E
BD833332
BCF36BB3
3CDB2255
BC8D9752
3D85A92B
3D1BA545
BDA1E3B3
3D27DAF0
BCD6F4EF
3DA22696
BD837675
3C95ABBE
3D9A6AF9
3B95FBF8
BD87B1F2
BDB8A128
BD10AD7D
BD87E201
3D48AF5C
BD35F4F2
3CBBC090
BD66CA1C
BE015BDD
3D2137EE
BD54F657
BBF6EE6B
3D0FDC6C
BCC04E9A
3D2314C5
3DB67687
BD870AE4
3DAF7760
3D34C05C
BD82ADE5
3BFF9326
BCD308A6
BDAA2668
BD4F7B6B
BBFDD1EC
BD477F99
3D9345CB
BD8C20DD
3C9387A7
BD9E425F
BCD6B955
3AE26B9B
3D010C1C
3CDCF792
BDB91CC0
BDA28F14
3D9929BD
3D4717B1
3C04D8FC
3CC73325
3CDD396C
3D5B71CB
B9CA0CD7
BD99A5D0
BD6C240B
BD2A09AF
3C0DECE6
3D414DA8
BDDB4345
BD957303
BD895A2B
BC997F88
BD10B0CA
BD322076
3B62719C
BCBF484F
BDB664AD
3DA170DC
BD757D02
3D87B918
BDA7ACF0
BD83F142
BDA552E0
BDED3D35
BD515EF8
BDAD7EE0
3DAF9AB6
3D6DD5E9
3DA5951D
3D1B5D13
3D6E2A4D
BD8FBD42
3D14BF95
BD1D8AA0
BD1998B8
BC847DD4
BC0D6188
3D1CA238
3DF0B392
3D2FA173
3D02356A
3DAD18FB
3B963DCB
3D638DFF
3C9F19AB
BCA57911
3D6E9AA5
3C3792F4
BE4BA593
BD9AE1AF
BC83DE2C
3D9165C3
3CB363C0
3D1A4714
BD4305E7
BD4A9857
3D95C449
3B95D72D
3D8838BD
3CE86AA8
BE0C4688
3CBC8201
3DD908E6
3DCDCF61
BDC01EE0
BDA58E3C
3DBB40FE
BD68D23C
3BD05DD7
BC4E8CF6
3D872103
BDB94F1B
BCC542AA
BD01D9BC
3C08E39B
3DD0E57B
3D775490
BD2673F5
BE1A1BB4
BCAD5CE5
3CAAA20A
BCF14654
BD6D8A65
BD72501C
BDF5F0CD
3DB524E1
3E26B2A2
3DE0FB9B
3DADA73B
3D8BBB31
BC231C3A
BD7C6B4E
BE18302F
BE7B0256
3D3FFC2C
BD800271
BD977CEB
3E0CE17C
BDCABEC1
BE9AF5DC
3CBBA4E2
BCA717BC
3E0026A4
3D092858
BDDF8628
BDCED4A2
BDFC5ECE
3DEF91F4
BD526D68
3DC039E7
3C6196BE
3C8B7A32
BC771271
BE242239
3D83B0BA
BDB21E0E
BE114C30
BD1588F1
3DD5B5D2
3D6C604E
BE0F4CE1
3BBD7DF4
BDD10BDC
3D4FFA8C
3E5426AE
BDB70F4B
BD89F43C
BCB92BF1
BD45FBFB
BE1AE7AD
3BB1B60E
3CBA6A7A
3D55DF48
BCED1BBD
3D39A116
BDE5896A
BD5CA6AF
3DEDA72A
3D8A61BE
3C33ECEC
3BDBE1C0
BD759147
3DBC892D
BD8A757E
BA34E7B0
3D5E27A1
3D1D5D9C
BD1EAFD1
3C5EB166
BDA1050A
3C50121C
BD9C3DEC
BBDFB676
3DA2B958
BCB1D92B
3E31C48A
3DD91347
BCD97C83
3E091F34
BCBF4AD4
BE031283
BD09267D
BDA20ECD
3D9E5D87
3AA0BA75
3C18E3FE
3DAE0846
3BDB8331
3C8C1AEB
3C09FDD1
3E0BB858
BE14E9B7
3E0BC474
BCE865E5
3DAD017C
BCBDCDB6
3DD441C9
3DC940FB
BDC07F8B
3CB6EA98
BD384711
BD3DDB68
BC2B5935
3D82E583
BD1FA19E
3D01DEF3
BC7293C6
BC1B18D5
3D5BE4F3
3C3B94D7
BD2F6C1C
BC7666C4
3D9229AA
BD57C513
3DA9F4BE
3DAAF3F5
BAA81CAE
BB885CE8
3D4AE836
BD75094C
3D248C6F
BD389DEE
3D923CA6
3DAF9B87
3B8E7C38
3BE78A55
39FC8FA5
BCD07A9C
BD6C382D
3AFC8EC3
3C11DEAD
3DE0C910
BCBDB929
3D9E887B
BDB5F0CF
3DE3081B
3D5BED6C
BBAD832E
BD8C9370
BD33E535
BE122A04
3D70752E
3D414659
BD9CA9D4
3C056281
3D065C40
BCDCAE9D
BCA06622
BD2BB560
3D07314D
BCE74066
BD9567D8
BDA2965B
3D2E82C5
BB1F82F9
3D9B57E0
3D035E24
3DB9DBC3
BD904A61
3C260538
BD8FFD4B
3DA11F9A
3C0991DA
BCFA1DBE
B9FB904F
BDA715A1
3CA9E592
3D2E6198
3C905456
BDD48F03
BD346954
3CA51808
3D6BF170
BCE4CA34
3D2D6FA5
3D79A25B
3D771A6B
BDD8B454
BD3610E3
3D81E970
BD9DD701
3DA17EF2
3C8F3A80
398DB680
BCF7AD8C
3C00CB16
3D428EB8
3D51FE4A
BC624087
3B9AC295
3CA7D861
3D573797
BCE3FB1C
BD9455B7
BD230B7E
BCABAC21
3D91AA5B
3D9C12A1
BBBD14D4
3D2244A6
BDA3DFE8
BB8DC22F
BDC2A70D
BD530647
3D09298D
3B18D238
3D843FB1
BD8F2C85
BD9A066F
3C3A8E67
3BF01F0C
BD70738B
BC95DAA3
3D6C01EC
BCB23A45
BDA8BC3F
3D822F5A
3D4628AE
BCCDB637
3D20CC05
3DAB00CE
BCA470F9
3C29D9F9
3D71CAC3
BE0FDC4C
3D82B7CC
BCD0C037
3CCC50BC
3BF6657E
3D83732B
BE9195A1
3E8C31F7
3CE5BD69
BE83301B
BE689D86
3DAE17C0
3D3F21D7
BDCA2BBC
3E0417EC
3CDCEA67
3E0001E3
3D1F56A5
BE40D18F
BE3C19F0
BE0AC11D
3D1013CC
3D550477
BD365ED4
BCF7DDAD
BD6B2C9F
BDFAD5E7
3D934706
3CE850AC
3DEFCA1A
3CDCB4CC
3E31699A
3CE560DD
3E253CBC
3E083A03
3DAFEBE2
3E003904
BDEC10D8
BDE2075C
3E04D6FF
3C5EB6C5
3E466666
3E11F370
BD2ACD18
BD52A4C0
BC86D516
BBDFB7E5
BE359E76
BEBFDBAE
BD9B6183
BD80E8C7
3D56D3B7
3D24B1D1
3C47D9F4
3B00BE4E
3DC3907B
BD939AD7
BAE6E0C2
BD7BFC5D
BE05D5E8
3DDC9801
3E9635D3
3C9B09E2
3DD73BBC
BE26BDD3
BD96F92F
3BFF8B8F
3CE64CB0
3D944C0A
BD3DBD3D
3DFDA024
BE3A09A4
3D5852AD
3DD0D662
BA805BBF
3DAD51D4
3DA6B89E
3CB8EF8B
BDA384E6
BD6C0C45
BDEC3D76
BE032709
3E7F85DE
BCEABE7A
3E7BE370
BDDB2167
BCE7E191
3E7ED967
3C35DB79
BC3E8F72
BD8D33E9
3DE900E0
BE09B8D2
3E6A5C3E
BDD3D5AD
BDA59ADC
3E06D86F
BDC51B8C
3B8E3B26
3E09DCD0
3D708A9C
BD4985C5
3DBFECA3
3E3B2FA9
BDEC9181
3DB2458C
3D7030A7
BE14260D
3DADF387
BD634FC9
3D02FA53
3AFEBAED
3DC65296
3D9C3450
3DB63B4E
3CD131DC
BCF6C442
BDDAC6DB
BE98F224
BC954A2F
BDA4A773
BD395C02
3D78C4F6
BDC452AF
3CC236A7
3DC54E07
BE02079F
3E33096A
BDCEE101
BDB2F7E3
BDB87BBF
3DF2A546
BE232D90
BD6B1F1D
BE297A5A
BC3DB44B
BDC3F8F9
3C30E77E
BE35B354
3D821DA2
BD36607F
BD8B96AA
BE139C6D
BD5A9ED2
BD723A52
3D33A82B
3CB3DDF3
BD93E222
3C894F3F
3C65E09A
BC4B49AA
BDEFC9A2
BD82E9C2
3D013641
BDC90A49
BD956025
3D3D1D17
BB521F88
BCBD7D13
BC944715
BC366887
BD47E99C
BD8F37D8
3D96E053
3D58BA71
BDA8EC05
3D794549
BCF653AF
BC89EDEA
BD95AD36
3C5B53CE
BE01842F
3D0431AE
3DD3F390
BD9294FB
3D510424
BDD41B18
3CD83D2E
BDA5377B
3DE6E499
3DC4AD56
3D219475
3CD7841B
BB3F1A88
3D8F8F55
BD4B8F4B
BD0B3E1F
BD970918
BD8E4DFF
BDB6FEF4
3C4A8575
3DB25E21
3E05115A
BD9987D2
BBFC34C0
3D45C4E6
3E3A79BC
3C56EC76
BD79A296
3D75C70F
3D2380C9
3D64F301
BD3E189D
3D614D42
3D574D6C
3D3A87EE
3D86E088
3D313242
BD9F5593
BD2C6556
3D8776AA
3D2D9775
3D6C20E5
BCC77773
3DB9EFF9
3B084B8F
BD0267BF
3D01B2C5
BD4B7AC8
3C4D4CC5
BD2C578F
3C899E5A
3D8D3EE8
BC7CE188
3D32761A
3CFEF6FC
3D945C4E
3D7FC971
3DBA3EF7
BD8D7B6F
BD87A546
3D91A211
BE242DA0
BD772E07
3C27FB5C
BC8D8D8D
BE948953
3CA6769C
BD5F23A4
3D846E02
BD55C26F
3B30D36E
BD94AAE1
3B8200C3
BD6E10BA
BD5159FA
BB113B67
BDDF8F2C
3CFF8079
3DB3C75C
3CB8B980
3D36026B
BBF79BC5
BD74C4DE
3DCC59D3
BD99E0B6
BD68DBE4
3C9C81F7
BD894C92
3DA786AB
BCECFEFC
BD32E49F
BD9DA5F8
BD94A565
3D14A8BF
3DCC085C
BD29F319
3D034542
BD3B755C
3DA65DAA
BD6362F4
3D80B4EF
BDE632CF
3E2566D6
3E856293
3EA43AF1
BE8296D5
3BB38CCC
BC97D9E6
3DD06A2B
BC49A4BA
3BEF9338
BE387DAC
3C6D3FFF
3E3F98B7
3DCA09D3
3DF1D771
BCD232B8
BD9A4AF6
3D8B6A86
3D5AAB1F
3DCDCC21
BCF188E4
BD6C5AF5
3C9FCC9F
BC07A1E2
BCFF2575
BDE1A12D
BD580C46
BDF6589C
BD70A13B
3D0C49C5
BDD90F08
3D53A102
BD3926E0
BBA02CC4
BE6DB0E4
BDC01E32
3E1426C9
3DE1CDCB
BE86C478
3D0CF557
BDE4D629
3B854C29
BDD74F57
BC7D1778
3D6B6B6E
BD14F5EB
BDDE1544
BB33BA5B
BDCFC647
BE5D6056
3E0F58F6
BD9ABF96
3D4DA669
3E00DBC1
BDB0EF27
BCC84B33
3C8EF8D1
BD3224AB
3D6A0186
BDEF128D
BCDC27C9
BE0B9842
BE3D0D43
3D3CEF31
BDE49B3B
3D8685DD
B80EF21F
3BE43929
3D8E46B8
BE3C183C
3E305646
3D1752AA
BE608D02
BD434A3F
BC6857CD
3D940F2A
BD5346F5
3D2BEDE2
BC3FAFB9
3E01156D
3E53A4BC
BC707D36
3D9FD7D7
BC205A0D
BD83BF2F
BDA677A8
3D1D7F47
BE53D414
3BC68A75
3DA46100
BD6AAA18
3E18A493
BD22F8E6
3E7DA570
BD7E19D4
3DD5593B
BDBB2CC7
3E1A336D
3DC54501
BD663F4F
3CECE77A
BD2214B5
BD8CB60C
BD03E1B4
BCE257D4
BD7B2783
BD924C04
BDA4DB7E
BDCA6146
BB8797E0
3E3225BE
3E3A26C4
3DF91171
BCBDD8D4
3DF3879C
3CEA0044
BD05F113
3DFEEF94
BDB256BF
3E0EB9D7
3E003390
BE3F8310
BC47FA4A
3D891BC7
3D879FF6
BE115D8B
3C77313A
BD7DAE19
3DCBA254
BDC19786
3D28FA4D
BCCF9285
3E12F7BF
3D9C1FE0
BCB916C8
BCB3DC00
3CDFFC5A
BE7A1364
BDAE5D8E
3DC9F3E2
BD059157
BC1C2A61
3CD3AE0D
3D9DCB64
3DE41836
3AD169C8
3D8D7D86
BD591B07
BD550CA7
3D606CED
BA854408
BBCFFEC2
BDA42404
BC77C823
BCC41965
BD706B4D
BDD3EC61
BCB11958
3D31D400
3D27CA7F
3DB53916
BCB58491
BD705F61
3D3DF188
3DD0AD3A
3D0EB0F6
3D49A36D
3D47C8CC
3CB136E4
BD336AB9
BC7678E3
3CF408CC
3DEF2064
BC9534BB
BB9FAEB2
3BC98D45
BD8814C4
BC81EB07
3C60C39A
3D586DF0
3DBB4DE6
BC866936
BD15D969
BE053E9F
3C2E4F3E
3D75E179
3A428997
BC5154E7
BDA0F2B1
BD0328BF
BCC64FFB
BDD7C4E3
B9B53712
BDA19D2E
3C8063DE
3C94D23A
3C043D7F
3D0C9BF5
3D8A8B54
3BA35CD4
3D174B53
3D61409A
BDA4D604
3D104781
BD67A6CB
3C485AE3
BD7EE06B
BD7B4253
3D6E1ECC
BCFDF7A8
BC092E63
3DC4E309
BCB430CF
BD835B5A
39E7EDB5
3D8594F1
3BB9B31B
BCB0338A
BD41E8CB
BDB86FEF
BB462770
3CF732E7
BDA3D5D6
3CE9911E
3D58BBA3
BDD0144A
3D06C498
BDA7B658
BBD868E9
BCD53E96
3D908522
3A7A427A
3DA3E4CF
3C1D3C03
3CF993E0
BCCA992B
BD50847A
3C8C217C
BDDA2D66
BD3A37CF
3D812D8F
BD91CD8B
3D729F8D
BD05D445
BD561863
BE185943
BDAD25A8
3D548296
BD572EBE
BD9063D8
BD9958F9
BD258A6E
BDBD8881
3D865279
3DB35797
3BB25FB5
BD75B5AF
3B9FF2B7
3D76A84B
BD5CE500
BE080D3D
BBEF1C5E
3D970DDA
BD034420
BC855092
3C768542
3E599814
3E2842E6
BE3768C5
3E1C7F3B
BDD8BBB9
BDB3E474
BE919593
3D85F683
BE4C726A
3DC0B1C5
3DC479B1
BE879526
3E38CFA5
3D9B6A52
3E55CEC7
BE52DAD5
BD83B6E1
3E3A4456
3E850CBD
3E7E1F0B
3DF47BC5
BE354DB9
BE49AE63
3DA66747
BE7C50CE
BD211B36
BE8269B1
BE885404
BE573776
BE29B98E
BE439149
3DBB948A
BDDBC8DC
BE30854D
3E7811E1
BE667A82
3E331338
BE0990D8
3E7E7E77
BDBE14F0
3D8351FC
3EC16B52
BF29960B
BEC3190A
3EA8E494
3E806B02
BE8EBF77
BE2995B8
3E8C93FE
3E5BF657
3DE8F10B
BD58AE95
3D8B2A3B
3EB0DC01
BE6D9BF2
BCCBBCD7
BDCB89DD
3AA9363C
3E3A1C84
BE95D247
BDB4E261
BE3069D4
BDF86B16
3DC92456
BE281A5F
3EA1FDF0
3E06CB03
BE4BCAC6
BE2C01C5
BEB2426C
BDF1762F
BDD39CE5
3DA33665
3E1984D7
3E7227E4
3E1242A8
3EC561F6
3DA6C3A2
BE9C460F
3ED54C5F
BEBAA770
BE38110A
BDE2AC0A
3E493096
BD45B968
BE759CC2
3E278D78
BE9D7FCE
3E8D26F4
3D925D1F
BE6CAA0A
BE3B59B5
3DCBD2CC
3E62D16C
3B457FAB
3E0E3828
BE31D587
BEE7F1B0
3E583D36
BEDAA730
BE02CE1E
BDFE0C83
BE690EE6
3BE46EB0
BA350907
3E08C4B0
BDBA04E5
BE2F8A8F
BD7B2FFA
3E66C1E3
3E88B57F
3D99BA65
BDE092F5
BD816A81
3E1405A6
3E5CC58A
BE256693
3E31CE22
3D77249A
3CEEFEAB
3DBD29B7
BE6D731B
BE24CADC
BD83AE5A
3DEC1C7B
BCB6B213
3ECA45F9
3D48BBC6
3EC0F0C1
BDF7FEDF
3E0834D9
3BAA8056
3E9D5D16
3D338FDD
BE1D5114
BE408A05
3DA23826
BDE6A6AD
3CDA7B51
BD602CAB
3CAE50A6
3D8A568B
BD6330AF
3D833DDF
3D8958D2
3B902AF3
BC84B10F
BD56F9E2
3D2B03FA
3CEB5421
3D05A23B
3C45C18B
BAA83F2C
BD5A751C
3CA0FB98
3DA52586
BCF89ECD
3CBCBCD5
3DC67EED
BD9146C5
BCF1AB54
BD10CC28
3CE7F1EC
BA6FA63D
3B502AB2
BD3E5FDA
3C038A05
3C4A23A5
BC72FCAD
3D9B6509
3D5D6E18
BD8D41AE
BB521D73
3BBF451A
3D3D1C89
BE19D119
3D94DD6A
BCC4130F
3D8BB415
BC7DDD10
3D5AC777
3D893672
BE274FC9
BD0D26E7
3CCF020C
BD0EBE8A
BD867F90
BCE75F9B
BD48802F
3CFB5ABF
BD501712
BDAC2090
BDBCAB5A
3D0F477B
BD94DFF2
3D7EB306
3A5A1849
3DF1FCE0
3C36EAEE
3CC4D78B
BD87F22E
3C0B9F3B
BCDEAAD0
BDCBADA3
3C9D2E03
BABF64FD
BDBD13E9
BDD8E1FF
BDC6EBAB
3E033C6D
3DF33EA1
3DA99F6B
BD95F818
BCF0955F
3D1A5335
3C6849E1
BD18652C
BD6830A1
3D787460
BDB32E71
3CD3278A
BDE1863A
BD510320
3D7B10A2
BD1569EA
BCE32D0B
3DE0B39F
3D3A1B57
3D564264
BC3E27B9
BD00BE13
BC85AFFD
3DD8398A
3CB31678
BD8AD719
BDA91846
3D8C2E8D
3D362693
3D6DC736
BD0720AE
3DB2277C
BC845357
3CDE627C
3A83F5B2
39141731
3C607F31
BD138263
3C877677
BDA5A255
BC92D0B2
3CF42820
BC1DEB48
BCD5F3C2
BD2B48E4
3CA75473
BDB5516B
BCFB1C61
BC931CBD
3AE5BDA3
BD7AD24E
BDA0A764
BD94A9C0
BBD00784
BD4B6366
BC8EACA6
3D79B33D
3DB16BCA
BCFF9B5C
3D58D88C
BDDCFCE1
3D488954
3D0CD54B
3DB5A73B
BD8BDFCA
3DA5128E
3C6059B2
3DA9121A
BC07F63C
BD80E81C
3C073BC0
BDAE4804
BC8FB483
BD53A0C7
3CCD21F2
BD8B6C55
BD4CD2C2
BDA75238
3D13E703
BD03AD41
3C948604
BD47D4BE
3DCC784C
3D04982D
BD8DA15B
3D273A9C
BD74602A
3D928B6A
3DA93AFD
3D823964
BC72BDC2
BDC2E930
3D9CF924
3D8CFCDD
3D248581
3C18C2B6
3D204D42
3DC4C5EB
BDAD3053
BC408185
3D390BE0
3D917B3E
3D94AF3A
BDA20E25
3D717B70
BDD241DF
BE07E784
3D1FB994
3BA276BE
3D9FBCD9
BDC0A521
BCD3ADC2
BD032490
3D75885D
BD93F1CE
BD6D2799
3D7ECB98
BCE9A7A4
BDC1E437
BDC36536
3D9BF2DD
3D7CF0C1
BC20C2CD
3D20F152
3DACC7FB
BB63CE7A
3CF3E9E7
3D98F1B2
BD82CDB9
BC8B7D2C
BB91F309
BAD85CDF
3D92973B
BD6B4D23
BC90366E
3C364D9A
3C087D5C
BC962B90
BCCD8AB2
3B3A727E
BD858B64
3DB5CAAE
BD160AC9
BD59B2BF
3D970A6E
BCAF000E
BBB886FD
BCF3FA94
3D1258F6
3B4335D7
3DAEFBC0
3CCB2563
3D5A7C2D
BD83263B
BD6BD945
3D07A090
BD215EF5
BD7B0AE3
3DFCE4B5
BCC239A1
BD8DB038
BD1DE75F
BADFEF8C
BC27CA8A
BD2BE432
BD7FCB3A
3CDB077D
3CAF08B7
3C84ACB3
BDADDD1D
3CD1B118
3CB96308
3D948D75
3CCB330A
3CE7AB35
3D54BDA2
3D2A0EBF
3D69AB1F
BCDC5E40
3D3C119C
BD91992C
3D583CD0
3A99C3F2
BD663503
3C3E3397
BBBC0AB1
3CAEE8C1
BD685DCA
3DA3283F
BC70D54A
3DA4D431
BE81649C
3CEE60F7
3C665D42
BD3F931B
BDAAB162
3DA08397
3D38DFB0
3E2AD8D7
BDC2E069
3DCC1B0D
3CA4964D
BD97EB65
3DC21BE9
3D5A27DF
BD862314
3E2AE95B
BC56E2FB
3C8F9514
3C9DB5B3
3D969093
3DDCF3B4
3DFB47D5
BDA1A8BB
3D463B63
BC673F3F
BDF29711
3D23F949
3D6105D7
BDFB2E17
BE678C58
3D94C502
BDE77AB3
3C9DA679
3DCC474C
BD1928E1
BDA5BD6D
BD49DF42
3DA0CE97
3CC4138B
3E23E40B
BDCA4677
BEB6A642
BE305FFF
3D4B33DE
3DC981A1
3D8A0EE7
BD3A9CFC
3E56609B
BB64B2F7
3DF02031
BD27C6C3
3D413DD3
BDC11FB5
3CC2229A
3CCDDFA7
BDA376FF
39471C8A
3D8916AB
BDC28E52
3D81E24E
BC86DFAE
3D995AC5
BCBB3423
3CFA1880
BD1A4246
3DF704A1
BD2E12F8
3CB8F8DA
3E81CB40
3DB4BF7C
BD30B5C3
38EBB77C
BDD350D3
BDB60408
3D9B1D50
BDA0F9BD
3993F9F2
BD4F1455
BD8E4F14
BE6C5F47
BE229CB4
BDE2B819
BDACC4FE
3CA60D76
3D144B69
BB1B65AA
BD6CE90C
BB09814D
3C8B44D2
BD665636
3E1BC1DC
3CD4F565
3E39979C
3D95DB87
BD0DF569
BD0116F7
BE239735
3DCF11EC
3DDA1BFE
3D627C2E
BE146116
3D0965D8
BA9B740F
BE6B3999
BDB6C7DD
3E1B42BF
BCEC3B98
3DD35CE2
3D8D334C
3E2C5A7B
BD29860E
BD9396CA
3D38E16B
3D4168CE
3DD05052
3DD094B0
BE132F23
3C7255FE
BD4D7A41
BD64C37C
BD5759DC
BE807893
BD718264
B732124F
BAC07A50
BDE58213
3BA8C19E
BD7C0ADB
BE0C9328
3B607CE9
BD9C873A
BC54CABD
3D192C47
3BBFF42C
3D052155
3DB46598
BD817059
BDAC0402
BD937826
3D9B8614
BD866B90
BD192776
3D843F08
3D17402E
BCD37268
3D9D55A8
BDB5841D
BD49982F
3CF7F2D6
3DAFFD17
3D8AB1A7
3D8E8CCB
BDFE721E
BD1FBE97
3B56B05D
BDF469FF
3D906B45
3CDA11DA
BB3B24BC
3D4EDA76
3CC73AB7
3CB0BFC6
3D10C77E
BD33B86C
3B7FE7CF
BCCFD18F
BD467AD1
BDA5A005
3CB6CB79
BDA3A83B
3BFFEDC1
3D937ED7
3DAE7E51
3DC4958E
3DE9EE96
3D05703F
BCACFA3F
BBE73534
BD6CDB9E
3D95E18C
BD08FA45
BD88E900
BD5ACEE3
3CAC00BA
3DA0728F
3D3B4AEF
3B8AAD9D
BD273665
BCFF3E34
BDC64629
3CB7FD07
BCC17D89
3CBA2A13
BDB0D847
3CB8AAEC
BA4FA79E
3D93DDCC
BCD474C7
3D88E6D3
3CA4366B
BCD5BB48
BD8911B2
BC6C56E1
3CB4F24B
BC9EDEA8
3DA5472F
BD8E0413
3D967F83
BD8D405A
3C9EC167
3D8CEF36
3B702632
BCEDEC42
3D5DFEB3
3D1D403D
BD4D9798
BCBD93BF
BD46BA9C
BD85241D
3D1732B7
BD060AC9
3CE0CE5C
3D88605F
BD9EB55C
BDC4E817
BDC985D6
3B06A441
3D538E07
BD4A7BB4
BDF10C1F
BD8570EC
3CA21066
3D84A8EA
3DD75198
BD986285
BD3924F5
BD91DD34
3C1B8160
3CEA034F
BD11D3CD
BCC9D7A0
3D7F9747
3DD4BD4F
3CE6797C
3C21D5B1
3CEBE1CB
3DC9A877
3D08852F
BD8F0B2A
3D6B8F1A
3DADB605
BB23EC88
3D5DFA77
BDAD88AC
3DA03D02
3D2141BF
BB15C028
3D2A6209
BD47624A
BD850941
BD8BD4FD
BD4EE97A
BC6B8E4E
3AFA8E48
3CAA70CD
3E3098B3
BB92301F
BCBA3632
BD95CB47
BD268ECD
BD57E8E0
BC25107B
BC3B84FC
3D79F519
BCB214E0
3CE8BCE3
3DD187F5
BC405CC7
3D204E29
3CBD4DAE
BD1A3BC9
3D9A992B
BD6750E2
BD917E3E
3D602851
BD9F1B0E
3D8272F6
3CACF12A
3C2D84FE
BD13E0C3
BD3CA448
BD8E818C
3C945F73
3B92A592
3B88E369
BD8359E6
3BA57AE4
3D3782DE
BD3E5DD7
3C81D944
BD13CF38
3D16745E
3CABDA64
BC8D39AA
3D615D6D
3DEA2489
BD8EA945
BC261BF3
BC07BA5C
BDCFA963
3C8E91D4
BDBDF235
BD83A5E1
BD2D5FCF
BE0EE5AC
BC5409F8
3D7FCFEF
BC23158A
3C8D2EB2
3DB63728
BDEE2831
3DA51D10
BE02E488
3CA63C6A
3D9D49AF
BC2367F2
BCFD89A3
3C7246A4
3D277F8E
BAAA2E70
BDA9F1B8
3D5E65CF
BD16F337
3D9AE71E
BD88DAFD
BCEC6B3E
BD42A0D7
3D195445
BDCBAB90
BD87FA3C
3DA8A76A
BD9EDB62
3D20D652
3D521C80
BDD090B4
BD06FB77
3BBCAC9B
BD901FA9
3D6CA304
BD736817
3D3E2329
3D9159CF
3C35055B
3DA6EB3A
BAEA19A0
3D2C45F7
3D1FC56D
3DC866F8
3D6E4832
BBE24F42
BD156B34
3D2322B5
3CF87C63
BCC084FB
3D59559A
BD11F8D1
3D981B20
BD637548
3D517CB2
3BBB8111
BD150477
3C7B4668
3DB26E00
3DF3012F
3D956D08
BCE1C2BE
BD66B701
BDEE30D8
3D83F34A
3D8F6B8E
3D0F5AC9
BD0402A1
3D8BE2DC
BD37E1D9
3C88C1E6
BDACF1AA
3D9366C6
3D79BF8A
3DA89BC3
3D9C745C
3D197201
BD5DF391
BE4F51A6
3C8E62F5
BD7111C3
3A3EF2F3
3D7112E8
BDBACDD0
3E039757
BD8D0898
BC2299FE
BD8DAA92
BC43F1FD
BDBC5F0E
BDA7ABEE
3DBB9A77
BD71A71A
3D28ECD6
BDA51ABE
3D2461CF
3D006B8B
3DB4D892
BD812E92
BD8BB150
B9E0C2A1
3D8C2610
3DB5E47B
3CCAEB26
BD05751F
3C108602
3B9E0338
3D66CA27
3CEEFB1B
BC557B72
3D859B5B
BD113C6B
BD4C5D89
BD66E93E
BD97C457
BD7F6086
3D182DD9
3D675BFF
3D974E89
BDDB83F7
3D7BE0CC
BD57DACB
3DCB7B08
3D904900
BD024699
3C85782F
3DA90430
BD94874E
3DC493C1
BD997995
BDE7C831
3D8B0A45
BCFAC1A2
BE373981
BD044FA3
3AB6DBB0
BD95BBDF
3D05EF50
3D36CFEB
BE3D3F33
BD53FD3B
3CCCABC0
3B62BAA4
BD8FF2CE
3C81FC39
BD05D4E9
BD7C2F05
3D97D87D
BDC5F6B6
3DD84B50
3C4603A5
BDA2695C
BDA886A4
BC08D7D9
3B8CE787
BD30B2E0
BD1B991B
BD7651AB
BD315F41
3DAC8F49
BD9C76DD
3CB77E77
3D3194D8
BD5A6AD5
3D4A756F
3D3B8F6D
BA2F4B82
3D97A6E8
3DB37829
BDCBECBB
BD3DD38D
BD717503
3CA650ED
BD199181
BC15A835
3D771F0B
BD9F62D6
3DC33834
BD2D292E
BD2DFC22
BD88A94A
BD9B51E2
3CE776AC
3C4ADE35
BD8FF1BB
3DEAD561
BD9DA0CA
BD8A95F6
BD836300
BDD725D1
BD90EAC7
BDC54809
3D3EBE39
BD0EC154
BD3E8AC5
3E12123D
3D87C6D4
BD9B90B8
3D8D9F87
3D344A4A
BD428E98
3DD6B46A
BD25E89D
3D58C937
3C8D2A55
3BB3D524
3DD2EBA2
3DB77277
BCF54379
3CE5405C
BD141CD3
BE0BC8C8
BD27F5E8
3C13E62F
3D86B469
BD6DD167
BD21E576
3D9F12A8
BD8E8E7B
BCDAAB82
3D5A2D4D
3C8D4370
3BFBA037
BDB86390
BCCE57A1
BD2EDE4D
3CF17A51
3DD8A7BF
3CB2AB0E
BDBCD148
BD41F901
BCA6B1F6
3CE1A28D
3D899F6B
3D863C53
3D782291
BD78635E
BDB357D0
3C10F4F5
3D372858
BAD88398
3D89D14E
BCAF974D
B980F11B
39D9A065
BD8313E9
BD59F46D
3D6B0B21
BCD9524C
BD556580
3DC6F092
3DCE2A3D
BDB30D4D
BCE45524
3D332653
3B50065B
BD6B2F7C
3D947E63
3C82004B
3D9F921D
3D7DAAB6
BD9FA355
3D291A4E
BC8190BF
3D8FBE92
3CC20A11
3DD0DFA9
3D149985
BCAED078
3C8FE921
BC4AD937
3C558EB3
BDAE4F58
BD353125
BB73E4CC
3D0A2947
3DDD666B
BCF30DEF
BD9DA0E7
3D292CE0
BD82450F
3D979D6E
3D439546
3D0AA4AC
BD6438BF
3C89DC72
BDBB42A3
3D44C509
3D51D3AD
BD50FD46
BCB1B66C
BD7A4246
BCF5F9B7
BD95EEAB
BBB69980
BD61944D
3D61697C
3CBB1D12
BDAE278B
3DA1782D
3CC0A816
3D4FEBBB
3DC3C0CE
3D7CFCDB
3E0344BD
3D1E9C1D
BD37C2BF
BD9088BF
BDE96F9B
3D536616
BDB78290
BDB80DC9
BD27B178
3D6BE0F4
3BF3FE8E
BD61C82F
3D249CBD
BB8E9006
3D5F8224
BD9DE6AE
BC99B487
3C941414
BD302EDF
BBAB5BA6
BDACE76C
BCA3857B
3B93801A
3D2455B5
3D90751A
3BE9568E
3D17DCBE
3D926602
BC6DDBBB
3C9FD852
BD8614D3
3D0CEBC1
BDAC38AC
3D49FFF9
BD8D7EDA
3D01AB4E
3CE05A5E
BD8AD57A
BD347392
3D9B0DEF
3CAB5209
3BCC99CE
BA063CEA
3D9DAA98
3D23B77D
BD720A16
BCBD4D5E
BD4286DE
BD62491E
BD75D575
BDA732EF
BD3416AB
BD968EC7
3BAD3F11
3DB897C8
BD997213
3DA0CF7D
BBB7593D
3D6442EB
3D289588
BD9BE0FE
3D9DB020
BBBC513D
3D7A4279
BD7A000E
3D02C2B8
BDC54E89
3D4722E7
BD9FA164
BC151588
3DACA898
3BBC0C92
3CD9779B
BBBD2864
3C96B162
3C86136A
BD5BD211
BD2B0961
BC2E18ED
BCC9E15B
3D38F991
BD63FAA6
BD37A771
BDDD7FD8
3D9CC298
3CC30B73
3E11287C
BC2A8ED5
3E94F3C5
3DA44088
3D87B75D
3D844454
3D92C328
3D847E0B
BC5D765D
BD881AF4
3D195E6E
BCD83E05
3C02C925
BDC1175D
3D3A4BC3
BDD03E9A
BD69858D
BDEC689C
3D0C54CD
BD32FC7C
3D257624
BD4D0A98
BDBD6F54
3D34D458
3CCC464F
3D85E1FC
3DAA74A6
BD81D7D0
3D9748A9
BDC97296
BD7CE178
BD53920B
BDC0A41E
BC03C862
BD57AD1B
3C26295F
BCD5C5CA
3D576C63
3D5EFAE2
BDC9DDFD
BDAA31AF
3CFD7C27
3D93515F
3D83896F
3DA7FE36
BD837B90
BD683246
3E0B7A66
BD9A3B9A
BD731EAE
3CD5FB2A
3DA1FCD5
BD0EECEB
BDAB4E46
3D1FB113
BBF43BC9
3D826EE0
3BD48AE1
3D4038E3
3B9F7C16
3DB26132
3D776DAD
BD86D380
3D7CFFD3
BCEED7F5
BB368E8C
3D3BB81A
3D0CEE96
3C60C898
3D5E41ED
3C400FBB
3DC014B6
3D46D381
3D20D250
3CF546BF
3D2FCCA4
BD8C36CD
3D8CCA96
3DA510FE
3D8477D3
BCD0526E
3D4B6B69
BCCEF44F
3C59DE2D
3B66443A
BCF16786
3BF44304
BD0BE4A3
BDB58EF2
BC8FB94B
BD73F0D3
3B71478D
3D2657DE
3CF6B717
BD2D7546
BC377DD0
BD7EE281
BE051B3C
3B71CC1C
BD26000A
3CAB23D5
BD9F73FA
3A9E9C49
3DAC9118
BD63C0ED
3CE69D33
BD565FCB
BD261CDA
BC814CF7
BCE36A58
3D134049
BC11C9EE
BCBB8CA3
3CBD21F4
BD265FC3
3D6E04B6
3D6F8452
BD4EF096
BD6C8A6D
BC93F9B7
BCA94DBC
3DB12C90
BC8C365A
3D80DE29
BDA0D3AA
BD4C7D24
3D7DD962
BC29E247
BDAA146B
3D25773B
3C90E15F
3D5367F7
3BF759B8
BC81A6E4
BD6E6D69
BE411FAD
BD8CBAEF
BD8FE7F9
BDC15F6F
BBE3CCF3
BB32E42E
BD9824C3
BD0CD1D5
BD11B49E
3C88AB9B
BD807C5A
BDA27FD6
3D49233A
3C475C35
3C23DEA2
BE3DDF8E
BDB781E1
BD8A9F6D
3D8C519E
BBCE436B
BD3BE7C5
3D1CA644
BD19BA46
3D0B48AB
3C062B96
3D85B9F6
BD9CD606
BDFD76FC
3D32B3BF
3D6F6EA8
BD3E7B20
3D573990
BC34363D
3DAF40AD
BD9EC0F3
BCD6F017
BCAA0AA0
BD96F3AA
BDB20D31
BD215479
BDC098DD
3BD2E729
BD4CFF12
BD2EC9C2
3D1B29D5
3D2F33B5
3B50E87F
3D6BF2DA
3DA9D7FF
BD36EC8B
BD4FF46F
3DFE03A6
BC6327D8
3CAD73E1
BC4158FB
BCA74854
3B1EE316
BD9420F0
BB1FF7BE
BC89638C
BDC87BBF
3D8B3017
3D0A0BD2
3C88281D
3D969E53
BD8AF62A
BC61B6DF
3D8437D6
BDB95622
3D8EA247
BD7A77CE
3B681C74
BD767238
BCC2E9EA
BD8B5EFC
BD9345A8
BD331F92
BD3E33C8
3D7DC497
BD2B18AA
3DC4F954
BCEBE714
BD4843F4
BBC0D56A
BDB5921C
BDD88A20
BDBAF57A
BD52B498
3D1A074D
3D9CEE7A
BD7F29B9
3DD27C97
BE134DB4
3D5BCD4B
3C49D8A7
3F0DEA66
BDA1A6CF
BE229861
3D0FE500
BD07A3EE
3D4E8C2F
BE8D4570
BEAEC794
3C5975E8
3D35FD70
3E1D93D9
BE053FA5
3E2598B9
3D90ADE5
3E32C698
3E21650A
3E375756
BE3615F9
3E9416A3
BE440C3B
BD0C6310
BCAC9788
BE4ED494
BE79F9DC
BE5C5D20
BE9EBE53
BE4BF98A
BD8DDFF1
3CB9B33A
BDBAB6B9
BD519D41
BE87D114
BDCDB86A
3E86A34C
BDC52791
BD9DCF5C
BE583CD8
3EC4EFA7
BE795AD1
3D1F24AE
3E4F9958
3E55E84F
BE77BCF2
BE31A5C3
3DEA2DF9
BE6B6A25
3E72E361
BDF6AFA5
3EB2E390
3ECB466E
BE0F8855
3E0328DF
3C8687F4
BE16E4E9
3E42D5F5
BD52B5CA
BD1F34B9
BDEE5F3E
BCD1DCC2
3E9243FB
BE27770E
3E74574F
3D55B84B
BDDF8529
BC90DD48
BE663B25
3E75E163
3DAC2301
BE4B76AD
BD85A1F8
3E34A094
3E815872
3D64463E
3DC3C597
BE8D0820
3E3159E6
3D584B8E
BCE0B44B
BE076E10
BB43DBD6
BBD795A6
BC8757F9
3E121E2B
BE2C7C88
3E9E89C0
3BC0342B
BDAAB989
3DA094D0
3E895DDF
3EA6F0A8
3CF202E7
3D931340
BEA393E8
3E95C468
3DE20A4C
BE8E35C6
BD943281
BDA39056
3C29FF4D
3D6D7023
BE74495C
BE028043
3D316C8F
BD9D5F40
BCB5BF1F
3DFA15C0
3EA63568
3E5BF1AD
3D906CB5
3E04EA36
BD1B7B69
3E312C64
3B4FE039
3DE2BC08
3DE780C8
3B586D36
3E613540
BDA3DEC3
BEB4520A
BD856C05
3E810939
BDC6D00A
3E9752AC
BEF56EA2
3E866047
3DAB074A
3DB30DEA
3E089495
3E39BA43
BE154215
BCA5C572
BDE31FE8
BD900EDD
BE9AAE9C
3D5E1ED2
3D8EE883
3C20E164
BC8156E2
3D949D4F
3D001526
BCFCC59E
BDD20C65
3D3475BB
BD3BDF54
BCF93724
3DF573A8
3D20694F
3CC7331A
3D1F6668
BDB533FA
BD20D2FF
BD5EDEB0
3DF8046E
3C71C33C
3D147B3F
3C6377D4
3CF9226B
3CFD68BC
BDB3EA19
BD81314F
3DA57618
BC67657F
3CD66DC6
3E1CE711
BD83B1B1
BE2F39DF
BCC35143
3E6E68F1
3CFAA481
3E7A8424
3D71C204
BF1B67D8
BE4B7DE9
BDC58D27
BD003DDB
BC97238D
BC06C275
3E67D106
3E68439B
BD449774
3DB1FA4F
3DB18808
3D66CCD3
BD115957
3E41F20C
3D854E1A
3DD87CCF
3D678146
3D070BFE
BDB22EE0
3D859EFE
3CDAFAF8
BD4739DE
3B9D889C
BB7EE6AA
BCC3B77A
3D323E33
BDB77E9C
3E49C9AD
BD144211
BD78EFD3
BD88D862
BE059422
BDED5FA7
BD7FDF1B
3ED32515
3B0427CF
3D6D1D45
3D1DEC82
BDBD50D9
3D055996
3D167248
BD64AB89
BDB0AC26
3CD6E788
BCDD4271
3E579541
BD356CAE
BDCB0BDC
3D378F96
BD9F5C6B
3E83B9A4
3D411F72
3D214FDC
BD718828
3CE33E9E
BE18FA0F
3CAEE96D
BD63A93A
BC027AFA
BE4F7D59
3D4E69EB
3D69A657
BDA598C9
BDA62E05
BD904562
3D56115C
BC3DF792
BB6ADAAA
3CFE3956
BDE31DA7
BED9C43D
3D2D67B5
BD70FC3C
3D0D00EA
BD7DF5AF
3D01B3EA
3CD31988
BD04FA10
BD9E7D05
3D594C88
BE23DA73
3CBFEA41
3DAA5B8F
3E4871AA
3D76F804
3E842990
BD05C92B
3D2037B3
3C1A6B13
3E0D8FA7
BC5DA4D7
3B329B33
3C9F112D
BD81326E
BD4A040D
BDA88F8B
BD8B2B28
3C908D61
3D8BCB63
3CDC1F35
BDA9246D
BD80EE99
3CE59B55
3D3E9D44
3D01E924
BD92074C
BD3A7FC9
3D08A8C6
BB8DFF7F
BD92F18F
BCD340BA
3D8A2F4B
3A16419F
3C13B697
BC938086
BCE302C4
BD023B51
3DA9AB0A
3D8AEEFD
3BF76F74
BCB66B6C
BD04841C
3D2A5195
3D9712E7
3CC54DE8
3D241D9C
BD1ABECE
BD4B37C2
3C299FB7
BD9E9578
BD345B5F
3C001B24
3D20CBE5
BDDC886F
BD1E9B06
3CA659E1
BD0A6D2C
BDAEA9DE
3D189B45
3D988FC4
BE0502F5
BD455270
3D4D5B42
BCE53B94
BD2FA98B
BD19DCB5
3C1891FB
BD866532
BBC53596
BD20834B
3ABCEB8C
BCCF0E9B
BD2F393E
3DE69B5A
3CD61556
BD1E664A
BDB58114
3D341719
3CA8B526
BB4E5972
3DBF732A
BCD75D8F
3D7AA9E5
BCFDE0F7
BBC6B5B8
BD2B4312
3D1A1C86
BD279BDE
BD784D01
3CF82EA5
BDEF10ED
BDA04944
BDA9D3F9
3C8A2080
BD8F0EBC
3D2D2D8D
BD1F9564
3C6057CF
3DAF7712
BC168410
BD8FB437
BDA38598
3D9FE531
3DCA1433
3DF5A7C5
3D8EA14C
BD86AEFC
3D181025
BDC5FC8F
BDA2A83F
3BCDADB5
BD10ED30
3DAC217E
BC836B0F
3CB622BC
BD6FAC58
3BC54E24
BCC65C70
BD3D848B
BDBE7DA8
3D8B0767
BD9CEC62
BD6C05B2
BD8DDA51
3DA8002F
3D87DFF5
3D86B6FC
3C8A6396
3D8B63B2
3CCD270A
BCCE5096
3DA21A63
3D7E7E7E
BD0935C1
3CB19E8E
3D8F67CE
BD13AA06
BCF4EE64
BE1E4317
3D4FA0D5
3D9E2A41
BD2716DB
3D6E8691
BD82AFBF
BDD9E94B
BE8B932F
39CA03EA
3D8C50A3
3D1179F8
BDC7869A
BC694EC3
BD05F1AC
3D87F9CE
3D2C9AD6
BC82A125
BD74B519
BD01C981
BBB70430
3D9B9F50
BE1BA9AA
3E15BA9E
3DAF2C9F
BBD3B24D
BD7AD516
3DD7E9E7
BDDA6F32
3D82CB4C
BDAA868B
BC3CF31B
3D48F2A5
BE54BBF8
BDD5AAC2
BC098D10
BDCB7823
BE47FA5D
3D6E4B7A
BDE4BDE2
BD979809
3E41ABA9
BD3ED59B
3E087400
3DE716D3
3DA9129F
BDB92FE5
3D6F7506
3D91EBBD
BE7B21BE
BE661B74
3D22890C
3CB70946
BCDB54A0
BC6A2B82
3EC183E2
3DA3F8EF
3CECEC6D
BDCD581A
3D786C58
3DC816D0
BD83B4F9
3D3D1280
3C271D5B
BCB7B8A4
3C71AD0C
BE093499
BDE63FF8
BCC22EEF
BCAF75B9
3D199B62
BC0E90F3
3CF05F7E
3BFB6788
BD07D05E
3CF38C24
BD1AC53B
3E31A0CF
BD58F722
3DD048D3
BD7F07A2
3DC770B4
3E19768D
BC5E0320
3E36C842
BDABF6C2
BCA92CC5
BE5992B5
BE706A5A
BD3115F0
3D702FEC
3C7F222A
BDC2DA61
BB930364
BCED58CE
3E04AE43
3D5B61F6
BCF6F103
BCAC56B6
3CD3BA52
3E6A8D22
BD9AE6BC
3D3473C8
BC9051B7
BE0EB6A4
3CD84E8B
BD554B87
BD112046
BE47B9EE
3D2C2481
3D244725
BE3DB9B3
3D493D49
BC8EA2AB
BCD583A0
BCD49D66
3DADD818
3EA7A91D
BD9E38C4
3D4AAEE0
BCA65C15
BDC2421E
3C43316E
3D88C537
BD28529D
3D13B084
3D724E7C
3CA709BF
3CE88779
BDE3651D
3D82EF79
3D3101C0
3C26DF5D
3D229CB0
3B8D2D09
BD08D6B9
BCE20F9F
3D005307
BE125B24
3DAA7D4E
3DB2A5F5
BE2D40CC
BCD06C24
3D258DA9
3CCA75C5
BC043D00
3D22E1AF
BC9BDC54
BB883043
BCD75F12
3D35B737
BD015CA7
BD1CA5FB
BD213334
BDC14C9C
3AB2F922
BC36274F
BC145293
BB0A1D43
BD3D5797
BDA739C6
3C8257B9
3DDAA45C
BDAD5D09
3D977194
BBCDB2C6
BD7D5D4B
3D16259C
BD4E0231
BD43A752
BBA2A7D8
3D9CCC60
BD907B65
BB4CF2DA
BC835CB7
3C3839A3
3CB3B046
BD575C50
BD2D7F7D
BD91711B
3BF53982
3D432D06
3C8FEA28
BD518589
3C9AB964
BD03DCF2
BD9BC02C
3DAE61F6
3DCB8187
BD939FB5
BD8F8683
BDA2620D
BD0EA926
3DC23275
3DA08FC3
BDDB0DE6
3D62DBF5
3DB1FBB3
3D6078FF
BC7C19CC
BD061729
3D5A1DE9
BC9DA659
BD70BB21
3D0132C8
BC96FA68
3C9A5EBB
BD9664D4
B9B2317E
3D92658B
BD09B02D
BD7A2B90
3E06F0E4
BD9D8910
BD5DA5E6
BD2E3F4B
BE25787A
BDA9E223
BDF24280
BD988098
BD64C56F
BCC5A546
3D6947FB
3C58B2EA
BC1C0278
BD780FE4
BC925181
3E02C29C
BD944AD3
BC03FB55
BDAD7A16
BD16BE68
3C975B5C
3E72CEEE
BD2E6101
BD04FCCC
3D8834D2
3CC3F65A
3D8F9805
3DA90E39
3B803D47
BC1B4AFA
3CEBC566
BD4720A9
3CAB115B
BD7C9C71
3DA04FD5
BD022F90
BD53AD16
3D5A18AD
3D894A5D
BD1BA682
BE01B478
BD62111F
BCBAB335
BB5685AB
3CDB91D7
BCACE1F0
3BA26979
3CB52C92
3C1FC103
3DD8BFC2
BCA189B8
BCF7E8C5
BD04D009
BD2BC820
3AABC052
BE557F52
BD8D3BC9
BC839A3E
3C27AC57
BD14B069
3D13C0A2
3E35AE09
3C7649BE
BD1F9D3F
3BD78FB4
3C14AE54
BD82A98B
BCFB78BC
3D817E0A
BDCFC5F6
3D2539F4
BD27220B
3D9F087E
3CF96572
3D3B2DBB
BDA46CE2
BC9C9470
BCB3453C
BD77B6CB
BD159E68
3DA0A2C4
BE187A9B
3B262351
BD18920D
BD625BE3
3CD979B4
BD331853
BC560A58
3D18CC0F
BC18E913
3D08B127
3CEAA0D8
3D64794F
3B9B7511
3D7F1346
BDBEC9A9
BD987F26
3D90C0ED
BD83759F
3E1CFD53
3B9FBFFB
BC3398FF
BCC73C24
3E081817
BD8AD9DB
BD22590E
BD6F3ABE
3CC16EF6
BD804598
BD1D7829
BE08D980
BD520012
3D793C8F
BC4A2A1B
3BA6029A
3D2C0E0B
BDE9A268
3CDD8908
BE1C643B
3D395FEB
3D2DA4D7
BD71E0F6
BD5DB0AD
3D80E5B9
BC771845
3DB33477
BCF8D625
BDBE52A2
3D30ACEE
3D9109C6
BD41CDE3
BD885526
BD69C536
BD2C5393
3C987EDD
BD758EBD
3BAB44B0
BD078C13
3D44DCE7
BCB2DF40
3D8921A9
BD35DDBD
3C0733D0
BD608E93
BBBB56DD
BD4C0118
3C020525
3D6CBC51
3CEDF55C
BD550706
3BF8C4AB
BBD0E440
3D2D6FCD
3CC6AD53
BD0CDAF5
3D48295F
3D148868
3D444EDC
BD9E47E8
3CB45827
BD91678C
3C912BDC
3DFF4E0F
BDB1D2DC
3BDD7A26
3BE7CBAA
BDA26CB3
BB8FD4D2
BD239B93
3DAE1CDA
3D902D8A
3D1E0361
3D5B586E
BD065C22
BC9672C9
BD94EF62
3D2A34B2
3DAC3837
3DA9BA7A
BDBF41E2
3CF87C8E
BCA31569
BD4CA83F
3D00CB67
3CFCC2C9
3D8F8C72
3D71157C
3C8AF25C
BDFA7844
BD7367D7
3C9BE77D
3C2E4E5D
3BBDFCFB
3D7F1112
3C5B7D3F
BDC1ACEC
BCCA9E9A
3C2AB454
BD94FC58
BC11D9A1
BBDE97B5
BD9D3B44
3D9524EF
3D42AB23
3D5B03AF
BD135242
3BFC2F50
BD22B204
BCB09AFD
3CED34FD
3D899A3F
3D004AA3
BD7C1470
BC3E253F
BE055F86
BD1D8308
3D1BEC6D
BBF86CF1
3D4CF122
BD87BFBA
BCB77649
3D8F6F7C
3D44375F
3D31F3C0
3DB1D4B3
BD189D48
3D66466B
3DD202B2
3CFF2F0A
BD7D9016
BD12E44E
3D736146
3DB1C097
3DBE8ABA
3D95D6C0
3D25D89A
3E388476
BC50B900
BB25E2CF
BD5AA3CB
3D549815
3D86FA20
BD881905
BDD7A510
3B116F29
BD9C244B
BBB5DDAC
BD4681CF
3D1E9C0A
3D5796F5
BC8CFEF7
BDC8612B
3D1DFA21
BC90837B
3D75194D
3D9086BF
3D8D687A
3CC3BEF2
3D576824
BD168667
BD6E56AD
BB06BBDC
3D9F61A4
BA02131E
3D17882F
BBDCC258
BD855292
BD1CE0BC
3DBAD564
3C300B15
BDA51A87
BBA75974
BD71E2E4
BD82D701
3D896ECF
3C519C35
3CC09663
BC2AF4CB
3C7585DE
BD4452E3
3D8EB354
BB21C98B
BCDF74E0
BD1FAE49
3D833178
3CB92E5F
3DA6A642
3E2F6599
3D662A77
BBDD5772
3C0945B1
3C387740
3D473F06
3D0FA13B
BB931D00
3DC2F2FE
3D4AEDF5
BD2005DF
BD0D34EA
3D294571
BD0642CA
3CF5698F
BDA5826F
3D808792
BA1A8382
3D61FAEC
BD7BDA34
3D9672D3
3D33192A
BC3D9B21
3D8D32DA
BD061D94
BD4DD62F
3C81B9C4
3D009125
3D8FA8E6
BD8551AC
3DA92378
3D6F82B7
BD99534A
BD8A7FB4
BD5AA439
3C49E323
BD12D2D9
3D9D95FC
BCC82137
BC74C11D
3E5FB0CE
3E948F0D
3E2D30CF
3DFA5368
BE7C13CE
BEF6C09B
BE83B9AE
3E319305
BE444080
3EAE3F6B
BE954EE0
BED01411
3EA5A796
3EB054F9
3EE139B9
BEC0BF61
BE791BD9
3EBC2B84
3EAD1CCB
3EC8EF60
BE104161
BE78A06F
3CEAF1DC
BD7CB7A9
BE9D32BF
BEBB6B1E
BEC666CB
BE9900AE
BE693B8B
3C7CF8A4
3CCF58F9
3E7BE3CE
BE58770A
BEB21907
3E64510B
BEC1DC72
3E80664D
BE80CCA1
3EF90C0E
BE9F3A4A
3E8D8EBC
3E9787FA
BF0C3710
BDECB0C0
3EE22DEF
3DC9A6A4
BDE87966
BEEA0D82
3EB982A3
BC4C65B4
3E007486
BE865000
3E1173E1
3E7019BE
BEE93AAA
BCAA1BC2
BE3E5789
BE3B8477
3EAF342F
BF2ACB2B
BEA51FE6
BEAEF588
BEE8EA36
3EA4C9C6
BEDD62D0
3EDE1643
3EBC9F7D
BEAA0D6E
BE5D8CD2
BF48E748
3CD251F7
3EE9408D
BE04AB3F
3EC27DA7
3EF5C381
3ED00E25
3E75CF83
BE1DB871
BEBC51EC
3EC702DC
BCA796BD
BE73650F
3E02CD2C
3EB5E300
BE264C07
BE4D7563
3E78FA23
BE959ED8
3E893911
3EB46343
BEBBC5C4
3DE6AE8B
BDBC6A72
BCE4ED6A
3E89A65A
BE9AED46
BE96ED5A
BF08090B
3E9851E8
BEC1889A
BE8861ED
3BD0B827
BE884BA4
BE28E6D1
3E37999B
3EAA6E79
BEBB4565
BEB931B3
3EAFAA7A
3EC029E1
3E5D1421
3E57128D
3EF027F0
BE5C9B9F
3F18CDEC
3EBD3E27
BEAE4E16
3E99681B
3E8DE8F3
3E9C7BFB
3EECD49D
BEE1AF91
BEC1668C
BE071E1C
BC823A42
BEEAB0D6
3ED32710
3E940E10
3EFB3F6E
BDED7640
3EB4ABAA
3E05908B
3EECE9A9
BDACEB99
BDE31CA8
BD957C5D
BE257B0C
BE0E2091
3C056632
3D1F04F6
BB5830BB
3B01421B
BDD568E8
3D828BFA
3D427A84
BCA38952
3D059421
BDC421C6
3DF758FD
3E21BA9B
BC50ADB8
BE148656
3C76600E
3DF460FB
3A2C38BB
BD2FDC1E
3D74CF75
3CDA905F
3E13E0F3
BD9F5EC1
3DFF775F
3D3041F5
BD0AC985
BD376DC3
BDAAA1DD
3C017859
BD293D4E
3D5AFA52
3DF28CD8
BDE23B1B
3D78B88B
3E3187BF
BD94276F
3E681A15
BD9C006D
BDE48D48
BE5F80DC
BDB525B1
BD3D53CB
BC77B025
3D7A5541
3E47807E
3D720E45
BD5495C7
3DCFA9B4
3DBB13E4
BDD35A86
3E0AEC73
3E0F5D4A
3D998E65
BC0F5166
BD2E27C3
3D84A18C
BD7C63D4
3D41C7C3
3E2767F5
BDB8C8C7
3D783434
BD5BC9E0
BD6F1D95
3D2711E0
3DD29B79
BCD67120
3CBB1BDA
BDB908C1
3D60A140
BD810624
BCC01CB6
BDAA37CC
3E657D83
3D52D46E
3E18C2B8
BE40A96C
BD801BB5
3DFD05D8
BCF045D3
BC1BDDE1
3D57678B
3DCD5AAC
BD5C236F
3E26D055
BD9D1C1B
BDE2BBD2
3D100B30
BDAE0010
3E3CE0C6
3CE8006A
3C5C54F5
3D2774BC
3D8A02A7
BD7F0816
BD8207BF
BC8E2191
3D5B342E
BD093F57
3D176D0F
3C70E9AD
3DC745E3
BC57DF5A
3E023B5E
3D2DE97D
3DDA7B26
3D3A3CA2
BD8C5BA1
BE0EBDA4
BE8BD13F
BC054FEF
3AE07E41
BD10329D
3BF6313B
BCFD535D
BD20904E
BD29AAB1
BD87BF85
3E21D39D
BAE50234
BD60B748
3D8F0ED7
3C184909
BCC3D562
3D4483A8
BE2EF4D9
BC172E8B
BE0F0117
3DBBA96B
BD9C9E83
3C801244
3CBFD1D7
3E104655
BA8C1CD9
BDD3FB6D
BDCC5363
3D0FEE47
3D76AD63
BD1B8EBA
3D4B994B
3C7C119E
BDBEF668
3E1AF287
BC60D0E6
3D55AC0C
BDEFCFC4
3D109BEA
3DB35DDE
3DDAC76F
3C90EDC4
3D7D9676
BDB1FD09
3E10B64C
3BB4F3DB
BDE629CB
BCA85813
BDDAFA65
BD1C5868
BD42184B
BD71B63B
BD1CB456
3C98B1DD
3D1C74C3
3CF0AD47
BDDB0A04
BDC5A24E
3DFA275E
3D164CC0
BD02E0D8
BD9C92BF
3C7AFA67
3CD6D3FD
BDE0A592
3D93088E
BD16E6A4
BD24B7BD
BDE89621
BD7E9180
3BE9E188
BE1DF3D1
3C3FADEB
3CED36E5
3DA48325
3E08513D
3D2F170F
BE27CD11
3DC89B70
3CED3C49
3D17FDFE
3C20BFC6
3D038EE9
BDFEB994
BDA8C7C8
3D347DD6
BD7E6A4C
BD1E35DE
3D8A1FE9
3C9679AF
3D51E2D4
BDDC2EC8
3CD7E1C4
3D057B47
3C8905A3
BDB5C761
3DE66590
BCDE9780
BDB375BA
3DB193A0
BDCF4ECA
3CBF3580
3C4DD987
BDFEE45C
BD41D8C3
3D911689
BD2E3603
3D111E8E
3D007D94
BDABF0A3
3DC707F3
BD2DA01F
3D59A459
3DFAF0DA
BC5B5180
3E3283CD
3D9C6704
3D655C4E
BDED63CC
3DEF7D59
3C7D777A
BD75D9DF
BC8CC80F
3D3C412F
3D84C068
3CD71240
BD55657A
3CB0662A
BD66ED2F
3B88A775
BD8BE122
3D093ACF
3B4EDA7B
3D869836
3DED6528
BD0F5637
BC2C922F
3BE621D5
3B75512E
3CBFC796
BD89C1B3
3D8C0513
BA25EE11
BCD09A67
BDBBCB7C
3DB694A2
3DB58543
3C622CFC
3C9FF08B
BDA1F816
3D9194DA
BD5286CE
3C9E6221
3C91FFDD
3DBA0E11
3E95D72D
3D83BF50
BDDE6DEC
3E37C003
BED712CD
3D8142B7
3B8F18AA
3D9E79DD
3A7D90F8
3CC648BA
BE0E8BE3
BDC85F4A
3DD9F432
3C646C46
3DCFCC69
3DA45D2D
3D0CE30D
BCE7822A
3DCEEC47
3D8656B5
BE146E16
BD2B0547
3CBE46A2
BE24AA6F
BDA0B186
BD309447
3DA68807
BDD4AA1E
3C96912C
3DA270F1
BCC2FF4E
3DFEFA61
3CED4ED3
BDB2B5C4
BE58EE51
3C6C6442
3D4869E4
3D42B498
BDD66971
3D240302
BCA14F6B
3B6FD577
3CAD03B4
3E2A26B6
3D5FE49A
3D3079CD
BDD98981
BB7C426C
BE42BFC0
BE3CE252
3DBF20E2
BC3953B4
BD934C9F
3DAC7C05
BDD85E3E
3CA4ECFF
BE1921E8
BEAAFC52
3DC30FD8
3D09C4E0
3DD1E314
BD23D293
BDA8D07D
3DF83119
BD8CA1E8
BD70A1B3
3D6F5ED0
BA0DD1A4
3D22AD6C
BDC76451
3D268C09
BC88C866
BE94B5DD
3D8D3A31
BBEA8397
3C8E7BF4
BE3E525F
3DEA09E7
3D0776CF
3D95B26D
3E41E314
BD245623
3DC419AD
BD81105A
3CAD4593
BCA052D6
3DCFE5E4
BC85AA2E
3CC27220
BDAD1BC6
3D0C725F
3E6E34CD
BA0D039C
3E27BA16
BD107DA1
BD1C7435
BDD18216
3D1BFBA4
397DE98A
BC5A07DE
3D96743E
3B9FF526
BDED85AA
3D5AF19E
3D60C4A4
BD873118
3D039F19
BD823123
3D19313C
BC80ABED
3C8693CE
3E66A6EA
BCFF6A49
3C9E64EB
3D1B425E
3D8C304A
3D512EDC
3DA53A86
BDBE4817
BC33E78E
3DBA3579
BCB4796F
3E1C8A74
3E00071B
3DAED755
3D06EABE
3DDFB085
BE4DC7F6
3CB1FCBD
3D96FC74
3CD0F266
3E0B333A
3D94033E
BE7C3738
BDFEC0EB
BD3AAA91
BD60B588
BE20FA1D
BDC0F140
BC8F013A
BE203885
3E347391
BDA5A226
3D26B3E4
BDFB8222
BE4ABF2D
3DB245F7
BB9B4253
BC70E464
3DCFF914
3C959F84
BE0AAD4C
BDB0FAF7
3D180077
3E01CD3E
BC71348B
BC7095CA
3DE2B496
