BDEF6B1A
3DAD0DD7
3E21DDBB
3D38A06B
BE4FF405
BE35F542
3CDAFFE6
3D7142C3
3C823BDF
BD75F344
3CB31678
3E3DF6AD
3DDF6B35
3D1D7653
BC90D149
BD64455F
3D302422
BC88314C
BD8E9775
BE23A733
BDE626C0
3DAEF6EE
BD8F4583
BDF2FF8F
3CAB665B
BE359352
BB868C50
3C90400F
BE2CE0CD
BE0FA681
BDDC65C7
3EDDB721
BCD7706F
BE3BD8A4
B917647F
3E5FDD9B
BD59AAB1
3D0CE972
3E58BA3A
3E174228
BDE407E7
BBCAEDC7
BD95AAB8
3E0D59C8
3F1A23B3
3D48C10C
BD28168A
BD319399
3E41E7C5
BD1D3D50
BCAB465A
BD923302
3E94ECCB
BD8D4BE9
3E7515FE
BDD8085D
3D124C9C
BDDEA87D
3B292A82
BDE2BA82
3DE50C44
3C5AAD96
3D924412
3B52CB72
3DB0D7B9
BD981593
BE142DFE
BE49445A
BE186050
BC94CDB2
BDD7174B
3F6F421F
BE582801
3D2255DB
3E0D3C65
BDE1AA32
3E69A7EA
BCCCD688
BB4FA81E
BDB1A28F
3DAAEAF9
BDA751AF
3E82A89B
BD9A9977
3E281033
BD2C9E3C
BD4E473B
3E59811E
3C091906
3E1DA796
3D5AB560
BD0CB8B8
BC101B98
BDF8FC5E
BE155999
3D32EDDC
BCBF665D
3E187E61
3D4E588B
BCDCCB78
3D44174C
3D67A335
3CB770CA
3DBBCDC8
3D11621B
3E26450E
BD2D2FC9
3CD5A00A
3CD637C0
3D6A8F9B
3D6BDA84
BD51C0DD
3D50D09B
BD562937
BDE628BE
BDE8E780
BD5704EA
3E4342EE
3D13F85D
BE12C0E1
BC3BEF7A
BE1B034E
3F379110
3DC6AD80
3DC74B40
3D2214C8
3D7BA2F6
3E1A22FD
