BDD139C9
BE00AA80
3E2F13A0
BDB84560
3DA01999
3A253EC2
BE0F3295
3DCC17CA
3D8EFFCA
3DE73D84
BDE4D55F
BE29369D
3DDBB682
3DF5F5C8
3DB24062
3D4B6747
BE04A4D3
BDE19FB5
3C0A4EEE
BE0B4CF1
BC69D1D6
BD4C7EE1
BDFCE663
BD90E090
BD50BDC8
BD3D92CB
3D333D9A
BD9F8FDF
BE048AF3
3DD1E66F
BD950F11
3E8E1771
BCCC8BB4
BDDF299E
BD8476C0
BE407A79
3E0F4D88
BD1E573E
3C762226
3E1CC3C8
3DC0E2B0
BDAEED59
BE1BBC0A
3E40C26F
3ECFB685
3DD1E611
BDD05AF7
BCAF278B
3E1B061C
BE021FDF
3D65BBA4
BDAC3D2F
3E5E2AD7
3DB08378
BE4BAB94
BD010579
BCFB92BE
BDD468D8
3DBCFC2B
BE15F733
3E15C2A3
3D9E11A3
BD9F1D97
BD9D8941
BD756875
BA59D071
BAA2EE8B
BD01F7BF
3D93DDF9
3DF55C6E
3D5DD6F0
BF11B6B3
BC62754B
BE37E671
3E377299
3D13B02B
BE0CC32E
3CB44C28
3DAC6D17
BD8C9EDF
BE196C6F
3DA9345D
BE43ECF5
3E0203AA
3DBAEDBD
BDC475FA
BD04A569
BE437260
BE361A46
BE4F1399
3E07F6BF
BD863B37
3D70A2C3
3DFC0DDB
BDF5526A
BDCE7CEB
BCDD2885
BE0DCE11
3A9123EE
BD893F12
3E0BEA41
BE02F831
BD4B4515
BE166A48
3DE28EFE
3DAD6B02
3E020507
3E367785
BBD528C0
3DC073F6
3E1AD1DE
BDD2834D
3DF9F7A8
3DDA8B31
3D7A70FD
3DB08DAF
BDF0792A
3D95688C
BDED10BF
3D5F01AE
BE0E035D
3E056E12
3EA878A3
3E133D3D
3C547FDF
3E081A01
3CBA7F0D
3E199631
