3DF525DA
BD0D9A0C
3D80EAE2
BDBA97A2
BDB948F3
3CE3F6B5
BC55E194
BD85F776
BBF848A0
3D288730
3C1CA01C
3C685FC6
BD81EC6D
BCD9E20E
BCCF5A46
BCF9B5B9
3D0D1D37
BD82EA99
3C9F3E9A
3DC27857
BC0F419E
BBE90C9C
BD533836
BD53079A
3C4E98D5
3E007040
3CDF3DC8
BDBE602B
3D6DF0DF
BDAC3584
BD2EF201
3CF75C78
BD9308EF
3DD3BB26
3E0A5C23
BD4C40D3
3DDCDEC8
3D2F8683
3D56085A
BD9A2BBC
BA4CA619
BC882700
BE9FBBAF
BDF9CE73
BC5CC197
3D87AB7F
BD9CEA84
3D84E96E
BCE0C364
BDC553F3
BD955AEB
BD980BE5
BD09951D
BD174EC1
BC28D4A0
3E036CD2
3D8B26B7
BCC6B063
BD800014
3D3F3CF4
BDA1F9D9
3D90FA5C
BD4CA923
BD2D8295
3D662340
3DADDD50
3D3CAC43
BD815140
3D8B0F67
3DEAD879
3C36DB74
3D4123B4
3D696473
BCA2A348
3D85FA4D
3D2483C8
BDEB09B4
3CA4591B
3C01B401
BD12D08F
BDFFBE26
3CA31A1C
3D834F4F
BC9EE437
3DC52C9E
BD4115DA
3C37CAE8
3D85EE07
BCFE068B
BD957C6A
3CE26F61
BCBE0BEF
3DE6D0EF
BD55E96E
BCFA83D5
3D44BE89
BDB9D631
3D10C225
BD5F9BE7
BD292675
3DA4B4E6
BD2F7561
BC9869E9
BC3CBD6B
BDD9F425
BD5F5406
BD72C235
BD9B4BD3
BBD9902A
BD0CA6CD
3E3E1ABF
3D8E80C2
3DD51FD2
BD96AD71
BC86180D
BCD7B0BC
BC1E2F87
3B4082A7
3CFEB3FB
BCFE0C55
BC103F58
3C77F052
BE1CA508
BC88E73F
3DD22608
3DA0E3FE
3CCB6086
BE194B67
3D9ED84C
BC39EFD0
3DBCE164
BCAE9981
3C862BD9
3D9F294E
BC4E84A8
3D6EE9A0
3D1A9169
3D90712B
BDB0CF17
3B588781
3D43576B
3D0DB96C
BDBF977D
3D8E654B
3CCD6A5C
BDA261CD
3D49E064
BD6F0FC0
3D540C74
3D6D107C
BCE5D349
BDB3F739
3D0D9394
3D644084
BD203BA2
BD43E471
BD3A7EFD
3C2F6AFD
BCDB66EE
3D7CFA11
BD0FF640
BD56AC9A
3D4F3B85
BDC2B7F1
3D513150
BCECDAA4
3D577DD6
3D830740
BCFFEA8C
3D057423
3C8AB80F
3DE39D1B
BD448853
BDA87584
3DDCD614
B77D0B51
3CEF9F80
BCED464A
3D573C6A
BBB2CDD1
3D091F8E
3B1C6B23
BDFC825A
3D8F8B9E
BD558599
BCBFE497
3D4D4B80
BD9B4709
BDC3D0BE
BCC682FC
BD9FE73C
BD4A5861
BD997CD2
3D488CB1
3D8230AC
3D9C5353
BC8DC4BF
BBBE9094
3D04C0D5
BD904A4F
3DBB5300
3D97BD54
3C9FD898
3DA24897
3D89C358
3D42E92E
BC11EC70
BC697316
BCF835E7
BD9A3C82
BCB40F3C
BD9D02FA
BC9C1C6B
BC62553F
BD73CCBE
BCB21A24
BCD69B02
BC8A71DE
3D04298B
3D64CEF4
3C8B8915
3DC660B7
3D1D5F97
3D1742B2
3CDC7BFC
3DBCF663
3C65BE8B
3CB9A934
3D4957E0
3AB0D108
BDBCDBFA
BDB0A412
BD3D6437
3C688590
BD18BA54
BDAC2EF3
BDD7B37B
3AA031E4
BD994C1E
3D14FC7C
3D384348
BD73A29F
3BEFCD40
BCA3548E
3CAD866B
BC87A83B
3D5476B5
3D5E9F96
BD6E81BB
3C220402
3D7C1A0F
BDC5C50D
BD315255
3B52EC0F
BC5F58CB
BD7BA317
3D81E774
3D51866B
BD1AA222
3DB9AF48
BE0C5133
3DB96789
3D26CD0C
BD78459C
BDBD0417
3D56508F
BC7ED8A3
3C5C116E
BD0372F4
3D451223
BCD96E4B
BDB77A7C
BC7FBCD9
BD81BB93
BC4FE546
BD6AABB3
3D7EF0BC
3A142C04
3CDF84E6
3CDDEC6F
BD1A3A7E
BC89E24C
3C16366C
BCD98D5A
BD580DA3
BC658F31
3D760E8D
BD82D5CE
3CFC82D8
BDC75877
3DAC26F1
BA718E0E
3D65103D
3B9C38D3
3D948DB4
BCBC8B61
3CE961DE
BD81705C
BD2A229B
3D4463D5
BCA4B11F
3D6B7FF9
BCAC3AE1
BD2E8D67
3DFF9625
3DB4329A
3DCD17FC
BD74DF7B
3E0BC8DC
3D67E504
3D22A5C2
3CC2A8FD
3D9995B3
BAAE0050
BB91BDA0
BE24C51F
BD6A664B
BD88C3B3
3C001782
BD9F6EF5
3D0F1689
BD989230
BC5CAC7E
BDEBFA9D
3824636C
3D27550C
3C12F136
3D775FFE
3C519513
BDC2808A
3D924EB2
BD7E10A7
3D8CDBBA
3DB65803
BD90DAB9
BB615BCC
BD04C651
BD5ACA69
BD5087F3
3D793D20
BD552C95
BCEF74B8
BD9B9CEE
BDB14314
BD323EBF
BDB0F860
BCBAC31A
BD9AF7EF
3DA149E4
3D9E0E48
BD5E984C
3DC5B286
BD9123F9
3DAF344A
BC9AA238
3D2F0A5C
3DAD535C
3B6101AF
BD79A2FF
3DC47047
3B384357
BDC4724C
3D2BE7A5
3D39C739
3D7933D6
BD210787
3D3DCC3E
BD003F86
3D43BC32
BD8F925E
BC2F2339
BCD8B2DF
3D955565
3BB21135
BD510810
3D2DC134
3E0A2765
3D05ECD7
3DA80B36
BD100137
3DC0D62C
3D5851B6
BC98324C
3D4DABA5
3CC52289
BC606F8C
3DAEF6FC
3D481161
3C9796CB
3CDE9E71
BD9EBE4D
BBD15B63
3C5A6F2D
BCEB5CD0
3D9D3ECE
BD81119E
3C5AB106
BBF2ADC5
3D196DE5
3E344C2A
BD7D28FE
3DCDE1AD
BCBA1713
BDC5365C
BD519625
3D245309
3CA214B3
BCC5DC68
BD093E22
3DAE3686
3D0A2F33
3E0E5215
BCFCA0A5
3DFD1BDD
3BBC0C06
BCE1E1ED
3C177FDF
3C475CB6
BD1D6792
3E319A77
BDD1E86D
BD996337
BCBEE746
BD6DEA54
3CBF0BD4
BDF961DE
3D342E18
3D39BFAF
BD47D656
BE039F3B
BB96BD42
3C1210B3
BD865D09
3E0B4792
BD07682C
BAAF5C68
BCA1DE77
3DA86DA0
3CD63D5F
BC8112D0
BD5D9FE6
BD555F48
BE415A29
BC7C92C3
3D4B0369
3D1AD52B
BD057A38
3BB61A3F
BB785B9C
BCC8C0CF
3C18E2FB
3C4612A9
3D072EE3
3D0668DD
BDCCDF26
BD6CDE62
3CD8B90F
3DB90222
BDB3C228
3D35F69C
3CB54E86
3D5B3F64
3CED61C3
3D80FD85
BD03BC68
BD88AB87
BD59C99B
3CDEBD2F
BDC70FA4
BD27224B
BD86F00B
3D0C6891
BDA6A229
BC672B48
3DAFDBEB
BE895EDB
3D8EA67D
BA190B0A
BD54C168
BE009CA8
BD7FAFB9
BD593492
BA8C8D1F
3C0F5CDF
BDF8E1FF
3C8631A8
BD278DA0
3DB981BD
3DEBE6F4
BD94A8D1
3D6023EF
BD90A3FA
3D09BE7D
BD2251F7
3DB802B5
3C40D5E9
BDFE9AE8
BB668B3E
BDB2A4F3
3DE007C2
BE10F396
BDAAD4A2
BD9404BB
BDEB57AA
BD62D669
BDA366FF
BD8DA0B9
BD206807
BD8F7F08
3DAF2E77
BCF0C0A2
3DF8F39C
BD9F33FB
3DBFF92E
3D5B7148
BD1F261B
3D7158DB
BD9FEC8B
3DCB5836
BC305FCF
BDCEA29D
BD5A1E24
BC08CEF1
3DE95C78
3CA0BB87
BC0C301D
3DAD979C
3DDA7D82
BDEAF75A
BC2E0806
BD872631
3E018D41
BC43B23C
BDA5EC91
3C554908
BCE84559
3D4EFDA4
3D093F39
BD450FBF
BD5B68A7
3CB754E1
3D5C6DF2
BD26BDB4
3DB4F8BB
3C9B9FC9
BD88B617
3D5A6A52
3CD39DED
3D590532
BD1C1A25
BDBEB3CA
3D69D40A
3CF1269E
3DB1E369
3D5CB1CD
BD35ABD4
3C912F5D
3C776C12
3BB72D7C
3CC92D5B
BD6B11FA
3D54B3EF
3AF3D2ED
3D2337DE
3B9BD033
3C5CC471
3BF312A3
3D807538
3C7744FB
BC8CC0D9
3DBF42B3
3CFA835F
3E01D544
3D22664F
3DF7C434
BCD6D8F0
B8DEC7BE
3D8D6F01
3D13D0BA
3D937D76
BD01BE41
3DA5EE0F
BC991A02
BB9A471A
BD9945C4
BDAB91A9
BD1CFE56
BD29C4DD
3BB692F1
BC90256C
3C52D77E
3D9D8EB3
3D1FCD96
BDA74EB6
3D8CD7A7
3D757ADE
BCE6685F
BDB3ADFC
3D575933
BD9D327B
BD8E2FBC
3D0D64F3
BDB61723
BD34341A
3D937AC3
3D7FCB62
BD715DBB
BC2E520D
3CB91F05
BD90392C
BCDD4D4E
BC89A0FE
BC25FBB2
BD643135
3D79B530
BD9059FD
3D747022
BD0304CA
3B446297
3C3FD192
3BE401FB
BC722B4B
BDA7F28B
BD6475CB
3C12231B
BB979CB7
3D20016A
BB5E513B
BD9080A5
BC980BB5
3D49F7BB
BC80FC5A
3D9A803F
BC4B4624
3D2DB66A
3D9B3E4F
3CDA2E90
39EE5DB7
BD88D5D2
3BB4DDC7
3B2D56B7
3CA447AE
BD6BD38E
3B08DD8A
BD585709
3D8F76C5
3D9CBFCB
3CBE99B4
BCA01A32
BD20673B
BDA84AD9
BB2F5D5D
3D0051BD
BB5705E9
BC095CED
BCDD08C5
3BA31430
3C7541B6
3CE10D06
BDC41A5A
BD237B1F
BD1DB14E
BC4F4502
BD15362D
3DB03CC4
BB6D25CD
BDBCAD9A
3D9F55C8
3D0AA46C
BC86062F
3D101C90
BCE84330
BE015A73
3D4BE8E4
BDD7DE1B
BD559F3C
BD0D122F
BB3779E1
BD86701D
BDE0F1E8
3DC7476F
BD938B4E
BD89EF29
BDD23671
3C53A4C3
3C4875DB
3D404C26
3CBA47EA
BDF2E903
BCAB89C1
BDB1B3F5
3D11DC9F
3DAB83FE
BD0BEFC5
3D695C04
BDEEE972
BD65C384
3D0A15A0
BCD9F7DE
3D5746E4
BA4EAE66
3CDA7B31
3E1074BC
BE20DDA5
3D8A6FF0
3DBC05A4
3C7DA669
3D188319
3DC74AB8
BDF2848F
BD8B6D90
3D44FAB6
BC14D928
3C31F510
BB878CF8
3D65B11F
BD285F2F
3D60BB5F
BCE1E268
3D960E90
3D85863A
BD8C68E8
BE989749
BCA08A44
3DCD9BAF
BCC00CF0
BBE8DA8E
BD6424B0
3D23AEDC
3E03AED4
BC1DC028
3C3BBF5E
3D9BEDBD
3DBE2D17
BDA42CBF
3D8A96B9
BD892968
BDFABF69
BD9BF925
BCC9701C
BDA2895A
BDE5D81C
3D39DB76
3CC30050
BCFA1F71
3DA179D5
BD7EEBC9
BCF6A8A9
3D202B8F
3DC3BB86
3E1838F0
3D61B470
3D17CB4B
3D6AEB3B
3CBFFACD
3C0AEDA3
BCF21B9C
BCE73380
3E288B25
BCED99E1
3DE79116
3CC12B59
BD4CC9A2
BA396E5B
BC5574D2
3D93911E
BD513339
BDAFA48B
3DBF8A7F
3DAF6F67
3D692114
3CCCC952
BD7BE4A0
BC9725C7
3D98CA53
BD173B43
BD457F51
BCCF1F02
3D2BAA2D
BD97CB36
BD832426
BCE9F684
BCD437E6
3D35FFC9
3D181538
BDD7892C
3DB58774
3D9D5504
3D729D1E
BCFE68F7
BCDFBAAB
3D20EBC3
BD618FE3
BD88FB05
3DE6F4F4
BD4D2BA2
BB9BBB77
BC019770
3CE16E5A
BC8949DB
3D9C9695
3D3C9A4A
BE20669A
3CDDE0F1
3A982C6D
3D681A58
3D8BB474
BB4D3F01
3D97A022
BDA88EAD
3D182383
3C14E617
BCE14C51
3CED55FF
BDA8D476
BDED3C36
BDEDC479
3C9A3439
3D39D795
BD5CCFFA
3D9FF4F0
BD9A0ECD
3D83A8E0
3D88EFAA
BDBAA480
BA20E52A
BCEE836B
BCCE573B
BD9FE4DC
3D4AD003
3D832342
3E2ACEA4
3CCB69A6
BD165135
3D0E1448
BB8C2C60
BB977B89
BD412D14
BD8DAA2C
3D7231A1
BE6DBF20
BCC1944A
3BA27184
3CD6D69C
BD2DCFC7
3D9E301D
BD57FEB2
BDA058AA
BD1409BD
3C2BBF36
3D3796C0
BD6FCA45
B9E88008
3C089E11
3DE6CDAF
BC966A6B
3CA0EED8
3C428CCD
BCEF22F3
3D7C9029
3DB151AA
BDC7995C
3DA5715E
BB868F2E
3BE4901C
BD6FF680
BD7AA85A
3D8E4F5D
BD5392F2
BC2ED64C
3DDD60E9
BDA4E921
3CBA7D0F
BD4D2593
BDFF36FD
3C300B81
BCAC2E4C
3D50F586
BC9F1DA8
BD1FF182
BCB4B188
BDB9102F
3D10DB65
3D8B5D8F
BDD2A0EC
3D06884A
BC7993A0
BD8DA0D5
BBC68B2E
3D175C68
3D34E1CF
BCF48C74
BD0DBE14
3D56DA2F
BD662B02
3C86569C
3C548B5D
3DD6848C
3D987BCB
3D1FE675
3CFBD92F
3D002AB5
3C6A7D37
BD323051
3DD50870
BCCFE48F
3C28AA23
BD82CB83
3DF16D53
3CBBE509
BD85256A
3D04190C
3D98D30F
3BCC85B9
3AF8A19A
3D8E0DDC
3D9A4468
BD4F2E13
3D81D46B
3D044460
BC16C8B0
BD9690C9
3B9BB12E
BD861884
3D0225F2
BD081080
3D4C1B39
BDBBE347
3B7947DE
3C7F59DD
BDD20BD1
3C01EDBD
BB8B0CDD
BD984772
BD17C83E
3D88C160
3DAD9E8F
3E1F8E70
BDE8A987
3D5BECBE
BE18FA31
3D30A333
3DFCDC37
BE4B73B0
BDBEFAC3
BD7266B8
3E0E361D
3E36ACD7
BC8EE89B
BDA65A70
BDF777B6
3D4D780E
3D7CC723
3DE7EDA0
BDB50016
3E0C78C2
3E06BC2C
3DD2216B
3E3EAC6B
3DEEB57D
BD3FAD09
BCC1600D
BB0496A4
3DDCF455
BB4A2AC6
BD88E978
BC637A0D
BE5D2F9A
BDBD8107
3BE23622
BD1F6D8E
3D902855
BE1A1D4D
3DB4E800
3D379B2D
BDD6D1EE
3C946171
3D3D9282
3E1F62FA
3D6D9C33
BDDAFFA3
BC51759E
3C94FEDB
3DACB652
BDE3325C
3E128A4D
3DC4C90E
3D0E9244
3BD3D4B8
BDF4F1F2
3E192A1C
3BB5AC05
BCCAA56B
3DE3448E
BD94954A
3E3CD5F3
BE3B388C
3CF7206E
3DFC3B85
3D1F9D6A
3E0DBD07
3D067CF7
BD3934D5
3C361EAB
BE25F24C
BE093624
BC2483AD
3CA4F761
BD861C5F
3E2BCF0B
BE809E4F
3DE4053B
3DEDAE82
BDAB8253
BBB8DC5E
3DD70C06
3DD6A579
BE08D98E
3E2D45FD
BD8529A7
BD88A9F9
3D1E3486
BD4CD3F9
3E48658E
3DCFA2E3
3E144913
BD7321AB
3D8FDF7F
BE8F6618
BE30FF9E
3E438A13
3CC05ED0
3C74A2CA
3D9D4B03
3CC00630
BDA26D1E
BDAB13C6
3CEE8FDB
3E09C886
3E02DF2F
BE34658B
3D45A2CF
BD65591B
BE05E1DC
3E0A3C28
BE0BBF29
BE393B92
3DEB6F34
BDE820CB
BE0825E1
BD94F0E2
BDD997C4
3DA156BD
BD7828D1
BC561164
BDC43D8C
3D8F0A5A
BE06D648
BD9BFC29
BDF5C38E
3DD15FE7
BE03C8AD
3DA73F75
BD6566BA
3D0EA9DF
BD1787B9
BD4219E3
BDE65E46
3D223821
BD8DB2AD
BD0FCC39
3C5D0386
3D790B09
BDC54E27
3DDEBBFD
3DA290B6
3CB541FC
3CCD648D
BAFC8B9B
BD29FA4A
3D90C847
BD8914AD
BA75CE50
3CC058F6
3B97E515
3D00F627
3C7E519F
BDD64826
3D34A216
3DDE1A3F
3A0FE0B1
3CC9D993
BD8778F4
BC92BA27
BCA1E5EE
BC818028
3D1EE9AD
BAA42270
3E64F320
BD8BCB13
BCB2A691
BDF15DF6
3DA742D5
3DCE71DB
3CA0FA97
3C7B378F
BCF68DEC
BE025142
BBD5DB3E
BDC51256
3DA2E1BF
3DCC8E74
BC0137C8
3CDACDD7
3C9CDB53
3DCBD81B
BD27AF57
BCEA4A67
BA3B6AB1
BDC42428
BCAA2984
3DE05B12
BD93F819
3D47BA5C
BCA649AB
BD5285DF
3DF0D4CF
BDD8CE2D
3D50A7EB
3C78C3B6
BD02F967
3D9206C8
BD88AAD6
BBA8372A
BDA8B87D
3D77D48D
3E25378C
BCC6A342
BCF9FF05
BCADCE1F
BC79A3C5
3C8B4A3B
3D302973
BDE5A06E
BE146808
3D86FF6E
BBCF0172
BD1C90CD
BD33E03C
BC1CD72E
BD0150CB
3DEC4C82
BD490BB2
3CD90B64
BB55537B
BD88AEB1
BDAC22E4
BDA62184
3D69F204
BDAF90BB
BD311C3A
BD4A68D7
3CF6D9C6
3D81B207
BD5B492A
3D1E5139
BC4983B7
BD8226C4
3C972AEF
BD5768A2
BD36F52D
BC65ABE1
3B104319
3D2A4F9F
3E007BFE
BD9068D6
BE0194C0
3D1E3504
BD73457D
BDB379EF
BCA5D572
BC859525
BC533ABB
3BF14E66
3D30BB26
BD28035F
3DB18EB6
BC774DE0
BD29727D
BD6A05AB
BD2DBEBD
3D929F54
BC950739
3D4A8EBF
3C71A10D
BC4991FA
BD7CCEAD
3E070F03
BD816980
BDE164D5
BC9E7B15
BC775F73
BDA1EA85
3D440063
3D4D6182
3C640B78
3C9AA0CB
BD57AB78
BD0341F7
3D9A83F4
BD03E344
3DBB913C
BCB266A5
BC8288A1
BDAD9476
BD8D6834
BB86C5B9
BC01C618
BCB0CFCC
3CD540CF
3D767CDA
3D13AC3A
3D36763C
3BE1B8E9
3D9A67DA
BD9E3C64
BBB7DDBF
BC97C330
BA8E9288
3DE5B292
3CD63C5D
3CE86839
3CCA21B7
BD437FC7
3C95B9A6
3D66D7C0
BDA03C09
3DA16AE1
3D56E7D6
BE22D440
BC63DC9E
3D629E4B
3D09C5C7
BD325969
3DCFDEB5
BDCC973A
BD8D7FAF
3D995300
3D7768D5
BCE6899C
BCA2D384
3DC309CC
3BE67CEF
3DF3B95E
BD1411AA
3AB5A3F7
BCE08B56
BD875335
3CBF4EAA
3DA44075
BD829C47
3D4E996E
BCE124E9
BC889A5E
BD879DBE
BCF888D3
3D8DE829
3D20DB75
3D8175B4
3D9FDFF5
3D63F67F
BC42D8B8
3D0CC713
BD06B6A3
3D313656
BBD221FB
BDA92934
BCAD6782
BCAC1440
3D852D64
BD19ABF1
3D4665AD
BDBDC576
BD0B4B0F
3D830CB0
BD57DE30
3D04DF96
3C351ACA
BC5BCB02
3C8C670C
BC92369E
3DC6B547
3D7B6E33
3D4F6DC4
BE010FA9
BD870B1A
BC8542FB
3D8865B8
BD03D76E
3D8C37C8
BD8150F4
BDB50D92
BDE83B38
BD976CA1
3C9A012E
3CBCE9F1
BD8DA5C5
BB37AED0
3CB53836
3D135CA4
BDA442A9
BC9F5D7E
BD1D239D
3D43459A
3CEAC8AB
BCADFF1C
3D9B9002
BD7690A6
BD540DE4
BD8E88C2
BD1777C1
BD7284D5
3D69B91F
3D42E258
BE18CDCF
3C90FF61
BDC4E297
BDB4165E
3CAC563A
3D7E23E2
3DBFF5F0
BDC13D7A
BD31F739
BDAD3527
BD51C953
BDC3F470
BC906777
3D872D84
BD65E80F
3DABEC64
3D825670
3C47168A
BD3089D6
3D4E1562
3C81AD0E
BD46EBA4
3D380321
3D9A93C9
BD6592A4
3DB1DB7A
BD13DD93
3D2D1857
3D402024
3D209049
3C977BB8
3D68108B
BD3EDCB2
3CE70BD8
BD2951BE
BDBE77FD
3D7A8AF1
BD49DCE6
BDB711C7
3DD9CE9B
3E08318C
3D2972AD
3D1EEACA
BD16008B
3BF94960
BCDC2CD2
3DCCF37E
3DA65E2D
BCB1E2A6
BDDD381F
3C08C9B9
3D26E8AD
BCA1DFF4
BDAA1F94
3DC43635
3D93D903
BD917E10
3D49C97A
3D9AD45D
BD88C4DC
BC64B231
BC28657A
3DDD5EC3
BA8864D8
BD135440
BDB7EE99
3D66C9C9
BCABF1F6
3D8ED50E
BCD8934A
3DB08E14
3D69CB0A
BCC285FC
BBD235E3
BD32F642
3CFD097B
3DA180A8
3BFB9392
3DE1B676
BDBAE156
3D8FFD60
BC63C659
BD21E60C
BD5876CC
3CB66892
3B0DBAFA
BDED6586
BC231671
BD2A41CD
BD817296
BD3D7AAA
BC571C67
3D2D1321
3C2AFFFE
BD32A42D
BCF84A7F
3D632D1C
3AD5C6FA
BD35E3F8
3D1788A0
BC81FFC5
3D651583
BD33BFB3
3D562BB1
BD5808BB
BCEDB40E
BD128850
3D8349DF
3CEBCB2A
3D24E9ED
3D7486D3
BDAA8330
BD2AF463
3D1EE594
BC5F64BF
BD5A1CB1
3C0C817C
BB75D31E
3C54B54F
BB497C0F
3C41F685
BD8A3359
3D515E14
3C64BC4D
3D106EA8
3C71DE8A
3CF0AF3A
BDA2B33F
3D00AF40
BDA39347
BC2F7980
BD1E601D
BD35823E
BD7ED7B7
3C1CA90C
BD55C70C
BD8F3F39
BD9DF940
3CA2068B
3DB27E3D
BC88C3FF
3DE93E7B
3D399268
3CA08CC8
3D28084A
BD602958
3D7DEDB4
3D9E5CE8
3D3C5BFC
3CB08F19
3D7FE672
3DB74992
BD5D4F51
BD87DCCB
3D3548FD
3C024D7C
BD563B60
BB9CA468
BDCAE32E
BD60C1A7
3C4F0785
3DFDC817
BC894447
3D83D724
3D6D0AD8
BCA921AD
3C218070
3D943157
3D6ABBF6
39BCAEB5
BD4F3FF9
3DDDA273
3D5B1C30
BDB50089
BD945B6A
BD057159
3DDC688E
BDD2824E
3D2BD32D
3D58A6BD
BBAF0A0E
BC687E6F
BDA68149
BD221A67
BC37AD56
BD9A981A
3C22D7DF
BDDF5BB0
BE1D9C1A
BD0E29BF
BCC72F7A
BDA775E4
BBD50C7B
3D7767C6
BDA1E78A
3DA79B2A
BE348642
BDBB96FC
3D4CB11E
3C1D3247
BD55BB05
3BC4A1D7
3D62B07F
3D4A4A3C
BD9A8041
BD8D3379
3DA1D5E1
3DD8F649
BE59120C
3BDFD22D
3D4FE27E
BDF70CF7
BB359FAC
BCFF5464
3DCA983F
BC515B11
BDFFDAC7
3DADF7A0
3D1C382A
3D831D41
BDCD2DBE
BD48978E
BD2D10C2
3D9F80C7
3CD7678B
BDA8F280
BCD225D2
3D906765
BC3D9EE7
3CE310C6
3C4F74E8
BD2978DD
BCE0E7CC
3D8B288B
BD86C3F4
3D08D2E8
3E2B842D
BDA0CDF7
BD0E54F5
BD4DB0F6
3D472401
3D92F8F0
3BD823DD
3C885D5C
BD0E625E
3DC5E4CC
3D8E8FEF
3CCC4086
BD4418AE
BD4FEC31
BD8D9546
BCC062CC
3D56AA31
BBEC0383
BD9645CB
3B82B08E
3D5A57FD
BDF6AE8B
BD3D1361
BD8AD77B
BD916577
BCCF8A67
3DF744F6
BD905804
3A9FCA1B
BDB5B846
BE34C137
3BF1C7A8
3DF6D38F
BD80F701
3D9DDE89
BD681A13
3C3A7943
3CAAF079
BDA29C7A
3D5C7E5B
BD533CB6
3CF8C8A4
BBD65D3C
BD99E1E9
3D979CC1
BD3BAE09
BD199664
BC7F6DDF
BD12F03D
BBF28FB5
BD87785A
3D7E222A
BCF56A75
3D614260
3D92E2F5
BD5BC5A4
BBEE9AA8
3D60C5B3
3DB199C1
BD828049
3D9987F8
BCD113A9
BD004BB0
BD59A1C2
BD94B670
BD5EEEE9
3DB35774
BD856A01
BD9BB52A
3D9AB9A8
3D81513C
3D879A75
3CAFB179
BDAA43B5
3DBCB18F
3BB2F5E1
3BE9D37F
3D3D74DE
3DE70047
3D67CE60
BCD7E920
3C9DC583
BD1C45A9
3DB51971
3D29D457
BE03B9E4
BB83C1DB
3DA3D100
3C390260
BD6FE177
3D0DE9EE
BDA80B15
BBDF1248
3D1E30D0
3D008D64
3D1A972B
BD81A122
BCEF7A67
3C512597
3CDD2CA6
3DB4E6C9
BD9CBE5E
3D3D614A
BD6C068C
3D25D3AA
BCC0275D
BD830D09
BD82D894
3CF49EB3
3AAB108F
BD1E5223
3ABAAF35
3CDAE920
BD10D01F
3DA8D201
BD3B51E0
3D1497B2
3D00E71B
3D1178B6
BDA5F080
BD495D82
3D503A25
3CCC7EA4
BD0DFB89
BD62D362
BCE976DC
BC5817E4
BD3F5599
3C89E32E
BD33204B
BAD73D3E
BD0534D3
BDB76A13
BDAA0EA2
BD9D3B2F
BD8CE6D3
3D1ECEC5
BD123B46
BDA1B5E9
BDAE4569
BD56AFFD
BDAF66C6
3D725694
BD11D8D0
BCEC399F
3CC2A09F
3D8BFD6F
BD640C84
3C39C4B2
BC81805E
BD50C82F
3D17933A
3DB61B42
BB777D69
BBE54E10
BCA1E842
BD0E4CB4
BC6A5182
BD98205B
BD66DEA1
BD3A32CF
3C25FEF8
3D03D814
BE086085
3CCFC194
BD9BE4C5
3D171C84
BDD8AAFF
3A2BF4E6
3D586537
BCDA72D8
BD4D846D
BD939056
BD304AF9
BC55C732
BD31DD07
BD906B64
3C4674B9
3C495F3A
BCA6DED7
BC66F314
BD34FD70
3CAFDDDE
BC5F138C
BD56C869
3DB0AF9F
3D93CFF0
3D880540
3D8389F7
BDF15B8D
BD41E528
3D33064A
3D0CB7EC
3CE17937
BD209F4F
3D0E9506
BD112AD8
BDAE1674
3D6A2F51
3D224979
3DBC3906
3D6CBE09
3D4834ED
3CE6AC87
BC956FDF
BD8108CF
3D11DB19
3D8341C2
3C5F4D83
BD0DE6EE
BD0C5165
3E1ECD29
3B106908
BD271233
3D871775
3DA41E71
3D72ECDD
BCE103F1
BD379C5F
BAAE484A
BCD44A7A
BD9C779C
BD0F0630
3DA01F87
3CC559A6
3D910605
BD5D4C8F
3D499B7D
3D6288AE
BC4D731B
3D05991C
3CA735EF
3D40F8E7
BD9C3BFF
3CFC3443
BD1F8389
3C89BE0F
BC133603
BDC95880
3D06C8DF
3D0F9D74
BD193721
BD20B82C
BCEE6975
BD7D9AD3
3A817B93
3C560D5E
BD3814D2
BC528305
3C9CF26F
BC7A9176
BD174ED9
BD5525A7
BC3BF336
BDC3BE42
BD1711E0
BD1B5492
BCD8F38C
3D9C614A
BCE631F9
BCE60E8D
3BF4BD0C
BE0BBC5B
3DAB4E94
3D6508C3
BDA13E3D
BE2C1616
3D84433B
BC408083
BD526D73
3DD7C732
BDA5D754
3D8C3943
3CC778DB
3D804224
BDAAF4F0
BB6B7229
3C041B5D
3CE05CE7
BC6B9B04
BCD24ED7
BDBCB1E6
3D05BE38
3D84444C
3CB1A396
BB489B42
BC8E77C8
3D9E69D4
BD515212
3C5FC38A
BD802C6C
BC375887
3D2D12A3
BD44D5E3
BD7EDE55
BCB4115A
BD7B6308
3D1B397C
BD9CFD5C
3D298E7C
3D6E453D
3CB3476B
BBBB721E
BDED18C5
3C84C0EF
3CD475F4
BCA56EFA
BAEBEB3A
BD89CAF5
BD41D258
BDAFF876
BC4C1FE9
BD10420D
BCDCAFDF
BD11D0BB
3D537C0E
BDA04C5A
BD948D6D
3C7DC8C3
3D807C8A
3B6362AA
BD3367D9
BDC2C154
BCB7369E
3C8436CC
3CE5B3B4
3CBC7A54
3D1F539D
BD5B9EF5
3D144D7F
BBE7C027
3D3183A1
BCB322DD
3D46A813
BCC77245
BBF7F151
BD89E301
BDBF32ED
3DB80DA0
BBD4E573
BD60B78E
BD575D62
BDB8BCFB
3B94B20F
3DFB3AC7
3C3BA344
3DB0474A
3D6A06C2
3D28F9F7
BC956EF8
BD964250
BD84D2FE
BCEDC657
3DB14605
BDA98D2B
BC8B2F43
3DA0EBAE
BDAD079F
BD8E236D
BDF1E8F3
BCEDC052
BD5510D4
3D94C529
BCF503D8
BCE5D3CF
BD1BEC0F
BD74962A
3D47E41D
BCEBD860
3CE0F482
3C1D18E3
3D776877
BD862130
BC794DAA
BCCC0847
BD19E244
BD89937D
BD828A73
BE4D43AF
BDAF9066
3CF1D37D
3D0127F3
3A9DA88C
BCAFBE4F
3C61FBBE
3D0C0346
BC95E82F
BC05CD74
3D8B6D16
BDB06A92
BC4C11D1
3D978A56
BD34FA0A
3D3E97BE
BDA4DEB8
BD8A9E5B
3CF17A51
3D86549C
3C8CC840
BBB93DED
BCFBCDE1
3C4AF07F
BD1F7FE8
BCEAF6FA
BC332B30
3A2C4339
B9F3B9F8
BD68527A
3BAFCC92
BD99E0AB
3D1401FB
BCB66AB0
BDA166D7
3D9C6440
3DD700F6
BCFAB0DB
BCBA0AB3
3D39888A
3B50E996
BD50879D
3CA6BA94
BD475087
BD8BE637
3D91BA45
3CE6C2E8
3D372DB4
BD851EF1
BC9F2AC8
BD3837A7
BC60DA35
3D3F2A55
3D611251
BBB7C016
3D4619C5
3CB83D39
BE625601
3D8B5716
BDDD17B9
BD29321E
BE852C0D
3CA07CED
3D198CEA
3D914998
3DC4D231
BD813061
BD57224B
3E08C9CC
BE67C0B1
BDE714EF
BDE8E608
3DFE01B6
3E01DC00
BDCCEF75
BD7B85FB
BC9F68D6
3DFF860D
3D2EF1F6
3D57BAA7
3CC12E5E
BD1AA25E
3E47F7F4
3CD86694
3E3CA6F2
3E2F669F
3E372C73
3BB1F56A
BE10D5A6
BCB81403
3D14AAFD
3DF898DB
3DE6A487
3CD59DFC
3DC2830B
BCDA001C
3D3313EC
3DD15146
BE61B2A2
BE8D5C5A
3D4ADEBE
BE3A79FF
BDF8A2DF
BC17FDD4
3DDF9442
3DB115F0
3CA1B044
BDB1A8B4
3E551A22
3CCB6B94
BE497A5A
3D669B1F
3E59AD57
3E0C2E19
BE0BAF67
BD5A19CA
BE333D30
BD76680C
3D490EF0
3E908906
BCCB5010
3CEC0A3F
BD4C1C38
3D6F47EF
3D92B78D
3CB4F6CD
BE192BCA
3D4AA616
3ACF740B
BD957E83
3D900C9D
BE2162BC
3D8087C8
3E120DCF
3DF9C4F5
BC14C97F
BE5B7F1E
BC8A5112
BD1DBBE3
BE56C574
3CA22727
3D0828E1
3E3E0597
BE287BA7
BD1E33B2
BEBE9DC0
BD8E0525
3D303CEC
3D947E0F
BD0A7275
3E0F135D
BCD6E412
BD2C4398
3D6580B6
3DD38F7A
BCA79AEF
3DDA03AA
BD91D795
BE6084C0
3E5E36AA
BD13A7BD
3DFB3919
BD794CBB
3E2FFD3F
3C9F0219
3CBD6F4C
BD5FD842
3EBF33F9
BEA1700D
BE8BE070
3CBB2479
BD131B4E
BD820557
3CBDE6D1
BDE6BFA2
3CC07846
BE18FC57
BD4C5DCC
3E0FB522
BEA52BB6
BE0D3020
BE3DB86A
BD018B53
BE8BBB95
BDF09112
BDB7EE1A
BCB43DDA
BDB397CD
3D802D95
BD92243F
3C94CC1A
BE00983A
BC809C17
3D15AEC9
BE89DECB
BBA0A140
BCD35735
BDA6B245
BDBF7C67
BD33FC8C
BD3E4CD2
BD8EC212
BD6BF13A
BD407C75
BD9FD755
BC95913C
3D7D55D7
BD5FABA4
BCB88B31
BC0E896C
3DA1397F
BA3E7B12
3DA10A48
BD7A9DE3
BCCB74A3
BC798507
BE1241B7
BC6544BE
3D88B93C
BDC79CF0
BC1864AB
BDAC7A3C
BD95977B
3C4557AE
3DEAB73B
BDA402DF
3CFD6A7F
3DD91E21
3E0C22B9
3D2AE006
3DAF6C31
BC2F6E42
BE8C76E5
BE402921
BD823DCC
3DB988C3
BCD4914C
3D932A67
3DE78C0E
3DD236DC
BCB5E4D9
3DA64F2A
BDAC839F
3DDD1F7B
BD811A8D
3DB0AFEE
3DC58BA3
BB1D4A0A
3C391AB4
BD9F533D
BCA1DB72
BC403F15
3C457387
BB9FE6B0
3C6C35E9
3D2401AD
BCFE6784
3D6E92A5
BD87C5B8
3D66C7BD
BD601D2F
BD36BF0C
3DAAC73E
BDC613FA
3D969715
BDC2660E
3DFFB5B5
3D9B6FF8
3C4179D3
3DC9B678
BC37E99C
3D4BA4D7
3D336C16
BD5315FA
3DB02E6C
BCAFE042
BCCFE794
BD2CD06E
BD6AAD8B
3D8ACEFB
BDAB7C34
BBE87729
BD32B135
BD13B603
BD2A5BC1
BD763DD5
3C2B6859
BEA3C8CE
3CC69302
BDBFD75B
BD3B387B
BD012DD2
BD66B86E
3C8F1A0F
BD7A8275
BC8E2501
BC1CC517
BA879DD5
3D81658B
BD595381
3DDE35C6
3DAD84A2
BDEB1133
BCF66FC9
3C902E61
3D6363D5
BC9ABDCC
3D812C45
BD21E1DD
3CB77186
3DAFF030
BC0CC4A8
BD00028C
BCF61D23
3C2BB7A9
3DBC3094
3DCFBEAC
3CEC205F
3D979E77
BE10758C
3CDD0473
BDCC8FA4
3D8CEC30
BC11AAED
BDBADE10
BDF23191
BE147F99
BC0A1052
3CB83D28
3C5C3515
BE374744
3D3812C6
3C9C4D08
BDCF777A
3CD376E0
BD48C3A9
3D535F5B
BDCB7107
BCE8D23C
3E6FB08B
BE085C61
BDBF1E63
BC3DC838
3D6621C0
BC6BFB91
BE028AF5
3D8DAE8F
3C479F71
BD4FBCDF
BCEE2557
BD11ECA2
3B41E143
BD059569
3DAC2AD8
BD2394CD
3E3E4361
BD101373
BD676430
BC573BDC
BEE03819
BDE3EB11
3C600437
BD2CE5A7
3E2F2057
BCC6F8EE
3E2B920B
BD415B92
BD9B1692
BD58C61A
BD0EF709
3CE20853
BC3B6BB1
BD5A0B16
BD09E608
3D44BD21
3CD660E5
3D966881
3B1D137F
BD87D10F
3DBE8730
BE374A7E
BDB9082A
3E30F6CF
3D31DC1B
BD89CDDC
BCDBD264
BD85CB42
3D083330
BDFDBD80
BD9FF59A
BD3120B2
3BDC9985
3CE9DD79
BCC7E11B
3D4CBD0A
BD97E377
3BD52791
BDAB7842
BBBA121D
3E4FF215
3DD39028
3D28AFF7
BDC6D8B6
3E064686
3D945EEB
BCD72FA7
BD00F825
3DA213E1
3DC701E2
3C4BA027
3D13A3FC
3D4BF8DF
3BDE1C13
3AF23CE3
3D53705D
3E455835
BD8E9C87
3D3F36D2
BB276462
3D686FF4
BF085292
3B8A3C7A
BCCB6AA7
3D4B01FC
BE0E0BB3
3E0D1D9E
3DAAC154
3CA418C9
BD1CA9F2
3D338C5F
3D7433C1
BD11BCA6
BD7907F9
BDE6F09A
3D47F25D
BD9F338E
3DCA90D3
BCA9BF8C
BC3D2FD7
3D0596C8
BDA0C712
BDAFB6B6
BC06318D
BDB6E2F6
3DAE4696
3CE8537B
3E1DF16E
3CE40624
BC14976E
3CC615FF
BD34DD0F
3C56EEBA
3D4D490E
BD85F21C
BB4CDE10
BD765783
BE0A3381
BDE51761
BE0A1D11
BDE2E6EB
BD77A18A
BD02DBC5
3D8B91CB
BDB9695B
3BDFDDBD
BD33C801
BD699BB2
BD83C0A8
BDE187BF
BD9DD42D
3D661B1A
BCB07823
BD538BC6
BCBC9740
BB862AB0
3D02B5D8
3D988EF1
3C15ACCD
3B8E647F
3DF3467E
3D8FED2E
BBD17B59
3D97F064
3D91A18F
BC3D0772
BCA26ED0
BDBF635C
3D1D565A
BD5ADC67
BD621E58
BDEAA9DD
3CDA26D2
BE3A9EEE
BD2B9926
3DCB65B3
3D99B0D3
3C87DC48
3D25BA7A
BD477E06
BD9A9B4B
3B930CBE
3C88CD64
BDD00CF3
3D125502
BDC926E9
BDB7D79F
BD50169B
3D8B32E5
BCC597CA
BA22F547
3D9CF8AC
BDEC5E70
3DA33328
3DDF955C
BC83138B
3E92151C
BC907747
3DC67C8A
BD7639D6
BD7E0D19
3D4A6F07
BCEE9397
BDEECD80
BC1BFF94
3C98B879
3EA3FA5D
BDAA2008
BD1B474C
3D3F0B61
BDCA82B1
BD96F8F6
BD849943
BBF7690B
BC1108F1
BD980EAB
3CE0DE42
3CE0C476
3D6FFBE9
3D4CC8B6
3CE0FFB5
3D1122DD
3C9D14A3
BDBBC077
3E50950E
BD89FEB7
BCF7B219
3D3E357D
BD24C577
3E106AFB
BD9E2199
3DAC9996
3D06D29D
3D21A91D
BE4C0196
BCD97DD5
BC5D0696
3E043A57
BDB4EE2E
3D60B567
3D479761
3D828F04
BDEA42D7
3C5E323A
3D9FD718
3DAE1C70
BC02C9F9
BDBFF92F
3D282050
3C38D330
BC88529A
BDCFDDF9
BE0F515C
3D8EC326
3D63408C
BDABA2CF
BDC184B5
BCB781ED
BCE7F18C
3D8C0502
BC82C4A6
3C0C662A
3DF4DBB7
3CB52891
BD950DA9
3D868E5A
BDCD0918
BDD64841
BC4662D0
3C74F697
BBF69091
3D222AE5
BDED2921
BC2F92EB
BD1AE983
3D0E3773
3C2A8E1E
3CBC9BCD
3CCA13B0
3CD9A08B
BC2BF80B
BDA14DDA
3D9D0EB7
BD0C98FB
3D515B3F
BC5EED81
3D275FD0
BDAA88BC
3CECC9A2
BCE44798
BC2AEE35
BDA10033
3D464A5A
3D607477
3B309FE4
BBD49407
BD766CBC
3D8C15C9
BD2223FF
BCFCDB9E
BD2291EE
BD8F938A
3D26A698
3DD74320
3C15CEC2
BC92BE74
3D93EFBC
BDB1D5CB
3CF7AC3F
3C562800
3DE27708
BD41CE77
3CC29033
3D4F197E
BDB52F9B
3CE97143
3D19DB13
3D6F0F6D
3DB880B6
BD02798F
BD1CC548
BC96E8FB
3D958C86
3CA54163
BB0934CC
BD0F0457
3DAE38BD
BCA5F334
3D01B7AE
BD29FEEF
3D2E52F4
3C0CACF4
BC83B7F6
BA621A5E
3D8EDD79
BD931D6A
3D6007B5
BD26F718
3C7E9DF5
3B3F20F0
BCCE87BD
BC3916D8
BDCAE592
BDA844CF
BBEBC264
3DB6783A
3D4D98E0
3CFFA79B
3D95E321
BCF75ABB
3D119376
BD349210
3B56D34B
3D719214
3D845F8F
BBB07135
3DAAC9B1
BCF50C11
3C2678A5
3DC2ABB3
BD86208D
BD89F4E4
BD36FBF5
BD5FCE19
3DB93532
BD789CB4
3DA6AAD7
BD940700
BCAA03DA
BD91F6BD
3DBC156B
3CC1B653
3D000000
BBD6BE1D
3D81BE2E
3D1AE21C
3D174A19
BCFE7591
BD9CFB63
BD84CCB9
3DAC9A9D
3DBF3852
BCDF3B44
3D17A9F6
3B2442DA
BD78D42F
3B8CE89A
3D835947
3BC8BE46
3C84D064
3D3DC3EB
BD44F484
BD9A4B18
3D9F46B5
3D7E5E75
3DD1EB0C
BD6CF8FA
BD2BD797
BD85A3E1
3D7217E8
3DB4C9AE
3D8B2BB8
3DC2CD49
BE3CB8C6
BD0E7BA4
BC39CA9C
3D2A54EB
BDBDA03B
BB93DEA4
3C198AA0
3D2E6C75
3D1C7B41
BD32F2B9
3D85A4A6
3CBAA888
3B9D14A1
3D0ED6F8
3D260411
BCD32ADA
BC15088A
BC8C7925
BDC51351
BD858F10
3DBAE9BD
3D60567A
BCBD44CF
BDD6FF2D
BD478674
3D92EFA1
3D1A5B46
BD5A6338
3D29B032
3C6C5AFD
BDC471FA
3CBEDEEE
BCF4BB38
BB1BF1D2
3DD3C651
BD5BC3F1
BD8FA23B
BCD335E2
BCEC8AB3
BAB9B170
3E000340
3CE19236
BD8F6561
3D236F99
3B8B6597
3D8D2396
BC47401B
3C6EDAFF
3D0ACA03
3D6CEB5B
3CB77ABB
3C8C1BF8
3BDEC28E
BE0AAD8F
BC1F6128
3D4C100C
3D9BB0B7
BDF4C8A2
BD150375
BC9BE370
BD92127B
3DC1CA50
3DB26BF8
BCCD2EB7
3CE7D8FD
3D3EB28B
3D04C468
BD560136
BCC68BFB
BC5F4266
BD21FEB0
BC1F1CB2
BD10B006
3CA5374C
BD101241
BDA4258D
BCB4BD31
3DBBC5D4
3C4E1374
BD842211
BC49E9EE
BD80392C
BCEF1B31
BD9F0C8D
3DBEE730
BC8BD60D
BDC6458E
3D00E67F
BC7CF3DC
3D23F9E5
3C8A1AFC
3DBF3E18
3D00C0BA
3E4471EA
3CF4F04D
3CEFF8E7
3DDCF066
3CB0B4A3
BDB96B08
BC4F13EF
3D8C9582
3D2F6FCA
BD391311
3DADBFD1
3D9DAD99
3BBCC57D
3D007CA8
3D8B666A
3C6BA14E
3A23E252
3DB561D2
BC208522
BD5BB4A4
3D37E3A4
BD6921CA
3CEA531B
3DEE6F57
BDF69A9E
BD1826A8
BD21A5D5
BB055453
3CFB68D2
BD6CD23E
3DA01BA9
3D859D10
BCF4CD67
BDD7414A
BD6A285D
BDBB161A
3D8F8C45
3D53099D
BD83DEE8
BDFC347F
3C9D3BC0
3BB08A3D
BBE7AFC3
3D9DA5BB
BE89A148
BDDBCBB0
3D566537
BDA0FAE2
3D31430E
3CBC7587
3DA5C8F1
BD06EB9F
BCB7340F
BDC971B1
3D60B65E
BBCE1939
3E0DCC57
BDC23DA4
BD591BA8
3D0A7DE3
BCA637ED
3D925F23
3CC73503
BDE08B18
3DBAC896
3D52CE36
BDDED7EF
BC407048
3DB9BBB6
BCFC7790
BE071950
BE089A31
BE25E23A
3E1734BC
3E76C3AC
3DD0B26A
3D668377
BCF58A71
3CA8E84C
BDE1494E
3BA09A5B
BC7EF432
BEE9DAAD
BEB0C203
BDA766EE
3CC33219
BB259326
3D224478
3D64BCE1
BC268713
BDBAB8C3
3D8D2663
3D25FEEB
BBB53208
BD88A7D8
3C01D4DB
3E1DFC78
3E20AEB8
3CB131AC
BDB3301F
3CE1594C
3DCF8297
3DB909E0
3C46B2C2
BD0CBD0D
3D8B6D7A
BD32CDB0
BCE33BC4
3C666C46
BD3A09B9
3DAD1239
BC406312
3E09AF4E
BDEDE241
BDE24A93
BC4C2385
3E834CB5
BD129239
BDA20345
BCCD4558
BE731705
BD9E4A13
BDF0619F
BD20E4D5
BC1D0737
3CFA4F31
BD396A09
3D485945
BD221A8C
3CA25733
3D29618B
3C85E4B6
3CEAF592
3D622356
3D9AE237
BDE00C88
3C980341
3DDA0EC7
BBD82B34
3E0C6DFC
3C7D75AC
BE3F6A07
3CE3C770
BD92FE12
BDB97B03
3B7F3ABC
3E3DA753
BE02155C
BD1571FD
BDB4D5D9
3E166BD4
BE8F3E1E
BE2722B3
3DBFD2C6
BDBA115E
3C7899C5
3C9FA9BE
BDBF9618
3C322287
3CB9E0A1
BCF0F1C0
3DE9F7DE
BE0EECDB
BC092A3D
3D427B07
3D876BFE
BCF1A34B
BDD36EC2
BDC984B1
BD9449DB
3C729C55
BDD3DFF4
BE169A04
3C8E8E58
3D832860
BD953979
3D8B4C34
3CD7E483
3C43E67F
3D857E4F
3D13CB0B
BD06E991
BD5997C1
3DAFE819
BD970363
3DC453E9
3BCF35ED
3CBB5048
BD81CB48
BD8E9BC0
3BFC6BA7
3D6D881E
3DA8900A
BB5F6556
3CDBA4D7
3D70BE16
BD2296E4
BDAAAAE9
3D3A84E4
3D4B170D
BD0917B9
BDCD041D
BB1F74EE
3DADEF2C
3D86C4C0
3E0FB58D
BC762927
BCF2D43E
BC949945
BD01B189
BD93420E
3DC0972F
3C5870BA
BD3B39D5
BD430A33
3E3DC798
3D7D301A
BD596E1B
BA1DA6FB
BDEA0ACB
3C8DAA32
BC81FAC7
BE385978
BB01728F
3D942706
BDB2AD21
3E0EC76B
BD8EC525
BD34B257
3D9A8F40
3D9B051C
3CE05D22
BCE1F8FF
3D3CFF78
3D011A34
BCD308DC
BD1932E2
BDD7F349
3D05461D
BBAB9BC7
3DB76D80
BD8375BB
3D9AF376
BCAEC50A
BDADA208
BC11C09A
3D74ACC8
BD6D68F4
3D3F2FF1
BE058BBF
BB0FC368
BD4153A5
BD57CD09
BD368441
BD798E21
3D5F1755
BC4FAEEA
3C628DCA
3C569B78
3C3206E3
BD290DA8
3C8355DB
3D254752
BCA4E26D
BDE219F9
BD971184
3D6D6942
3D5C5F72
3D1E6B8E
BD9A511B
BE29922E
BCC7E0BF
3A5B93F8
BD82D40D
3D4BE6A1
BD8351A7
3D9ACB3F
BD270D93
3DB32296
BD9168E6
BDA86E12
3D3C9247
3DA72B45
BBF41705
3E139892
3DDEECB2
3D8CAF36
BD008F24
3D05CDAD
BD90E860
3DD891AC
BD310E4B
3DC7859E
3D9AC5A0
BCF40348
BD93649F
BD861E2A
3D3E6556
BC722018
3DC56BE2
BD143CB3
BD08D40C
3B025C77
3D9A4A7D
BD9D3470
BA9730BC
BBDA8EEF
3C893E32
3D542ED6
3D294BD4
BD0012C8
3D0AA53A
BD94CC40
3D2FED43
3D3F6065
BDB399C0
3D4C621E
3D06BFB2
BCF004DB
BC858DAE
BD99F38D
3C64F0FB
BD7568F0
BD6819C2
BC81E90E
BD0B50F7
3CBE922C
3C69897C
BD877A42
3DBC04C7
BD91BD7F
3D521221
3D8D63BD
3D69CFC8
BD6B5E8B
BD4E0B49
3D8FF627
3D8A5C80
3D0ABA66
3DE93D1E
3DC9FAF6
3D886894
BD2EDD60
BD99CB99
BCECF91D
3C0B3DAD
3CA262F7
3C920591
3DCFDC81
BD8C5F05
3D10F4B5
BD97D553
BD8514C4
3D811220
BDBA1D6D
BC4BFC17
BD43DEBA
BD9E649D
BD2606A2
3D6AFD42
3D31A277
BD80F1AC
3DA8093C
BDBC4A24
BD4D3A0A
BD05F88D
3D9646D0
3D666623
3C8B5BC4
BBED1580
3DABCE14
3BD4CB72
BD6CC174
BD4A09F4
BB9B8ECB
BDCA87DC
3C93F75E
BDA54D5B
3CD66004
BCEB24FD
3C8D977D
BD95A0FD
BDF41FC2
BD95A4D0
3CA44CAB
BD9D32D0
BD992CF2
BD8A0369
3D186506
3D229805
BD1CD8D1
3CD581A7
3D37D6B4
3D31B790
3CF8899F
3DACB028
3CB1F703
BD9F8CA5
3D7F73BE
BD001F80
BB9E817C
3C63899D
3B788CD1
BCC8C18A
BD2EC0E6
BCBA156A
BD280771
3CF91621
BC679BD0
BDACDB8F
3D814E96
BD1F6F39
3D664628
3C054320
3D672CCD
3D519071
3D78AFCD
BBD28F69
3D544CF6
3D646786
BCFB6338
3CE54E49
3C63DD35
BC241CB5
BD00D167
3CE93558
3D8C1031
3D9F97AD
BCA2A7B5
BD8FFD64
BC4B4BE4
BCCD1BAD
BB0C3E16
BD0CE945
BCDF6B8B
BAF22B56
BD95018C
3C4DB47E
BD6A2B62
3C6968C5
BCAA4BA9
BD7B5B43
BCC3E934
BDE997D1
BDC105DC
BAE39487
3D422EAE
3CF3CF80
3D4ADF52
3D3B1753
BDF52546
3C4EF0C9
BD4C3AA4
BD4E7B0D
3D52BCFE
BC0D3F79
BC9D1C9B
BDBABA16
BD06AECB
BC9F46F8
3C5E5865
3C610B53
3D9DB1B2
BD1D5C11
3D051985
BD2D819E
3D7E33D8
3D89F4C5
3B48F925
BDEC96BF
3CBD890D
BD2E7C14
3E051860
BCDF7947
3D6A5F1F
BDBB67F8
BDF5CF25
3E3252DB
3D944B6B
BD648FF5
BD1FAC00
BE678818
BE2DDEDF
3D8ED974
3D05A1AB
BC78466D
BD47D7C0
3CCA5A0C
BE1474A4
BE072933
3CC0ACF9
3CD71B70
3D667585
BD82E3A1
3BBD7493
3D48DD59
3E30E5B1
BD1E2CDC
3D99ADC9
BD6A87C3
BCDFF6A6
BCD23DA0
BDC6A140
BD14C5B8
3C776694
3D787D0A
BCCC8768
3C69876E
3C5EA3AF
BDAE47FE
BC7800D8
3E070358
BD97EF78
3D45E9EC
3D8F3095
3DB40789
BDE45309
BCCEF8AC
3D4EF69E
BDE5149A
3DCD9422
BD1D91B4
3D82CDC8
BD01AC0A
3D4B8BBD
3D807379
3D2411B8
3D241D41
BDB98DCF
3D9468E6
BDBAE624
3E30CDC2
BD86FC6A
3D8191F5
3D16AF0C
3D3DC974
BDEF8B3E
BD40D20A
3BE51357
BCC2E46C
3C1CF6BA
3D31CD52
BD8CB140
BD7B6A72
BE01BD62
BD0A33AE
BD5CD4F5
BD94DB69
3CE42D87
3E037840
3D8C84BD
3D11D39A
BD9F1EE8
3D973BF3
3D644FC1
BDA7BA90
BD9BB84E
BD848A28
BD72E8EE
BCEF2841
BCADDB80
BE1E2E6F
BE061DD0
BC402C60
BB44CBE2
3CE620F7
BE54D614
BD8BF4A6
BDE87428
BDC01B10
BD94DB47
3D4AD47D
BD0F6C82
3D29968A
BC41CEE2
BDEE4EFE
BD8940DC
BD931D89
BD7F573B
3D8D9676
3CD48F23
3A8B839B
BD3917D4
BD38DDAA
BDBF91A5
BD08BE2A
3BFE9FB6
3D8CA2AA
3B41ACD6
BD2EEA33
BD2257D1
3D44A7B8
3D673A06
BD41B237
3DBB86AD
BD877184
3D7E0722
3DC7B44C
BDD7512D
3DB25785
3DC4611A
3CDF9795
BCA11788
BD148129
BD831023
3E1983A9
BD017830
BD7DAF7E
3C1F3586
BCB3A229
3D1825D4
3B8599BD
3D5CC36D
BDF892E1
BE866A62
BDB4C803
BD861BCD
BD56ED34
3AED2611
3D02A330
BC87E1CC
BC6307D7
3CD43CA3
3D0FD04A
3BB3E028
BD9A9B21
3BCE77B7
3E062740
3DF5227F
3E0A8D5E
3D134F6B
BDA64076
3C691FF4
3D808595
3D88661E
BD917789
BD06892C
BD6FB0A5
3C6090CF
3D7E3171
3D6D5A56
3D8E5962
BD45CB29
3D0206F3
3E0CF404
BDDB0278
3C8338D5
BDBC7D45
3BEBFD83
3DA3D9AB
3BB07DEA
BDD1B1F4
3D9B1004
BD3E9C5B
BD7062B1
BDAC31E3
3CBC3BB5
BBAC97A1
3C851AB2
3CDC96FF
3CDB61A6
3CB69CDA
BB3312C5
BDBEA4DE
3DD18E40
BD9FDB72
3D9E39C0
BDE41DDF
BD6C8460
3BFBEA20
BD972CC6
3DEB0BF5
3ABC5AD3
BDBC18CC
BD6CE5FA
3CB5BAA7
3BBC5D53
3D1EF437
3D90C82B
BD02F464
BCC05439
BDC86954
3DBB3690
B97931D9
BD9404FC
3CBC7455
3C210F33
BD0721D3
3D15B38B
BD7A39AD
3CDF8B86
3C5925CC
BD091B4F
3D9716B4
BC4A5543
3D92392B
BDAE8049
3C0A37D3
BDC7B4D8
BDF8EDCA
3CBD80E5
BD9FC856
BD8CABF0
3CBC0B13
BDDBA296
3D83288D
BE29813F
BD15B871
3B2ECF8C
BDD88CA4
3D7DACB4
BD8D0912
BCC88651
3D4A96B7
3C83D344
BD426439
3DB0C584
3D58149C
3DA48BBC
BB6F4BDB
BC532AAA
3DD46116
BDB2EA13
3D6F7221
3D18328C
3C54D834
BD9ED397
3DA7729C
BDE80E21
3D4305FC
3D230A4E
3CA73274
3CCF3BB8
BC9D17CE
BDB1FA78
BCDA936F
BC540FB7
BD010A7A
3D0219DE
3C7365B3
3D6BB215
BD23A27C
3CF5EF70
3DE392FD
BD06A73E
3D8520FC
BBF1D403
3D3224A8
BD6420BC
3C8A74C9
3B8517A8
3D7733D6
BD037739
3C75C198
BDE0AF6D
3BEAFD22
BCF94C1C
BCD269CA
BD869F6D
3D851371
3D751370
BD98FA50
BD1D14A6
3C78572A
BC5E1636
3C4072C2
3CD2DD1D
3D9A828B
3DA945DE
3D852274
BD8C0CD2
BC90C6E8
3D92FABD
3DB00CBC
3CB01297
3D64371C
BD814F89
3D9EDDC4
BC9D8359
3D14DE74
3D3250D5
3D5C5091
3D103EBF
3BD68F23
3B97B927
BCB6FA07
3D213E84
BA6991FC
BCD9EAB8
BD4D12C8
BD205EDD
3D02E997
3D803A0E
BDB5F818
3D7EA280
BD498EE2
3D7AF595
BD8C7BB5
3AD0C6B5
BD4BC5B6
BD9D5A7E
3D3E6AF7
BDD19115
BD75DA95
BD41FB90
3DA6CB24
3CEDC5CB
BA6DDB35
3D5F2CF9
BD80CED1
BDBC05B2
3DC67151
BADB7AEE
3B6057FC
3D915FCF
3DFFAF78
3CFA23B8
BD097D80
3CA8FDFB
3D8D7A6A
BD565DBA
BD089723
BD930030
3AE274AA
3D595A8D
BD4D9329
BCBFBAB6
3D444207
3D858906
3BDE3575
3B463AEB
3B9DBFFC
BDE25793
3D3574FD
3C901B51
3CA8A8AB
BBD3B047
BD6C8257
BD07DAAD
BE2A7137
BD8BE820
3DBCCA09
BDA59C8E
BD5E3E3F
BD36AA41
BD404822
3D8D707E
BD8512F6
3D822D6E
BD371865
BDDED586
3D4D187F
3CD1466F
3D1F66F3
BD454262
3CE7B7AA
3DC22C46
BD9DED70
3E142ACC
3D8E5160
3D0E0A92
3D90C232
3C7BE777
3D4AFBF5
BDF44CB1
BC842C14
BD2BE55E
BCF16512
BD9DEC6F
BD66AB25
BD262DE4
3BEB6BEC
3E93E02A
3DCC387B
3DDDF373
BD0C534D
3E4EA804
BCC62365
3E3B902F
3E2F7A5C
BE959037
BE984DBD
BCABAF16
3C061F68
BCD13C38
BD4DEE4D
3EA68478
3E9B37BC
BDAA9EE6
3C662B38
BD88B30E
3D932072
BD082AD4
3E2299D9
3BDC3CEB
BDCF8E99
3CFA0483
BD8DD0A8
3CC135C5
BBC64A11
3DBBA902
3D330E62
3D397F48
3D7790C6
BD834EF2
BD1A1011
3D688E59
BDB26B75
3DCEED53
BD2837C5
3E1CF0A3
BDB0C7AB
BD02931A
BDC0C948
3E099469
BD3A9A70
3D519D24
BD54E21A
BE9D1D73
BD52B89A
BD86FC3F
BD988E5D
3C9B4C11
3C1E0386
BB474150
3DCC3C1F
3B853EDD
3D419AF5
3D80A1DA
BD11E3F6
BDA34E49
3DFEEEBE
BDAC73BD
BD49B0BE
BD0783D5
BE34BEC0
3D3F4F18
BDAA8154
3DB92EE0
BD1A7D85
3C9C779A
3D288EC5
BD1865E8
BCF7D8AA
3E054E53
3DA53C54
3CC0DB01
3DB4F35E
3E0472F7
BD6F4F6B
BE4FF815
3CA1F9DB
BE04B718
BD17E463
3B6AA271
BCEB7B84
BD84CC82
BBAEAB80
3B2CF8A5
3E11099B
BDFBA012
3DA66226
BBE1E852
3DA7021A
3DA997FA
3DBF9D05
BD180E1E
BE01B74D
BDB5AD10
BDBFC44D
BD32125F
3DB9892F
BD5B91F4
BE22F8C5
3D053D39
BDA7CF5D
3D46A9A8
BAF03905
BCB46364
BD8EA9A7
BCD44541
3CE88CDC
3CAE34C7
BCB9771A
BC0B2B1D
3DB23603
3D11ACE1
3DDD611F
3BC19CA3
39E4A921
3CE87357
BE0F3FED
BD6D1585
BDF82BB3
BCF035B3
BCD51E90
3D2A36D5
3CA52BBE
BDDC29B2
BCB2D3F8
BD10AF07
3CD9E4A3
3D48119F
3CD64A19
BDE2F471
BCA23067
3CAF6FAA
BDAFA37C
BC1793CC
3C7403E9
3DADF77D
3BC449C2
BB5184C2
3E5A82C7
3E462F38
3D6ED8DB
3CC8DEB1
BD27C0B9
3D54D4F4
3DBEF2EB
3D27F01C
3DA11C72
3D8A86BA
3DACE774
3D298CEA
3D21FFEA
BE38B34E
BCE5DD6A
BC7919C7
BB5B967A
3D639828
BC517C74
BD14DF05
BDA97919
BD87BC90
3C9F0AA7
BD920B12
BD42A4C0
3C45EF63
B93C2B6A
BD75D43D
BD8E3630
3C446D2D
BD269DFC
BD2FB0D8
BD283A5C
3D31FBAB
3E18BA48
BD0C388B
3C899E64
3D9CDA72
3D39F00B
BD8C1184
BCB1EB2A
BDA1D1E7
3CAD0C93
3D43E044
3D847E00
BD166A1A
BCCBD6FE
3D34148F
BD07C267
3C8A6BDA
3B26746F
BDB5732D
BD123BB2
3D6C181F
BD852278
BEC634EF
3DA3DE1A
BDA00A8B
BD68F979
BD9D6489
BD06BDE5
3C890273
BD536449
3D2FF14D
3DD08985
BC2EB80F
BDDCE87B
3C55054B
3D43C3BC
3E11C2AE
BD94B8F9
3CEB4955
BD2BF734
3D79CEEC
BC4D0948
BD86A00C
3D62A29D
BC795480
BD9A8CE3
3DE29472
3CCA91B9
3CAE1643
3D022894
3D5C6213
3DE42EDC
3D4D99CF
BD5B0A3F
BCE6D262
3D166A35
3DB5E6E2
BD29BFB7
3B43C801
BE438ECB
BE125595
3DC78EFD
BEA59286
3E40C11F
3CAD0C38
BCD99964
3DAE353B
BD116898
3DB5EF68
BBC234D7
BCDD8033
3D8E9C32
BD54D740
3E12767C
3E269623
3C64F35F
BD9ADC88
BC9F43ED
3CDB28CB
3DC84DA6
BE2E0928
3CA06AF4
BD474521
3D36C620
BD8430C6
3D793CD5
3C1876C4
3DC0C774
BD18AFA7
3D917838
3A677F63
3CFCB9AA
3E7498A2
3E25F19D
BD9B35CC
BE566355
3DA271DA
3C7F576E
3EBB5B85
3CDC0C2B
3DA9FDFB
BE684231
BD7BD1C0
BD48C8D1
3C63CD24
3DE65EDA
3F0779CD
3EA08176
BE1444AB
3DC9C941
3E0A066A
BCB52C6D
3CFE6896
3D99AE4D
BCB62729
BE8CE2ED
BDE4E9ED
3E46EE38
3D8E865B
BD5937DD
3E0DF4BC
3C951FBD
3D0B9ADE
BCF7D96B
BD7F1A37
BC96F20A
3D848607
3DB71C2A
BE0A5F05
BD8378AE
3D24E83A
BC8EE642
BD008DAC
BDF527E5
3E63FE56
BDB1BD3B
3DA3D712
BE02F647
BE5990F3
BD2AA22B
BDD30E2F
BD217A31
BC7D70C4
3E455D44
3D54FF16
3CDA907A
BD59D9A8
BE08F118
3D9B2A11
3C0BC190
3DD8711D
BDC7AC37
BE3BE342
BCE0C644
BE5E81A3
BF016D94
3E183E6B
3D9452D4
3DD365A3
BC9A21F5
3D4DDCA2
3DF0B1F1
3D5309C5
BE17BB80
3E1AE00C
3E28E652
BCC71842
3DD25DEB
3E63F819
BE04DEFE
BE409B59
3DD128CD
BE01C38B
BD192EF3
BCC68149
BDBE8052
3DAADAC1
BE27D637
BE242C79
3E8A3B8A
3DF25F48
3DCD1768
3D1036CA
3CE5D7AB
BE1C56E3
3E6E40FE
BDFB5F95
3E293371
BDCFA913
BCD91357
BDE38A64
3DEDF44A
BE09349F
3DB978B2
3B800635
BE3A8BD9
3CE51C5F
3D702138
BD734798
3D11D8D8
BC542C9D
3B8F62D6
3D411EAE
BD5B6D01
BD141FB2
3DA33004
3D258EC5
BC36B3F1
3D8A45EE
BCFF1BFA
3DB541DC
BD357FB1
BCF11C42
BD4DB0D3
3C0BC3B1
3C56378F
BC5F0B3E
BC087B84
3D538106
BDB55C63
3CA99CFD
BD8F6255
3CD1DD17
BD48B13A
3D20A05C
3CBDB19C
BD0093AC
BC2A5E58
3D7EEFAF
3DD4D489
3D64362D
3D3ADBC1
BD63EB6F
3DEDC89E
BE1DA1F3
3DBA5A70
3CAF5786
BDB1F7F5
BAF899FD
BDA32633
3CFC801E
3B95BE0B
BD57BC9D
BC3DC136
3D2C518A
3C1399AB
BD451C7F
BBFE2A79
3C1385DB
3BB33DBC
3C95BEFF
B987CF96
3D816CF2
BAFC6D01
3D88C024
3C149750
3C92B102
3D68C78D
3D9DB84E
BD0D775A
BDB785F3
3D92D2EB
3CAE1801
BADFE982
BDA70B8C
BD869DB6
3D252D16
BD5F88C2
3D6AA865
3CB43511
BD7BECD8
BDABA531
BDE91644
BD2AEB41
BD947903
3CFB6F01
3CCC2B11
3DA204D9
3D709F47
BD17E026
BD9E1B85
BD472904
BDB43C21
BD9767A8
3D7219E3
BDA665CF
BD28A240
BD08B0F1
BE07DB03
BCD9DFDB
BD0452AB
3CBD5E65
3DC69DFE
BDAD7BA6
BC53C7A8
3DA133BC
3D3B6360
BDB418DB
BD4216AE
BDEAC703
3D54E71D
3D7DE406
3DEEEA64
3D78BAA4
BCEAF135
BD85C495
BB219E4B
3D8F8D9F
BD4E7AA2
BC05B010
3D6D9FCE
BD9D1973
BB81DA44
BDCFE8AB
BD4524AD
3D818631
BD82A465
BD3E9E8E
BD965699
3DDCFF65
BCC660E2
3DC715CA
BCA8F2C8
3CB0B53A
BB82126E
BB3CACDA
BE42D278
BE0EAE41
BDDD6833
BAA8F831
3DD3BF07
BCA1ECCA
BDBC3564
BD8223F8
BD430977
3D91AB5C
BD1BB187
BDC81B24
BDB8E04E
3DC6FF6F
3CADB6A7
BB9F1983
BCEB8844
3C8C2496
BCB72586
3CD31089
BDA5CBF1
3E3106E7
3DD68215
3DBCBE85
BD49E54F
3D014BA5
3D39D79A
3A47C623
3D7078D1
BB5A8F83
BCA79B60
3D1E7737
3E18DCEF
BB827174
BDA16671
BD412EFC
3EC5E59C
3DC1F0D6
3E445671
BD81E34B
BEC21DFC
BE9DD3B8
BDA23568
3D5CEE76
3DD63AAD
3E00C261
3D7B8430
3D85E307
BE22719B
3CE5FC74
BD635F30
BD091C87
3D832226
3DF7357E
3D9ABAAF
BDFBFA3F
BE064CAF
3E184308
BDBEB184
3D4F4682
3E260935
BD1C3890
BCB40520
BC69B2F7
BAFCA775
3CF862B8
3D35E86A
3E0FBC22
BDE98A4A
BE0637F3
3DF6E0B7
BCBCB9F0
3CE76D17
BCE8C47A
3E595168
3C8EDB85
3D1114D0
BD0F7871
BE9700EF
3E6C6661
3D2F29D4
BBE299D7
3DC55A75
BBF48966
3D0EC6F0
3E356C5E
3C1C06D7
3D6238DD
3DA3A52E
BB752820
3E51D7AD
BDCAAB95
BBE91F2B
3D823798
BD5145E3
BEB29F53
3D932969
BD911799
3CAA318D
BE1A4B19
3B791C14
3DA3B983
3E2A7B70
BDC00841
3C72EA8E
3AEEE9F2
3DF06756
3D2D299C
3DD72A97
BD2B56CB
BE52A48B
BAE27E20
BDEECC09
BDCD9224
BC805A83
BB6FF394
3CD4E5DB
3D636E6C
BD715A48
3DF01A0F
BDB4B0E4
BDEAD8D7
BD870EF0
BD3E398F
BDF384AD
BD814808
BD24B2BD
BD9A62B6
BC6A8732
BD811293
BDEF052E
BC9E0B94
BDA6A1C4
BC924842
3C8DE02D
BD897B6F
3D826167
3DE493F1
BE053303
BD84E674
BBE33055
3CF7E59A
3D43CAF3
BCDD8694
3A9692FF
3D45F83D
3DD4C1EC
3DFA1DEE
3D18ED9A
BD0E1359
BCC461A9
BDF7896F
3D14E108
BC6670CD
3DCED479
3D811F6E
BBAC2818
BD47F82C
BDA14A79
BCD183A6
BD39A997
BC9E6627
3D88DCF1
3DC60194
BD034AC6
BDB68F51
BD1D1CFC
BE0E07EC
3D06FAB6
3DF5E270
3D92D13D
3E6D11D3
BCEB17D1
BE7295A0
BD2B23C0
BD9A7622
3DC895D5
BC1A1CF7
3D7E696A
3DA1539E
3E4A0D06
BDE8BCB8
BD5B5A8F
3D157CDF
3D000BE9
3D92394A
3DCB2102
BBDF6545
BDD54CE9
BDDC6328
3E331BBD
BC9A29ED
3DB67908
BC1C8012
BCC3CFF9
3D26B3F7
BB4EB9B3
BD84958C
3C99BBD3
3DFC12AE
BD1CCA5E
BCAFA3B2
BD4B998F
BD4C9A78
BDE81479
BDD27A8C
BD8DE6DD
3E428262
3CD05F29
3D5F9F1A
3C9DF91F
BDDB5BCE
3D8CDBF2
BD247202
3D7E930B
3D9D601F
BC9091A8
3D63443D
3D82F413
3D867209
BB90F2E6
3D913FAA
3CE43F14
3E21239C
3D1F0DE5
BCCC4AEC
BD4A9C9F
3DB9D451
BE174A4F
BD9C5A8C
BD3BAE34
3DD0171F
BE1BDE68
3D567EC8
3E38170B
3DA82917
3CF53E60
BC3CB8E3
3D8A9CFF
BD32C758
BCD25C0E
3D708891
BD166730
BE235C8A
3DD020FA
BE0D622B
3DBE0FED
3DFEC022
BD1B52E5
BAACD310
BD9227E6
3BD8DFAD
3DBD8069
BD665E3E
BCCC8971
BD95FCC2
3DA5D422
3D862C6B
3D9BD39A
3CF145F9
3D27E717
BD835108
3DFE5A28
BD16902D
3CFDCE32
3CAC6701
3D046C9C
BE5A5C45
BDF40FB7
3DDFACB1
BC84B6E4
BD661B5D
BDD456C2
BDD26EC0
3DD63498
3E645297
3D028754
BE0D5EF2
BD2CA822
3DE2AAFD
3D9F12C0
BE0EC9C1
BDCC0060
3BFC57BF
BCE0740E
BD222B69
BE691821
3E939A0A
3CF27F44
3D503C4B
3E879325
3DDB7E26
BD33BB3E
3E2656E2
3E05EA5A
BE1CEA5F
3D189D3B
3D66DA37
3CA07BE6
3DA3AB5D
BE833FE7
BE4C5BD8
3E7B0C96
3DC17774
3E06BF08
BE0D4E7C
3E52F87B
3C868469
BD8E76B5
BDD042F4
BD0A23F0
3E5AEFC0
BE8CD0D6
BC5BA66F
BE476018
3E83B037
3DB1E38E
BDC4D724
3DE7735C
3D49F009
3E0423C5
3D91E2C5
BD125423
3E48D5C7
BD34B5D5
BD594818
3E1F9A72
BE91A914
3DAE0200
BE75F634
BC8891AA
BC6EADBD
BC0213A4
3DF4EA73
BE68FBD1
BD658B3D
BE00E41E
BDD7A411
BE861112
BC9C9918
3E381F89
BE0DC9E0
3E89A607
BE34EF38
3E629A5F
3ED311E2
BD2BE05B
3B4E9B0C
BC481619
BDA1DA53
3C9D6A34
3EB27869
BD886CB7
BE7A5432
3BAFF27D
BDBEEA90
3E6D3804
BED02101
3D32A4E0
3E120BB6
3BC143EF
BEF876B3
BC6FC8FB
3D8FA86A
3D8CC5A7
3E34DE6B
BD2A77E6
3C00525D
3E1E67C3
BE4170D6
3DB0C149
BC7FD0C6
3E23578F
BDF772BB
BE275918
BD1A98FB
BD1F7429
BD54816F
BE15E7C9
BE3A8E8C
3D10654B
BDC794F2
BCE1ED15
BD94C754
BE670BA1
3E816F22
3E1D091F
3C638104
3CEA1B98
3D690679
BE2FB982
BD12EC79
BD8513A7
3D205E6D
BE54FC6E
3D566511
BE1FEC0D
BDD454A9
3DAFDF21
3D6341E1
BA194A85
BDAE4EA1
BD947C59
3B8B9924
BD104B4C
BC9D47CA
BDAA8589
3E182547
3C84CBAC
BD5118BC
BC867E7A
BD84A02B
3D38DB99
BD3F32EB
BD72396E
BBBBEBD0
3D6B81D7
BD5B33E3
BC917F9A
39E47C5E
3D73918D
BD442CE8
3DA6C7AE
BD4D185F
3CC3C3E5
3C0C503D
3DA1FE72
3D396E6B
3D288E62
BD14292A
BD594E76
BC6E5BC8
3D73F1C7
BD36E0E8
BD40E802
BD6D0FC6
BD11B75A
3DDA4A49
BD8832DB
BE91709A
BD4A11C7
BCA56AA3
BD9E9BE5
BDBA55BA
3C0ADBCD
3D594056
BD9CF1A0
BD115B5F
3CC5D8A7
3D7FECE8
3D1402A6
BD1EE5CC
BD870F41
3D16BC45
3D42DE09
BD2949F3
3DC0E357
3C8F9C6B
BC98CDA2
BD291568
3D680647
BD350B55
3B021FC8
BCC1DD90
3D3F0CCB
BCCF2B1C
BCC5A093
3D0093FF
3CEEAD42
BAB5B26E
3D4B6A92
BC805D5D
BD8E2F56
BC9B1BF5
BDE34E41
BD877242
BDE115D2
BD19CC17
3C4D0150
BCC4E202
3C0F50B1
3D580405
BC0DE050
3CB7D5A5
3D2DD4FA
3BC8926B
BD01764D
3D8108B7
BD14D98C
3DC523A3
3D716769
3DD2C01E
BCE1779A
BD8AA7A2
BD2B95FB
BD76B360
BD46E834
3D3678E3
3D099F79
BBF4335F
BC910526
3D4E632A
BBE4FC48
BD6D0D7F
BD8BFB8A
BD8942BC
3C526491
3C070F54
3CC79D93
BE47FE1D
BD7BD5F7
BD15BE78
3AA5640E
3D6125EA
BD519A2C
3D6B8A7D
BD7A54C5
BD713C68
39F34BCE
3DA27C58
3BC8EB25
BD568187
3CDCD83D
BC35583C
BE15261D
BC230881
BCA353E2
3D9CC793
BD1D1224
3D625CBC
3DA061DE
BE0B4FE8
BE9C5184
BEED82DC
BF50ED64
3DB63C06
3E1C69A2
BE80193B
BCB81BD6
BE72AB70
3E2876D4
BD4A6A21
BE4D87AF
BE021F81
BE12E515
3E430157
3E1C3F81
BE1BE1D7
BE51A20B
BE0BBCDA
BE0E4961
3DD662C8
BEA7FA6E
3D604987
3D9883E5
3DE464B4
BD71488A
3D00F1AD
3E3A2934
BDF1105E
3E188752
3E061D00
BE087A36
BDDC3F3E
3D5DF5E2
3DA98D07
BE4E767F
BDFF51D5
3E43B101
3E417C29
3EAC9EB7
BD5AF252
3DF59048
BE553742
BE18375D
BDEE0689
3E030E22
3E4A1767
3EB8B238
3F0B2465
BE2683AE
3E23D37A
BDB81E56
BD24C013
3E8537CB
3D0869CE
3C3B77C6
3DB03EDE
BDE8523C
3EE130CB
3DFA499A
3DB7DED5
3D3575CE
BD9D8A01
3E1CA7C9
BDA3C0C2
BE245A52
3DB41401
3D1A2474
3EE0D895
BECABC98
BD730909
3E0356B2
BE0624F8
BE217EC8
BE7B334E
3F06E621
BD90A99F
3DBEDF21
BE24DBC5
BE799BB9
3E915567
BD869CB7
BE5E3249
3D8EA264
3C9852C2
3DA30717
3E3A2835
3D307F34
3DC5E8E1
3DEC6294
BE768633
3DCF3153
BE99D484
BCD6FA88
3D832A6C
BCB8984D
BF4C1755
BC978441
BC90C6FD
3E5531FD
BE38D29B
BDC44628
3E1BB37E
3E0AC67D
BDAEB990
3D8679F9
3E082FA8
BD8D0DD2
BDA9F859
BEA977C2
BCF64373
BE7F7886
BD0D14BE
BE0B6051
3DE8B893
3CEBC530
BD8C1BFC
3BB479A9
BE6DDA8C
BE80159A
3E49EA14
3F108602
3DD4812C
3DF3326A
3E811736
BCF36253
3EA8BD9C
BE2A0099
BD8A306D
BE6D6BC4
BCC0DD5B
BE37840F
3E16A37B
3D6F7DFA
3D272F8F
BCFF76C3
3D915A47
BD9564C9
3D308DCD
BD44B98E
BDF5A1D8
BC012882
BC63D36F
3CF8A025
3C3D5BD6
3DC1EFD7
3DC7231A
3BCB435C
BD3C3EB2
3D201973
3DB814C3
BCC79A99
BD900C43
BBEC457D
3CBABD76
3D8049C3
BD048CDD
3C51DF3B
BCCCE38E
BDD69919
BDCB2305
BDAAA1A2
BD8AA3B4
BD6A640F
3D3A9FB9
3D53BAF3
395B5037
BDD7A299
BCC520C6
3CF2BACD
3DA5FB71
3D3E460C
3D559048
3D657C9F
3D9DDBFD
BD626E8D
3D3CB1CF
395D4E67
BBC7D15B
3D6BE521
BC73A7D8
BDB46BAC
BD7B0CA6
3D0DC0C6
BDE6ABB6
3D86826C
3AD6C789
BE3CD218
BD0DF7D8
BD528982
3D774224
3CACD845
3D717497
BD0590E6
3CDC34EF
3CFEAC99
3D4BF3E2
3D8FCC39
3CC91354
3D21BAA5
BDE1778C
BC65A7E5
BDACD31F
3D42F7A7
BC0C0266
3C2A8E3E
3D9B3BAC
BD6D8B5E
BE005795
BD951BBE
BDBD7220
BD4E4F97
3D9B0FF0
BD2D1DBD
379C65BA
3D6AAFB7
3D76B87E
BD9E60AE
3DFAFF0F
BC077F2B
3DD0139C
3D85EF7C
3BC939D6
BD78F4F1
3D1F2722
BD183ECE
BD2E405D
BD82FD86
3CCA0AB6
BE05A929
3DCA0F40
BD4C87DB
3DAB7111
3E0CF4FD
BCA05CE2
3B97E95C
BD54DF3D
BD3D4A0B
3D59CE2A
BDA54A8E
3CB0CF9C
3D744C0A
3DCE34C7
3DFB2D90
BCD2F5D1
3D0CC5D4
BCD00F17
3D832D57
BCAD597F
3D43BE5B
BD481151
BB2EE60B
3D71C8A2
BD9D6A7D
3D3DC9CD
3DB58759
3DBA32B1
3D447EB5
3C21C15F
BDC2314D
3D33BC48
BD80B233
3DF75983
BCFAB548
BCCE0AC5
BE858FC8
BDF9E908
3DC043E1
3D374AD5
BF416DA3
BDA15D9C
BDAB9008
BCD73E30
3F039714
BB40D4FF
3E67B68C
BE0C5ADF
BEFD59C5
3C9ADEFE
BDC4410C
BDEFC04D
3DE33475
3CD118F7
BC21C45F
BE129F3F
3E4B6468
3E99C6AA
3E74155A
BD5CA974
3DCECF49
3E965182
BED6B69E
3DC7C8E6
3E83A0E8
BE90FF0E
BE8C312E
BDDE40D6
BE8B0695
3C13898E
3E22104C
3DEFF335
3EA8B730
3E29FFF8
3E02C84C
BE289AAA
3E7880B0
BE19156D
BF1C33A6
BEC3FE2E
BDCAB275
3E3B26E1
3E203325
BD65004D
3ECA53E8
3E53719E
BE41C5BF
BD853D5C
3D5D46EB
BEA752BC
BD8FE627
3E31934F
BD729F14
3E84D520
3C925009
BED6ED93
BD69D27F
3E1249D0
3EBC7D12
3E8FDB0A
BC9E2E7F
BD144C05
3959AED3
3D46D356
BDDCFE08
3DBB5186
3E5374B6
3D512FC8
3EB54403
BE9E2DC7
BD49FCF1
BD215C23
3E88B6DC
3CFF4713
BD8F6E58
3DA845D8
BEF29F46
BEB10672
BE7F8C6C
BCEC0F48
3E69DAA3
3E5FAB5B
BEC1793D
3D9E0AE9
BE9E1D28
3DF74023
3E33DBF8
BE321987
3D9D846D
3D90A1F8
3E4947AE
BE2FADB7
3E4B2478
3DEA0268
BE3172C0
3EB1C6B0
BDE2A7BD
BE90DB0C
3E118EA4
3DE6B195
BE2C68EC
BCF7D6A1
3E498908
BDF114FB
3DB19A02
3DB49758
3ECC43FD
BEED6CA4
BEA4A287
3D86C2DC
BE34380F
3E18C8F6
3D62AC35
BEA1AC84
3DE20ECE
3CFD9E46
3D77085A
3E83E0F6
BF01FF75
BE176A94
BE05A4F7
3E9532EB
BEA1975F
BD0CCB7D
BE6E9DD8
BE8DF718
BD9E0568
BE8E9E79
BE3D4703
BDEA8C4B
BE28B1AE
BDCDCAC4
3E7A47CB
BEECFF25
BD491F08
BC9C6A09
3C93012F
3E80AA4D
BD94F5A8
BDD88E7A
BDF42239
BE2D262A
BB8B9E86
BDE49709
BC870888
3E7BF7F0
3ADAF7A2
3C75C803
BDBBDB35
BE4C8868
3E0E0807
BD29D0A6
BD70891A
3C1D7A3B
3E50377F
BE5BB702
3C5AEAB2
3D8A6D22
BDCAD124
BDC10469
3B97706C
BD533405
BD4A7D2F
3EAB5B31
3E10FB5F
3D913218
3BAC3E46
3DEB1E77
BDFC85C2
3E864306
3CAD6721
BEAD00C5
BE519583
BE0673D2
BCA9819E
3D7C0552
BCE96F9B
3EBD414C
3E5E8A7F
3BEA0AD4
3E008278
3DC38DC9
BE2853A6
BD628192
3E4FD149
BCF59E78
BE0FF188
3B55368F
BDC23719
BDC447E6
3DCEC220
3E6C4A91
3C01F762
3DC3169A
BD43FAAE
3D82B244
3DC69D8F
3D5E7CDB
BAABD80B
3A9ED518
3DC179C7
3C06B9D3
BBF1C63F
3DA8BF66
3D8B3357
3F066D5A
BDC6DCEE
BE0A439A
BD194BB1
BE8670C1
BDC97336
BE336D30
BD68355E
3D70DBE8
3E097303
BD1B41F5
3D6BC3D3
BE6F5877
3D99A314
3D41BDD5
3DBD62E5
3DD5772B
3E0F7355
BC183394
BE382F15
3C38EE28
BEB22FFB
3DD0C0F0
3DE6F5F3
BCCA4802
BED4E24C
3C864336
3CF1CF76
BDF4E2B0
BDAD9A6E
3D9C25C2
3C9417BF
3C28357E
3D872656
3E9DA6A8
BE7FC979
BE85DDB1
3CCDEDEA
BE051908
3DC17059
3D9D95A0
BDA217A9
3E064580
BDE568F6
BDA65B5A
3DB6A7E4
BEDB771F
3D9A5754
BD9D68E3
3D0C0478
BDD15146
3DFFE70B
BE04EA01
BA92DA5A
BCE5F04A
BD11B70A
BAA564A9
3D6D7D84
BD96CC11
BD8D0A84
BD3755D0
3D9970FD
3C9CE625
BC0D157F
BD3846C1
BD12EF23
3CD79045
3C728AAC
3D3B2ED0
3DB2FACD
3CC4CC48
3D44A828
BD559A69
BDA38483
3C502613
3D9BC535
3C5B1C30
BDC648D5
BD051F77
3CFAE77D
BA309D5B
3B264354
BD68AEEB
3D78BBE1
BD15EB11
BDAA27E3
3C571AEF
3DC7FC83
BCE1AF72
3D1D98E5
BC53607A
BC9E63B9
BCD451E7
BC9EB9EA
BD0E85AF
BD278136
3DA8C99B
3D136FE4
BC537DC1
BD949B7B
BD8FB09F
3D086FE1
BDAD28D3
BD8BDDB8
BD57BF4A
BC619ABA
BCA69058
3D18610D
3C6EE977
3D1FB89D
BC2983E8
BBE12B40
3D1C96DF
3D0BC07E
3C76D27A
BDA65822
3C9C4947
3CA93370
3D4F0B2E
3C228E41
BDACAE0A
BCA7DFD3
BD963FA2
BCCAAFA7
3DCBAA70
3CDC9CBE
BDA0D802
3D93D41B
BD9B0206
BCB52B56
BCA6BDEA
3D252390
BD8AEA86
BD87F428
BC80CA35
3CF0407F
BD5FBB3C
BC5A9E72
BC055E15
3C631EB3
3D49612D
3D6EDA30
BDAC612D
3DA15AF9
3DBC8E8E
3BCA0636
BC3B8DEB
3D04978C
BDB65689
BD4511ED
BD7CE8CC
BD50C461
BDA371AD
3CF99045
3D6B5889
BD0966E9
BD99206D
BCA4E176
3CE4D2A3
BBE27AEE
3CCB9931
BC85131F
BD519BEC
3D9AC016
3D231409
BD4B21AC
3D4B2B57
BD01C21A
BD51934E
3DC35E20
3D35F413
3D52CF40
BC855F0A
BD5891B2
3D3E3882
BDE01EEF
BC6F00DF
3D9F22C7
3D033265
BC8E6F04
3C28A75E
3CC4C7E0
3D2F3565
BD483CC0
BE0F6592
3C9DE1EE
3D537A03
3B3A9285
BCB83F16
3B389FC8
3D1E0003
BDCD0D7F
BD12E672
3D86EEA6
BE3E1E42
3DBA9ECC
BCB6B8E4
BCFAADC1
3D98F48F
3D1F4649
3D086B4E
3DB774F5
3CEBF120
3C22F4B1
3CC1D141
BD10CCB4
BD26BE60
BDCB0598
BD9268A8
BD974346
3CA5C88C
3CD0451D
3D371375
3DA0E54D
BD0D06A9
BD9B3B10
3D91D78F
BD28F989
BC8B3DB1
BBAA22BA
3CC48DFF
BDA85757
BB86F17F
BD1473D8
3C7B969A
BD71D49C
BCE57DDE
BCE8003F
3DA4913F
3D80B759
3DEA549D
BD0AEF55
3DCC00FE
BBA64F41
BD4D5B58
BC60F192
BB71AFEC
BC406474
BC1FE9C2
3CCC75CF
BDA5075C
BD1C5C5A
3D033B5E
3DBDA40C
BD095658
BE0D8277
3D47CDE7
BD8E0018
BD99F040
BC676CC1
3B398CD0
BDAE121A
3D68CDBA
3D175646
BD6AA4FD
BC96EFD6
BDCBF29E
BD2D6005
3CFE6510
3C723D3F
BD2CFF3F
BDBB8C02
3DC0E54D
3D3D3FB9
3D16C8B7
BD1D5E8B
3D939178
BD8A56CF
3D5A1238
BDC06B27
3D2CA067
BD16A4AA
3D7C0B61
BDCAD24E
3DADFD5F
BD99786E
3D280991
BC6FCBF6
3DADF32C
BD87297B
BD41471A
BDBCBB1B
BC04AE99
BC92FBEB
BBE35395
3D3EF0E4
BD19ED11
BD7236D7
BB23911D
3CE32762
3D0B4840
BC9B3E2A
3D006BA8
3BA5368C
3DA4E98C
BDAAC91B
BD527F81
3C5E65DC
3D93D5EC
BD8B8759
3DC1CF8D
3D9D39FE
BDE3CDEB
3D842919
B8AD2634
BD30BE13
3BDDC303
BD3579DD
BD8C6E1A
BDA17EFD
BBBCEADA
3D0BE3BE
BD22F647
3DBC2DB2
3C2BC64D
3DBA5CD3
3DAEC959
BD24E6B7
BCE1A495
BB8639CD
3B89A6EE
3C720CC3
BCBAB7D2
3E37B07E
BD36AA74
3D8A26AA
3CCB9C05
3DC373C5
BDF5261D
3D3FCA91
BD174F72
BD97A501
3D003C89
3CFB4576
3CDA03F8
3DB71A8A
3D1667A6
3D848EFF
BDC3E6C9
3C734D09
BD71CB62
3D4D6B4E
3DDAD27F
3D3F6F84
BD4F93AC
3DE9806F
3D6761A6
BCD8D854
3D97CA72
BDDD06F2
3CF5D438
3C3C6C78
3BD0769D
BD061C31
3D2F730D
BD8074EB
3BF1F12B
BCA87544
BD14B0A1
3D551380
3DEC85F8
BD75C7C3
BCE5AC4C
3C566FF9
3DCED111
3C6D5DBC
BDDB064B
3C7C86EF
BD907E67
3C4E3989
BC464F45
BDEB0575
BD2B6950
BCAD3FEA
BCB59F8F
3C6C3B68
3CCA6B28
BDCDC436
BD33A7E5
3DF06035
3DAC5DDE
3CCA4E38
BE4F3A29
BD202244
BC8C8A2C
3D42F9C8
3D8C3E4E
BDA4AB87
3D181904
3CF056C5
BD631FB2
BD8D3272
3C519452
BCA25880
BD997864
3E1598F5
BC82978A
3D4EAD88
3A3F0AD5
BE5AB2FC
BCCF5BCE
BDEE32A0
3D635E34
BD95E457
BB6CA222
BD83C5AA
BD47468B
BD7D70DF
3B7DB085
3D6E788C
BDD51090
3D5DB916
3DB35931
BDBA7818
BDFD4739
3CB33110
3DFC5360
BD87F0A3
3D74E6FD
BDE0C05C
3A8F52DE
BD698A48
BDBC4049
BC071704
BDC70033
3D8E0BA0
BCDCD812
BDC87EDB
BCAD5DA1
BD142DB7
BD85155D
BDE51076
BC7D5C97
3E49850C
BCE05743
3E0CD9B3
3DBD5EAC
BC9ED66F
BD2E34CF
3D4B7B13
3CC4AFC2
BD0E9C96
BD80454D
3D3C67E5
3D4586B5
BE305327
3CD3D21F
3CFFCB72
3D07DBCC
3D634102
BCBC289A
BC13DEC6
BE00B71C
3DC7199F
BE2ABEFE
BC4D291E
3D4FB86D
BD8CC21F
BD71190A
BC4D9AC8
BD4A9A18
3D820FDA
BCCA171B
BC2CA895
3D2F6AE7
BCEA3B7D
3DEC3944
3D3AEA24
3D17C2AF
3D7AA0C6
3D0C0DF3
3DB086EC
3D915AB5
3C27672D
3CA79C3C
3D123298
3C80FAAC
BD11E835
BD2270B6
3D849B38
3D3C8653
3D6CB0D0
BD73D0F5
BD21AD74
BCF9C2B4
3B849342
BD41A778
3BFE859D
3C7CF1A3
3D5A001C
3D4E620B
3C51984E
BC0B81D5
3D0B1A60
3D167476
3D22D387
BCB306CE
3D611C8D
BE0EC78D
BC55270E
BD74FB6D
BDD698E4
BDB589CD
3BBCF7D8
BDA20D4A
BE17A292
BDEB9F2D
3C7C8887
BDB34EDA
BCBFBA85
BD82C370
3CD77AF6
3CC7B9E8
BDB766E7
3D25A13A
BC2042CA
3D7A7D7A
BD19E0DF
BC157DC3
BC2B9A42
3D35B18D
BD9917A2
BCE107A7
BCD8B55E
3D2F1CFC
3C7A53AE
3D44CF88
3DA70AC0
3DAD4D06
BC3CF574
3D12A597
3C320EB0
3D57AC34
3D16267D
3CFCD812
3D3D8CE1
BD86F873
BC4FF3DE
BD98FAF2
BD03DB74
3D76D448
3D9ED954
3D28415D
3D0C587B
BDC6B49E
BCEDAB7F
3C17AA7D
BD136CC4
BD72B9B1
3C43FD7B
BD382134
3D542E50
3CC0E706
3DD222D5
3CC60593
3D871192
BD4ABB40
BD1D0349
3D5444F4
BB3556D3
3CA84AF8
BD03035D
3D6E202C
3D7B0207
BC3719F3
3C19A08B
3D318B45
BDCB8AF1
3B437ABF
3D885DC9
3ADE1D24
BDC0C422
3D82981E
BD233514
BD80DCA2
3D10A6FC
BDBDD411
3C3C78CC
BBD8053E
BD80C852
BDB2D669
BD1E6000
BCDA88D2
BDC533DF
BDB4745C
3D7E221F
3D25BC35
3DA3078A
BDAC038F
BE4BCAC6
BE4002E2
BE70B9B4
BE25391E
BE978BC4
BC476752
3C4C6264
BD44B2D5
BBF8D4F1
3B9A5328
3D2200FC
3E13EEEC
BE5BE23C
3CE38693
BD13B1BB
3DDC412F
3D93481E
BD373B5B
BDE45C28
BDC57201
BD99AFD0
3E32890B
BE41A03B
3D4BF6F1
3DC0A3ED
3E7AA264
3B692C54
3E430CED
3D92B719
BD6AFC0D
3C8A0009
3C8B2111
BDF279DD
3D9A54E4
3F3698AC
3E2E5160
397A0E8E
BDB37CAE
3EF50AF4
3D220C4A
3EC43658
BD8E2F82
BDC57E74
BEC981CF
BE01685F
BC9C818B
3DD2045F
3DB375EE
3E946067
3EDEBF08
BE9CB2BE
3D75C8B2
3DBD8B8C
BDAF192B
3DE7F33C
3DEBC276
B95BD925
BBB587F5
BDEC51C0
3CC49C6D
3BFB2602
BBA0AA0D
3E0704AF
BCF366CA
3DFBB65A
BD9629D4
BD20FDB4
BD94F4CE
3C89BF41
3E040DAC
BD9FAD67
BDAC0271
3ED38FF9
BD1806B7
BE03739C
BE2D8856
3E75CF68
BE1F98D2
3DE02943
BE41662B
BE9BEABD
3D9BA593
BE081B79
3BA7B0C9
3D47182A
3E3AE1BA
BD93B8BE
3DC6C350
BE0CF9C2
BDD10B99
3D4C8534
BE09E5E2
3CD57D40
BE5AEE0C
BE094F71
3D322F42
BC18022F
BF2D543B
3DDE571E
3E03BC0A
3DAF5941
BD1A4A44
3D9D336D
BD334222
3CA7BC01
BE20C5BC
3E36E0E6
3D826F57
3BF2C418
3D6AAC4E
3D8ECE5B
BE4EECE8
BE8F5382
3B30371E
BE2FC577
3D1B5ACD
3DBA5E88
BDC3784A
3DDB1671
BDAB9463
BD955F11
3E6CDF8B
3D327E85
BC92BBA4
BD533C0F
3B993093
BE53475C
3E66E129
BE37354F
BE0B4C6B
BD2BAA83
BE232C26
BCDC23ED
BE95B3C6
BDD4B1E1
BEE38078
BD8FB898
BE93261E
3E54F7C4
3D83F840
3B095F4F
3CBF2AB8
3D241571
3A6873CC
3D9964DD
BDB75DAC
BD73AAAD
BD59F5F3
3E2BC28A
3E732944
3D350380
3C31552D
BE4B4AC4
BE7B9D9B
3DA6CB95
BD8829C9
BE31C33A
3D8D71FD
3E1B1572
3DC7DC9A
BD3387CD
BB2D4322
BCD1EFF2
3E59E9C3
3D9D53E5
BCD33C22
BD86AD3D
3E839C98
3DB2B016
BE93BA05
BE2FDE5E
3E547CB0
3E067734
3F07909C
3D9306A1
3E373B4A
BE93604D
BDDCD43F
BD2E1725
3DC1108A
3E152EEC
3EBC7355
3E9D5FDD
BE6C49F0
3D7B1898
3DCF8BDF
3D6D4C67
3E4430EE
3EA9970F
BD9ABA52
BEA33A8A
3CF27A20
3EA84DE2
3CF3C23A
3E264EE9
3CD691A7
3CE476A2
3DD4245F
BD6EC9CA
BDB4A241
3D95C128
3E17AE58
3E2AA93C
BE25CA01
BE153F76
BBB66555
BD87089B
BDF0870E
BDAA9717
3EC7A39F
BE69927F
3E401352
BE323388
BE65A8D8
3D8BE940
BD1488A6
3C302623
3D579880
3E7E8B27
3DE2AF65
3EB6C347
BD5FB89A
BE66843B
3DEBE5CC
3D826296
3E759E19
3D273A64
BE014615
BD91DAA5
BE7ADC61
BEF15299
3D53196D
BD25457C
3D19FA5D
BD922F71
3BC8E35C
3DC4FABA
3DFBA8FB
BE15EF92
3E3CA32C
3C1A5AFC
3C9EA4CC
3DAE6FA5
3E0E1D8D
BEB3CD14
BF2033CB
3DCA52AE
BE9CDA17
3D313991
3DAAB7DE
BE1346E3
3CA62411
BE92A903
BE6C1E87
3E435A13
3D69B477
3D2C1A83
3CCDE81B
3DD71B70
BD66BBC4
3E68369B
BE1B62E2
3E6C6145
BE104DC0
3E280022
BD8FF329
BDB3CB16
BE80445E
BE18ACFD
3DFBCAF5
BDBFFCD3
3DE973A4
BC87A4F5
BC3B244E
BCA8B210
BC279D73
3CB52937
3D32DA7B
BC45DD5A
BC368461
BCA92F33
BCB5DBD5
3D08C26C
BD5452A3
3D68DE58
3CE254EF
3DA7C02E
3D2CB90E
BCB2D8B5
BDAE2662
3DBBD1C4
3CC0405D
BD93E93C
BCA9C927
3D656E11
BCE3DF18
BDACADDB
3D9D73BA
3BD636BB
3D32C3D2
3E067727
BC9788C3
3A8F6382
BD78AC24
BD001656
3DCA3F07
3DA83435
BC889617
BE33ED81
BD4176C3
BDCA3DE1
3C0178EA
3D56E7E6
BBB34762
3E7E5061
3DED2C6E
3D00291B
3D02F627
BC869F7C
3C13F00A
BD62C887
BBE5F003
3D5D7A87
BC54FC06
BC502D54
BD120315
3C3737D0
BCDE9F8D
3CDE4E5F
3D4C1204
BD248954
BDACB253
3CC40523
BD53F3AB
3DB5D257
3CF79E9D
3D58A7F2
3D377024
3CA3A445
BD47AD18
BC4F673C
BCA19328
3DBB2D7C
3DC3C1AC
BBD84F6F
BDD54973
BE442E55
BD58D605
3CCEB3E8
3D2B71F9
3B7AA476
3C3CF49D
3D66C138
3D8B07E3
BD8FBD37
BCD98212
3D5CB5EE
3DCC6849
3DC9B31D
3E2B2D54
BD276F02
BD500C27
BCC76534
BE4F2340
3CD1DC86
BB8C4E2F
3CE1DFFA
BD5475C6
BD846DAE
3CC8509C
BD8551C0
3C6C31D7
BD35804D
3CFCAB01
3D2678C0
BA2A6F88
3DA08008
BD745184
BDC1F4B1
BD029AFA
BDFA7597
3CDF1AA8
BB8752A7
BD66C432
3D435268
BCD18D8C
3A742907
3E064AD9
BD5DC931
3D919F90
BD5667E1
3D0E60D9
3D60206F
3E359063
BDD480F6
3CA35E84
BD131873
3DC29181
BCC6B876
3BFF6EE7
3BFE646E
3C6EBF71
BD17838F
BDE86255
3CD9EA62
3D59156B
3D992718
3D69CAD7
3D62FE27
3D849D2C
3DB00FD5
3D10A059
BCE84915
3C6281D5
3CE8BE80
BBC81BA5
3BCCD7CA
BDA6232A
3DA67675
BDE75819
3C70A9E1
BDBB52FA
BDB0C40C
BD5E88E5
3DDCF81B
3C72BCC1
3D10449C
BD9A3F1F
BBEACA3D
3DC185BF
3D528C9D
3DA2D50F
3B9253BB
3C61AA3F
3D309B71
BD10D46C
3D89095E
3E34113C
3DA5F729
BD41FD33
BAB95E39
BD3CCF8C
3CC24C8B
3DB8F6E2
BC8BE1DB
BD86C061
3D956972
3CD491F3
BCBD0417
BDDB45F1
3D5E27C6
3D2EA171
3D8DF40E
BD9420A4
BD748D00
3BF14EB7
3DB971B5
3BB5F735
BD3A3A99
3D66CC9D
3D19781E
BD5550BF
3D6B7A42
BD5A66C4
BCFC31EA
3D0AD7D8
3DBC8D52
3CEBBE4F
B8E2E2F0
BDAAC796
BD124728
BC331FC8
BD45B10C
3D62EB1C
BD415888
BD6D1938
BDC9DF98
3D1B4B22
3C1995D4
3D5C7EF1
BB14631B
3DA8E0C0
3DAAECF7
BD7A62AA
BD674806
BDA318D4
3ABACFE4
3DB29F04
BC18224B
3D0ABB02
BDBD50BE
BB9969C5
BDC381AC
BD9AEEB6
BDB1D85B
BDB2668A
BDEBFFCE
3D84083F
3D024BC5
BCCCD49A
B980A7D6
3D067728
BC1263FA
BC390BD0
3D4D0333
BC39A197
3D0886C7
3D538012
BD45B5F2
BD2026C4
3D8DCD05
BDB411F4
BD70F3E9
BCE28012
3C550784
BBB001B2
3D1C2B47
3D9E463B
BBAD52F0
3D941C4A
BD76D133
BDB663B0
3D8835D0
BD2ADD3C
3DAFE465
BCCF8757
BD104606
BD9465D6
3D1E1B23
3BB5EE33
BD924673
3D6856F1
3CCFC317
3D456354
3CA5F746
3C5004FB
BDDF0209
3D309F3F
3CB0BEFA
BD96C95C
BCD0117B
BDB1B415
3D309ED9
3C85FFD4
BD560421
BD30DE8F
BDD16957
3D1359C4
3D3FFD16
3C608AAF
3D024C05
BC354816
BDCF5276
BD869B90
3C048221
3C9B3250
3DA23696
3DAD0845
3D3FE8E4
3C09B689
3DA1275E
3D63F8C6
BD34DF35
BD2A4B08
3CC24976
3AF515C1
3BCD75A1
3B8B42F2
3D284A0E
3D253DF0
3DB0C333
BD929255
BCE0B3BA
BC00D055
3DDCDDF2
BD4C77AD
BD6CC1A5
BD05F789
BC19F1B6
3C68A2EC
3D8E9D36
BD2CAE9D
3CDECAD1
BD25CEBC
BAD8C38C
3D55777B
3D9AC07C
3CC8DE4B
BCD83DAF
BE125417
3C8FBF50
3D9CE502
BD0C9110
BC2E7061
3DC3A82A
3C80BDF6
BC5E2E8A
BCBE28CA
3D158D4B
3D19693B
3D9D4370
3CADF45A
3D00A313
BD5509CD
BB971FF7
3D2BA25D
BD9764A3
3D951794
3DAFA692
3B0BE458
3CE85A47
BDBCB678
3D628530
BD0B57C8
BD6B9D45
3D22AE03
BBE92EA5
3C0CCAF1
BD203B14
3DD94962
BC3B7125
3D1D797D
BAAE9453
BC890FB9
BD0F075F
BD870948
3D62509D
BD980202
3D1BA2D6
BD8B282D
BC048D46
B9C54DF1
3C0F49FB
BBE54224
BD4B6C25
3D9C999A
3DB2417B
3B20AF9A
BD074470
3D1372BE
3CEEA072
BD9AD168
BD96A978
3D59360F
BC3C4AD4
BCDE1A3D
BD41D143
3C666423
BD7227E0
BD65D8A5
3D8B4B9E
3D7B6E08
3D893E81
3DA0D0A0
3CEBF4EB
BC13208F
BD4C544A
3D36EDF0
BD11ED50
BD7DC611
3D550253
BD16AD8E
3C7B376E
3D7AA667
3D9E452E
3DCF9C12
BC2136D2
BD3176F6
3B8D5218
BC020572
BDABB693
380BCA8F
BD077392
BE18163B
3CDC3E04
3DD83134
BDDB2901
3CD5F95C
3C84BC88
BCB7A461
BD82005E
BDEE3433
3D809E04
BC977AE6
3DFB7762
BD8A07B2
3CA4815F
3D37ACAD
3C87DD8F
3CC7115C
BD63B2CD
BCDFA908
BD59821F
BD3AF2A5
BCD71357
BDDC2B44
BCC21AF8
3D68E06C
3DFB5A2E
BD24FAEC
BDE441AE
3D8D2C5F
3D6725A6
3CDD3B55
3D8AEFC8
BD6F1C9E
3D3A5F98
3DFD897E
BD8855D2
3E122A62
3DF7144E
BD8180CE
BE0E0A85
BE1602AE
BD3D7678
3D9BD41B
3C35A7A2
BD394B25
3DACB6E7
BDBE7B07
BDCCEACA
3DD2EAB1
3E0CA403
3C81EF1E
BCC76B64
BE10316A
BD405A36
3CAB6457
BC77AD76
3BE43E6E
3E006501
3C8E4B27
3D7BBBCB
BE12D8AF
BE3204B6
3C8D95F5
BDC417E4
3DE4D12E
3DB075BB
BC38A67A
3D701884
BE17A7F2
3CA4CFBE
BE02EF5B
3DD2C8D2
BD1E2EAF
3DB2A9DC
3D096292
3DBEE07A
3D7F0C3A
BC40FFF0
3E07E5FF
BDECE281
3D9E6464
3E0E3E08
BD0B2A3D
BE4BA259
3D4FF729
3C83BF17
3D4F4E01
BC550474
BE021EFB
BE169A1F
3D88CD9F
3CA49DAF
BD01F0BE
3C48F654
BCF52D7F
BE24206A
BDA5E343
BD1D5111
3D3A048B
BE147043
BDA86350
3D082917
BD91B6D7
3E34D85C
3E310B20
BDD5629E
3E098BF8
3DADC2D6
BD5BB8F6
3E0CC2B5
3A89505C
BD59C040
3D49DFAA
BD8EB84D
3D322D5C
BD81EA15
3DD96BE2
BDDA1D68
3DFF4D02
BDA229E1
3E189BB0
BE1CFA13
BC0B882C
BDB1D5C7
3D9AFD2B
3D10B265
BCB1EA0D
3D45F95C
BD94A6A3
BB84A61E
3CC79042
3C804E49
BD543079
BD34AB89
3D982777
3D79FE29
BD7A46E3
3D2B6A85
BD665884
BC857C3B
BC91E042
3CF43CE9
BC54CB29
BD817D5E
3D605DC3
3C65F41B
3DDFBC0D
BD5704DF
3D453E15
3CD09FA5
3D37C3C1
3DCC0317
3D44217D
3D5EB1AC
BC977B7C
3D878CAD
3D8FE8DA
3D3E18B7
BCB66481
3DC9645A
3A0E0913
3A838E15
3D4B0CA6
3D98E8B3
BD1F9183
3DC1C30E
BB2207A7
3D4B01DF
BE0071D9
3B4A79E1
3D5500F3
BDA2F18C
3BABC2ED
3D286768
BD96AB3D
BDAB117C
BD52E12E
3D7F8E4B
BDC038A2
3D766916
BD37FC6B
3DA7866B
3C0CC508
BBF4C994
BD159901
BCE8231A
3C64D4A1
3B3F20FD
3B29E7BD
3D63795C
3C60F7E8
BD603D42
BD95E9C3
3DA8F282
BD7D471B
BC55541A
3D4C9D80
3D19FEEF
3AF10476
BCE43E7E
3AD3F888
3C521F1C
3B591BD4
BD653546
BDCAC9F0
3CDCAD2F
3C115E17
3D9688E3
BBB84A8A
BD26D00E
BD364C15
3D5F3171
3DF1FFA7
BDDA0897
3C7C9B7C
BD5F7784
3D2179F6
3DA1892A
BD94A271
BD1287A7
3CAA3802
BD46B2FD
3D9CF0B3
BCF5C15D
3D559038
3D6E95F3
3CB072DF
BD3FE8CE
3D917BC1
3C9DC2D9
BD5D1A0F
3D690AF4
3DB6461F
3D066CB6
3D3EBD1A
3D679CA7
3C235BD4
BD7FF147
BD8F647B
3D643EE7
BD0144F4
BD99DDD3
BC072FAD
BD9EBAE9
BD0F66F9
BD1B9D85
3DCF29EF
3D688451
3D82A418
3CBB0C60
3DAE4E90
BD8129E7
BE1B1792
BCCBAB3F
BD7265A3
BD3AF67E
BD6D75AC
3D97FDFF
BDB380A9
BD3D4CCA
BDAEAF22
BE8CF97F
BDCA11F3
BCDADC85
3D6473C5
BC8776BC
3E277B6F
BD210AF0
3E04AAF5
3D7F1E4B
BDAD890A
BDD93477
BD7ACB80
3E022DEC
3DBE2123
BCF8E702
BE04DA3F
BD6596F8
3E259BAF
3B91AE13
3CE1ACE9
3D6EC260
3E297D3C
3DEF25B0
BD515C5E
3DB6E3BE
BCEB5DC7
BD34D3D2
BD151863
BE1D0247
BD54A4B0
3DFA1ED2
3E1395CB
3D25F126
3E4BF90A
3D1443BF
3DA0CF7A
3D260677
3DC7D999
3C5474AC
BEED5878
BE54DDDE
BDF2E720
BD5BD79D
BCB4D077
3E13451B
3E401B80
3C1C3985
BD7B87B3
3D139E32
BC32B6EC
BE072204
BC83B6F9
3E2C0CA6
3DA7953D
3DABE2BA
BDFB2F8E
BD504D17
BD20F548
3CEA3065
3D66C7F0
3B51014F
3E015571
BE235E82
BD9CBA3F
BCCE36AF
3D2B0051
3DE6183B
3AE1C2B9
BC89E770
3DC6FDED
BDC0C803
BE1B333A
BD782EDB
3EB128F8
3CBFA59D
3D8F7489
BD3F5540
BDFC6E7B
BD486473
BDA6656A
3D31BC0D
3CD6F489
3DFDCBD0
BCE4FCCF
3E6A1D1E
BE3052DD
BDEEA1FC
3E122F49
BE1B8D17
3BA4D53B
3C82DD90
BD502CD4
3D24E184
BCC85D26
3D46CA82
BCFB7FC3
3E219539
BC97EFD1
BE65B1C8
3D1A6153
BCF9B49C
BD41736D
BDB900C2
3CE17637
3C0C4AA0
3D042A11
BB36572E
3A6F6A74
BE653E05
BE2BEA99
3D5DED3E
BD7F7B3B
3BA119DD
BBEA1231
BE0DDC62
3DA34D1A
BCD0AEEA
BD84497F
3E65E37C
BE096A8C
BDA5702C
BD1C646D
3D692662
BE34D2CE
3CF6E874
BC2C7660
BD90CCDB
BDDB1331
BC968B72
BDE47299
3BA2D7C4
BD83A561
3D373315
BDC5ED2E
BA82B242
BD8E879A
3CA71BB8
BD33C191
BCED7127
BD4DA783
BCA2828C
BBFDB594
BCB8A964
3D89F8FC
BD74CFEB
BCD1873C
BD7D4D73
3DBFA849
3D77FC7E
3B796094
BC4C1EF2
3B9666CE
BC8506EB
3D968346
BC8E46EB
3DB424BC
BCCA39B5
3D800229
BC1ED741
3CFE631D
3D7B1BF8
3C045B2A
3D4366B2
BD62B381
BBA852AD
3AA33684
3DC8EA67
BD862B25
3D045D85
BD8A41D9
3CE9E3DA
3D9FF4B2
BCB5D626
BD0FF2AC
3D61C3CD
3C8E8B5E
BCCD8D06
3CEB83AC
3D5B407E
3D1566A4
BD26F21D
3DA818A7
3B8EDFE8
3DE33871
BD8CDFA6
B9D3023C
BDB122E9
3CA51182
3DB28C64
BD747A3E
BD6CC8F1
3CC7CC8D
BC41CB3C
BDA318B0
3D6433D1
3D5E99EF
BD0B0F18
3B0D31FA
B9EC7C05
BDFD4BC8
BD94289A
BD6F2F7B
BD014A17
BCFB3C5C
3C9A1265
3CD38421
3D729EC9
BD6D80CA
BDBA8A41
3CFCEDCC
3CF9EBBF
3D296F4D
3D2AC95F
3D57C417
BD700BA6
3D498B27
3D98ED67
BC592FBC
3BE065D5
3C6EA32C
BD8F24F9
BDEE3D38
BC30CD9E
3BB0E48D
BD672157
BD37D778
3CEF42B3
BE324928
BD4980AD
3D559C27
BD94912C
BD248AD4
3D74FB27
BCCD2AD1
3D1FA2BB
BBD38606
BCA34F3A
BD9BEC10
BDDDFFE0
BAF9C314
3D833828
3B8061C9
3D2CE32D
BDA605F6
3D3D5C11
BC9EE777
BD9050B8
3D9C8477
BD65CCE6
3D8F4C43
BD6F4845
3CE166FE
BD5A5F9D
BD038D00
3C9FBE9C
3C8A9098
3D04F7C7
BC8A4C44
BC6D210B
BCE52178
BD806DB6
BD92E832
3D4EAF28
BDDB04AB
BD66BBA6
3DF4D1CF
3E08C324
BDF7833F
BDFE146D
BDAC22B9
3DB8FBE6
BD28831C
BCF04B82
3D872DDC
BDB89C83
BD79C0A9
3DAB69D9
3DB887C0
3D03C3D5
BCE24C1B
3D5EB357
BDA28B63
BD6D71A0
BC14ECCC
3D85D69B
3D05921E
BBA18832
BD343094
3D3FF836
3D87EC9F
BD5A6C93
BE0715D4
BE514E28
BD9FE9BD
BDF44FAE
BDD55E36
3DDD6D7F
BDCA904E
3C584628
BDE2FF4C
3C14DA06
BE071AD5
BE149279
3C904D65
3DA1A5E1
BE963766
BE04F498
3D10B01C
3CA9855A
BE806CDE
3D107891
BD23FEC5
BE5D38E2
3D8F0E34
BBA6AED2
3D2D0DB2
3DDEC736
3D5F7968
3DC57287
3E321145
3E094D80
BAE930CA
3DC8032C
3DC7E9BA
BD82FBED
3C3051CD
BCD7F79E
BDAD5B53
3D17A8F4
3CBCB9E5
3C7DB949
BDEADDC4
3DE7CBE9
3E1DE39E
BDBDDBAA
3CA76A12
BE0F9676
3B53B7AF
3E21AC3D
3D0C8163
BBCE2412
BE186FC7
BD2F6C3F
3C625E04
BD137139
BC844AA8
BD7D4570
3DCD2044
3CED9E9F
3DDF0DBA
BD8E8B8D
BCB2E002
BD98AAD4
3D1368A3
BD3C7772
3EC69A76
3E82C036
BCE60095
3CB46FD9
BDF0D888
3E96E788
BDC0CC84
3D010B43
3A97F5A2
BE21F8FF
3DBA44E1
BC7267B1
BE10E66D
BE7F15FC
3DFBBE1C
BDC778C0
BCA2E32F
3D718390
3DF4469C
3CAB206A
BD1A939F
BD8598F7
3D619254
BDD3D832
BC4E024C
3CEA7219
3D736DF1
3D7D5BCE
3D8550C7
3D46AB40
BE80912D
BD92CDEA
3E0838C1
3D8C574F
BD34D956
BDB43301
3D91E03F
BD921DA8
3CF15CBF
BD6B7CA8
3D247E72
3CB6A74C
BCD1F08E
BC197AEF
B9B66289
BD535F18
3D32E41E
3D1CAC1E
3CF300C3
3D01F0A8
3D4B5584
BBB0736C
BD01F85B
BC1A90EB
3D3CD093
BD2F0318
3D2F515C
3D1E1C2B
BC6ABCA2
3CBD0D7D
3D97F5AF
BCEC749D
3D5EF2BA
3D2329D6
BD8F0A34
BCAA8B19
3C8228AA
BD14AF01
3C3134E1
3D9AD252
3D8AFBD0
3D44E6F0
BD9706E4
BD8D97B4
3C052A73
3DFBED59
BCA1F152
3AD1FEDD
BC33D626
3DD03679
BB83BC56
3DAE8194
BDB92D7E
3AE4C53C
BCAF66F0
BC4D7DC2
BDB8731C
BDA2289C
BCBD8CA3
BD88F60F
3B0DE2E8
BCAE6F84
BCEA16D5
3D4D4C3E
3DAB8B2E
3CFCD18D
BDA4A4D4
3D11076A
BDC21688
3CCFD002
BD2D1B1E
3D0E715A
3BF2DF1D
BC245864
BB840F64
3C9A7349
3D5B4464
BD935053
BD64DA6D
BD9D4DF4
3D62FA00
BD57228C
BD7CEF14
BCCFDCE2
3D8E452A
3CAB4416
BD68CA2C
BD1F1AF0
BC15945C
BC0F8930
3D44F1BA
3D328429
B8E01F9C
BACFBA79
3D220607
BD0F099E
BCE3C399
3D1E3BE3
BD243A29
BD05CB00
3D8E6FBB
BC0C6A6E
BA485C10
3D1DA6F5
3C0C3B59
3D346E4C
3B05C7B3
BD095BEF
BD0940A1
BD9D1F15
BD3CC695
BD9B8F20
3D966448
BD447CB4
BD021D69
BCA58A38
BDCFF5C7
BC5BE4E3
BCC19CD3
BDACBE07
BD8B7CE2
BD08520C
BDB4DF2A
BE0C1A12
BD36A5D7
BC6F0EC1
BC4AC002
3C9C3C92
3CCBFF4D
BC977DEB
3D98B0A2
3D7C7E61
3DAFE67A
BD0135A8
BD3C6B20
BD4A2F2E
BA947873
3C821823
BDE60D96
3D841FB1
BD6DC794
3D8BB289
BCDD5BFC
BD4FDE27
3DAD4533
3DEB0E1B
3CDC499D
3E3126D5
BE3698A7
BC3FBB62
BD65A675
BD79AE11
3DA2D415
3D954918
3DEC929B
BE2AD880
3D6F68AE
3D958E5F
3C0C6C22
BD1A2AA4
3D181F08
BD8D051A
3D925219
3D2453E2
3E14C9FF
3C394A4F
BC2F63F1
3D4DF193
39C4BCF9
3D3902BE
BE2DA251
3A0F2328
3CD23EA7
BE05F52E
BD91BFF4
BDB8B8CC
BDA9E173
3DB5A6A4
3E8AF6D7
3B91045D
3CF7F02C
BCA01F8B
3E087040
BE16C54C
3DB96BE6
3D4E68A1
BF240061
BECAA0C8
3D41D2F9
3E158BE7
3D449B76
BDAD271E
3E72C15A
3E012A3E
3D99C8C4
BDD75204
BD8C7328
BC6C9E39
BCFCC213
3C3DE31A
BBDB3DAB
BC35F129
3DC7A94C
BE4FE430
3D1AAA89
BD6A6983
3DFACDEF
3E2C7DCA
BE092F90
3D84FA4E
3C19F5D4
3D31278D
BC4D51C2
3C694D4C
3D619206
3D606AB4
3EA70352
BB296A7F
3D869AE2
3B629CFF
3EC306CE
3D00FA3E
BE0270ED
3CE0F132
BE85FF8C
BD95A848
3BD7774D
3D215400
3DD6F03C
BC1F7C4D
3CFA7795
BD27F319
3C9F6053
3E3C086E
3C8B057D
3E065A43
BC64F791
3C8D7CAB
3D4A6EC1
3CEEFA9A
BC6BDD54
BE83B0D2
3E14749D
BBD851A4
BDCBE6A6
BE05DE59
3D469289
3DC722C4
BC8268D6
3C2DB0E8
3D6154AC
BE0133BB
3DE3CD8D
3D7640BF
3EAA0B7A
BE7C8B94
BEA20A1D
3D7F41BC
3B3D47FD
3D768627
BC0AB830
BD98CC38
3DF0446B
3D3AAFB9
3D87D2CC
BD2C17BE
BDFF23F5
BDD84E0A
3C809FCE
3D6E969C
3CDE3DE9
3DFEA87D
3DAC71D3
BE2FBE7D
3C2318B9
BE758A3A
3DDE3D88
3D034405
BCD98D6A
3CE1DC64
BDAE6C2D
3CB27085
BD133717
BD78295F
BB24E868
3CDA3063
3D41DEB8
BD4080B4
3D51596C
3D810AAB
BD3BFF2A
BD2EEDA4
3D259B73
3AABC085
BC804199
3C82CD34
BD96A815
BD9817B7
3DAC2D5B
3DE8AC34
3D623166
BBDFEE86
BD59D8E4
3D2F61E8
3C9D0B3E
3CE859E6
3D0EEA94
3DAD103F
3DAB01B2
3D31561E
3DAD0A46
BC26C11F
3AA64955
3D8E2A17
3D156F53
39DB9810
BCD17EBE
BD783A51
BDAB3875
BD1B4D8E
BDDE8F37
B94375B6
3D913C86
3DA7BA48
BD65E371
3DADFF6F
BD6160D3
3D234A95
3D4ED7CF
3D7332EB
3CEBE0DF
BD44BB86
BDF3963D
3DCDC30F
BE04C00F
3D60BC4B
3CBB4E8B
3D1B1890
3D7F8338
BDAFF2B6
3D4DF79D
BD13B12A
3DA88936
3D41F6AD
3BB08398
3CF16FA4
BD9FDD7C
BDAA1AF6
BD45A437
BD98E71A
BCE7C688
BCB94AF5
3D50B128
BB3AC47B
BD00FDAC
BCDD901E
BD954A80
3D97DE48
3CD0BB1E
3D305AD1
BD636327
BC8AF399
3D6ADBFF
3CF0C8B5
3DD3A282
3A124007
BDA2BAD8
3D39B6E8
BD756664
BD5121CC
3D8D26B0
BC8D43CB
3B568A1D
3B5B0249
BD787592
3DA434E6
3D5A3F1E
BD787C28
BD11EC3C
BDA72011
3B630B9C
BB50C2E2
BCF778C8
BD9476FB
BCD33E96
3D095EC1
3CF7E6B1
BDA2643F
3D1E535D
BDA3CF98
3D95BD75
3C01BE95
3D7B91C4
BCD4CBBA
3D96F706
BC234219
3D60AC08
BDC80D45
BD2EF4D3
3D94A4A2
BD29C61D
BDAB7481
3C29F69F
3D325199
3C5B16C7
BDC07B3B
3D08625F
BC7B8465
BD870E35
3D5B168F
3DD858F2
BD9A4846
3D0D8495
BD7A54D3
BD46117A
BD3B0123
BCC8794B
BD964B1C
3C568A3B
BD810A15
3C8DF1F6
BD89D66E
BD67BED6
3BEE2EE5
3CFFDE62
BDA2E365
3DA982E5
BDB0E830
BCE1ECE5
3DAB1F0B
BD799A68
3CC8AA5E
3D201A6A
BDD046BA
BD3C167C
BC6933CB
BDAE59C2
3CA2BB2B
BC815017
BD90EBBA
BC64D1A6
3BEE4332
3D2291C0
3D9ABCE1
3CDBD883
BCC1E88D
3C9C9B5C
BBED1D1E
3CFBD431
BD5B36A8
BD3B8928
3D5CA575
3E11185D
3D8A76E6
BD968CD6
BA1F1C71
BD66AB0A
BB8C87E3
BC3409F3
BD93DD1E
3D8A1007
BD1B0C7B
BCC9CC9D
3BF169E3
3C4BF953
BD55FB7A
3CA7C729
BCD59AF7
BA8B31AA
3DCA6404
3C144483
BCA83BE9
BD474ADA
3C964CD9
3DB1725E
3C446738
3D84CCFA
BC2FBD12
3C8D2D7B
3D19CD84
BDA9BF7E
3D393E58
BD5B3BF9
BBE87B90
BC47E16B
BD8DD3B6
BCD3E1B4
BCEDECB8
BC450AA1
3C8EAF6B
3CE067FA
BDA8A5E9
BB0CC4D3
3D9E87A9
BD963EE2
3C20CB06
3DA8E40D
BC94ADB7
BD8BBA5D
3D7322CD
3C364BEC
3D94BB43
BD9DC124
3B2E1D93
BD5927B7
3D148121
BD1C261E
3CAC6F6A
3C5732CD
3C4F5DEC
BD366FA6
BD3F0EB9
BD034115
3D7B7958
BD928F7B
BD12CD55
3DB4816C
BD94C2A0
3CB5AB6E
3D140AAC
3DA84154
3DC715D1
BD660DF1
3DA63BBD
BD73F474
3CFA782C
BD2BE34B
3D75C8BC
BDABA41E
3DB7F58C
BB96C33B
3D91A412
BD92ABF8
BCF320CF
3D8E0309
3CCDFDA4
BD96FE9C
3CD73DFA
3D568961
3DAFB2F1
BD4E86B6
3CFE13B2
3CD84F07
3DA1DB32
BE3E546B
3CABDB30
3DA27A96
3CAD617D
BD3FEF31
BC2D2720
BD38FFDC
3D7FDBA3
3D7415FF
3D307EDB
BC646814
BD96E4AA
3CA7F92E
3CE49AA4
3D39B060
3CC0B339
BC81227F
BC2E6BCE
BCB09000
3E587FBE
3C5C2220
3BCC3827
BCD3213A
BCDB953D
3E3D7343
BE2C52B8
BD01DA30
399423BB
BDFFFD7C
BE030DA2
BD6A7E8E
BD47DB59
BD08B97D
3E1EEDE0
3CD390A1
3CD94079
BCAB1DB6
BD03EA28
BD8E858B
3D966C58
BD7C14A6
BE2CF8D0
BD89C695
BC7CF0E2
BD16D45D
BBFCEEFE
3DDF9B56
3E818B86
3E47BDC2
3C58AC8A
3DBA6D08
3DDF847A
BDA50380
BA2922EF
3CA5AFC8
BDBA1BAE
3DC577E9
3CA9B4E0
3C691D90
3CE1F9C0
BC84FEC8
3D656E54
3D80C668
3DBCE96C
BD10DC84
3DCC7C06
3D51014A
BD4398D4
3D0F4D1D
3DC12F19
3D079238
3DC2B529
BD7D7F4A
BC99E4BE
BD44B064
BD14CC60
3E02582E
BDC9D377
BA1DE8B4
BE072E2E
BE0868DC
BD0B2D35
BDC02042
3A0CE6AC
BCC49CC8
3C303F83
3D82B191
3BD48F66
3CB2400E
3DA72D43
3DCF13DC
BD433397
3DE95A01
3D546AF4
3C35C2B0
3D14A4B0
BE4BAB36
3DA8759A
3D1E673C
3D500A7F
BE2DBE7F
BD59A01A
3D2B892B
BD9D57B4
BC1E5DA0
3C309432
3DB4983D
3B87FE37
3D0B8ADE
3E259048
BE0B7832
BE243435
3CD735B7
BDAE5B85
BD42BC68
3DCB6DCF
BD7B7D39
BDC58320
3D7C16D5
BD09C2D7
3D87F823
BE2A28B4
3DB6CA67
3D943347
BC3B1D62
BD9D30EE
3D98BADA
BC821254
BDE23E33
3ABE2C98
BDB2651D
3C8AFEC1
BD047D08
BC72EDF4
BD1BCD26
3D2EB0AD
BD1A14AC
3CECA1B4
3C9549E9
BB534AAF
3DA95D86
3DA0648F
3CC139E1
BD60E42E
3C995886
BDA380EA
3D819CDB
3D16B023
BDB08915
BD2F1219
3D8EC212
BD39D8FF
BD5B9F93
3CD07208
3D77232D
3D9414D6
BC7CE73C
BCDE01B3
3C7A4A69
3C4021AE
BC67A038
BCF8B87E
3D806EA5
3D891035
BD007AAC
3B85589A
BD854C57
BC238414
3C1485A6
BD92694D
3DA2ACD7
BD93F4BC
3D05D5FB
BC826DB3
3CA8DA64
3D2BBB04
3D62275F
3BBDC7EC
3D048276
3D3AEB99
3D524364
3E062F53
BDBA6DCC
BD4FA895
3D031C7D
BD645CEF
BD51254C
3C277CFC
BD9460D3
3D93FC1A
BD61E3B5
3A6E425E
BC60E9D0
BD20946D
3DBCD510
BDA3F8B4
3D29A19F
3D3F2EB2
3CC7428A
BD17477A
BD6A744A
3D2BFB7E
BD26D643
3DB87544
3DADFA57
3BA4186E
3C304502
3CD8E900
BCACF39E
3D2D87D0
3CE3ECCF
BDCD6E05
BDBC6D3D
BD80F797
BD8481ED
BD60FBE1
3D9ABABD
3D4CDBF1
BBF20B69
3C5CFB59
BD8357E9
BD22545E
BCDCFAFD
BDE8F0C7
3D82A1D9
3DABE44D
3D59FE1E
BD7D175D
BCD73CE8
3CCA7B0E
3D891AD1
3D07D440
3D4FF2B7
BD023C1D
3CD5FD42
BD1E0DB7
BD810338
3D2E2C4B
BC8F895B
3D1FA24F
3D60D8DB
BDB18A85
BCADA910
BD86ED34
BE28D449
BD64D26A
BD9C08ED
BD858262
3D3D5230
3D279EB0
BD288C71
3D3222DA
3D9EEE6B
BCC10305
3DD36B3F
BCFB2352
BC537136
3CDD942A
BD88B245
3D488159
BC82D90E
BDCD9026
BC033685
3CE446C1
3D4F8F98
3D9D3B08
BBBED9BC
3CDC6805
BC9C32D1
3DB7E56B
BC89F7A0
3CF30B6B
3C071C2C
3BFE9F67
3D07D521
BD37CBB4
3CC838A9
BD0D1E6C
BCE4095A
3D2259AA
BD8BCB2D
3D8FD17C
BD992AFA
3D8E5D46
3D9A0CF4
BD308D74
3C9A3581
BD3A6CBB
3D17AFDD
BD76E600
3D48821F
3D3EE54B
BD3E1FB0
BD6B347C
3D87A9C3
BDC558B9
3CE1ADC5
3E02C6EF
BCF56AC1
3C9FB369
BCCE2DD6
BD737F4E
3DA4412F
BCBBF35B
BD75489A
BD5FC052
3DC42E30
3A297BA4
BD35CEEA
3D93E2F5
3D22D943
BC12B434
BD1E05D2
BCA644AE
BC8EC7FA
3C819BAC
3CFC7DBF
3D87CA84
3D8E5304
BC299AB9
3CB38E1D
3DCF5805
3D2E5032
3BBF1EBB
BD24FECA
3C7DF3EC
3D1D4304
3D8AD8C3
BCC2F7C2
3B8A0102
3D9E148E
BDB374E3
3D7F2351
3D122938
3C4D1592
3DCD566D
3D7DA7E4
3CA7525A
3D1EB054
3D9FD3DF
BC6A8D1C
3D238797
3B245057
BDE4260D
3C1A4219
3CE8E71A
BD0FD6FB
3D7681E7
3D4B824A
3D931A9A
BDD34CD6
3D8BDB7C
BD61D27B
3DDA9FE7
BD652BD1
3C322D04
3CC74579
3DD5EF99
3C95DA82
3DD5CE33
BDCDC4E5
BCE6AA44
BDDB6ACD
BD619201
BCEB64A3
BCC162D1
3D7A765E
BC08EDC6
3D1C23FB
BD42EB47
3D21446E
BD7D35F1
BD861333
BD585097
BAF39CB4
3D56DC25
3D857488
BD900216
BD64933D
3DC003C6
BCABE4BB
BDBD41AA
3D48CFD0
BBCF5D29
BCEDBECA
3CA6AACF
3BF1B347
BDCD1C2D
BD6F02CD
BD0D8094
3DAA594D
3DBACE8D
BE348388
3D5E6876
BDF912B3
3CCCEF97
3D83FEE7
BD1E179B
3D816154
BDD70D8B
3CFD8D1F
BC72FA49
3D330AFA
BDB63317
BCB7310F
3C88CEB1
3D829E99
3CCDED23
BC9C28EB
BD423DB8
3C97E981
3D005AA1
3CF530FF
3D48CCB5
BA79E840
BBA69DA8
BD27F89A
BCE97F3A
3DC546C7
BD83AB09
3DD6848C
BBF66D4B
BCC60E22
3DAF0E8F
3C7AE091
BC2B3D9B
BD600551
3D2B6ED4
BDD032E9
3D8B21F5
3D95177D
BA0C75C1
3C80D8E9
3D37598E
3CA4D252
3D25F93C
3D84C6CF
3D0FF90F
3B705278
BC9FF1B3
BD6BBB35
3C867BDB
3DB43BAB
BCDED609
BD523463
3C69E08F
BAB12309
BE236D65
3BF95765
3D857293
BD8F7465
3DCD7E7B
BD1023D7
BD21F5EC
3DF4F433
3C9BC35A
3D43750D
BDE1CA98
3CAD19F4
3B97CA19
3D1539AB
3D11E5CE
3C774E35
BCFC9FD9
BD4B60F7
BD83ADD6
BD84A75E
BD80698D
BB32C6C9
BD85F1F7
3CB2CA27
BDC82778
BD87DF50
BD5B0943
BDB00A84
BCE37B35
BD971B49
3C86017C
3CFC98D8
BDE30454
BC6D1EC7
BDAEC70D
BD65C9AE
3D8427D7
BCA39ADF
BD9E16F2
3CE80766
3DAA564F
3D3A2ABE
BDDD92D3
3DB40E52
3CBC6739
3D825D85
3BF57A89
BDB6287F
3CE4FAD1
3D40D756
3CC239C1
BC480D0A
BDCF3725
3CA8642D
BC620E3D
BDB02366
BD7F2425
3C18F86A
BCE235AA
BCE6426A
BCE1140C
3D8B860B
3DB043CC
3D5B82B8
3DB31D33
BC4109EB
3C1EEF38
3D42FAAC
3D315E2F
BD0DCB70
3DBBE66A
3CC60E47
3D01FCBD
BD994DE3
3D391A63
3DC055DB
3D3E020E
BBBF541A
BE1B4784
BCC5A251
BD8E10F9
3DC5E854
BDAAB714
BC160425
BD5B89E7
3D23E8C0
BDB2A95B
BDB11AC2
BD6D53E3
BDAFBFA5
3C8D4B88
BCAD098E
3D90DC33
3D83C882
3D1ED97D
BD8EC64F
3C3C11D4
BC58B7C7
BDA3B6EF
BC389B72
3D9FC779
BD60E675
3CCA1588
3D08F0B7
BD16D9D6
3DCE0180
BD475308
BCE9D6F4
BC3054FD
3DB3C4D1
BD01D69A
BDA53286
BD5079A5
3AD61325
3DA20B78
BD0F461C
BDABFF1B
BD093A3B
3D5714EA
3D3A43AE
BD6D9BE2
3C65439C
BD9377DA
3CB52AE5
3DA154E4
BC809FA3
BBD00C0B
3CE2D273
3C1E90CA
3D3698F6
3D81E97E
BC40CEA7
BC7B9603
3DAC4A57
3C57848C
BD8FB4C6
3DAA8047
3D036A12
3D51B666
BD49386E
BDB42117
BC2DE541
3C487B59
BCEDB7A9
3D98A847
BBEE64A6
3D2F4BCB
3D6ACA00
3CA6C9E9
BD883FC4
3CD23084
BD800D79
BB5DB5CB
3D71E416
3BD0746A
BC88873D
3D8FEB5C
3C728909
BC471A7C
3D09471C
3DD262E6
BD3D9F07
3D8F9ED5
3D2F5FCF
BDD42544
BAEA0144
BD76E831
BDB0EA62
3D24FBA2
3D6A86A4
3D8211F1
3D022CE9
BDBF175A
BDA43B8C
BDADB946
BDE25636
BD4106B0
BD7815F4
3D7B23A0
BCA64E4E
BC132ED1
3D0CA367
BD085F78
3BFBDC26
BD9C23CC
BD84CD1F
BCC393F4
3C1B0736
3D9FCD3E
BAF1A9B7
BD5D8399
BD8927E8
BDB5BAF4
BD5528EF
BDA02D50
3CD81ADF
BD9A0D4A
3D94E9E3
3B6AF9E7
BD766EB4
3D1D035B
BD9DC7DA
BD8D3EF9
BCAB1CBF
BBAA8474
3D7846EE
3DB320FC
BDB6FC92
BDAB0D69
BD52FCB2
3D23600C
BD79B200
BC950409
BCE55E9F
3D591E11
BD6CED89
BD640421
3D799B4A
3C56A59E
BCC38CFD
BDACD5A1
3D35089B
3CDD3E8F
3BB5923A
3DB6A9C8
3D7CA3E2
BD5EFAA7
3C1C852E
3D528EBE
BDCE7FF6
3D5D0061
BDA18294
BD260D68
3D1B1BE5
3B9BFB3E
3D22AF8D
BD453605
3D2658F5
BD7B891D
3D836084
BA81D6B5
3D13BDD5
BB162517
3DBC8979
3CBE46D2
BD4E0394
3D23ABD4
3DBE4DA1
BD655488
3DD7990E
3D20F731
BD2AFDAD
BDA0E087
BD8BBE1E
BDAD50E2
39C13B9C
3D9CE552
3DCF5898
BD27E16E
3CE4842E
BDA33603
3D8082A2
3D97A814
BD0AB13F
3B7CB3A3
3D586E69
BCD0F5E1
BDC93097
BD6A3090
BC81AC38
BD8F851B
3CCFB941
3CC1B867
BC94E377
BD51BF0F
3D4A0708
BD6DF587
BD9C54BD
BD28ADE7
3DBD94FA
BD5E0F72
3DA7D2F4
BD9EA268
BC5B4251
BD8DBD80
BC923DE0
3C2D15D8
BD4A2AC9
3B8EF21A
3CD87C1D
3D93A168
3D3BA06D
3C3A4099
BD9CB670
BD8F2A23
BD84F8F7
BD2F66C0
BBA466DF
BD8456D7
BC1A6040
BD9A83BE
BCDFBC38
3D7E73C9
BD934E78
3C1FFB80
3D24F3D8
BD056687
BD77A4AD
3CF55DF0
3D9523F5
3B34F75D
3C5530DF
3D66D54C
3D79314C
BD60A2F3
3D09ACF2
3D59B907
3D07F095
3D8E0A5A
BCC43C65
3C929E9E
BC31D2E1
3D94F03D
3C80942F
3D36689A
BD34AFCB
BA659876
BD99DE5A
3CD897B1
BB6179A4
3CFE0B7E
BD9CCEF8
BC895D0B
3D7E0D21
3C8F7D81
BD74D7B3
BD2D5977
BC6F0CDE
BD0275D1
3BEE5184
BBA2CF45
BDBF09CF
3DAD53AA
3C66CCB3
BDD2B6C9
3B08C880
BC18218F
BD58B942
3D93EC8B
3DADA818
3DCD60A6
BCA13CFC
3D7CD937
3C9CE85E
BB1D3D41
BBD19106
3D12FA63
BD0D1C96
BC02E362
BD2B4D5B
BD7D58D1
BCFC4286
BA3AFA62
BD399296
3D429ED1
BD0BC47C
3CA40893
BDA73415
BD975267
BCF95D2E
3D651E22
BD296201
3DB40311
BDC900DB
BCD83CA2
3D21C567
BD1E0FE6
BD89A43C
3DA333F9
3D098C7E
3D9B863E
BCCEA15E
BD40C52D
BCB23501
3DA4318C
BD440FC7
BD5A3794
BD8A938B
BD310FF3
3D6136F5
3DB09E1D
BDC2ECF5
BE5EF4F4
BD17086A
BCA0BD3A
3C082161
BD9843FB
3D99175F
BD419335
38AAEA01
BDDE70F7
3CDBA791
3D9F784F
BB790D54
3C251848
BD0970F5
3D735EF0
BB877287
3D49EC1A
BD288C46
3DB0D615
BD1CBDC6
BC42DB27
BDAE85CB
BC8997B9
BD8E6F2D
BD941CB2
3A290C7D
BD86205B
3D819677
BD5DB362
3D411E76
BD0207D8
3DAA1E10
3CB39F04
BDA87710
3DAD2D1B
BB3BD8D6
3D14802D
BD55A1E3
3C981C16
3D031FC0
3D23A541
BDA728D9
3CAF3314
3CFAC53E
3D866B3B
3C5EFA21
3CBB36CD
BD0B8834
BC6D5DF2
BD1766A7
3CE65428
BD163000
BD62BEA9
BBD360CA
3D469253
3DA11C29
BD004773
3D28469B
3C47EBFD
3D980A24
3C2E5CAA
BCFED269
3D180A28
3D3230E7
BD9F1A17
3D26D19E
BD588F43
3BFA0BD5
3D45D97E
BDC35122
BDEEE5C7
3C750A4E
3CAD53A0
BD722945
BBF79038
BD8A8BDC
BD0A3A69
BDA3A618
3D7DDE1D
3CD3F55B
3D354C0A
BCC5A4BA
BCE00D8C
3A16EC1E
BDDF8F47
BE25281B
BDADA37E
3D02A3C9
BD12962A
BD249A94
3D3BB26E
3D6A63E7
BE628093
3D2A6A72
3E89085C
3E41AA32
3E0B07EC
3DB9B465
BD855C50
3DC0F8F4
BD6EDC44
3C70BA88
BB8A4EFD
3C65AA94
3C3F1DA2
BDC2EABC
3CFAA309
3E546D32
BCAA6BAF
3CF63E76
BE0AA29A
3E834A63
3DCF4B55
3E14CB69
BE821317
BD1E321A
3DDAB6F8
BEBCC297
BCA53F3F
3C45A378
3CEF7E83
BE9F8463
BDE59EB3
BE7BAE9E
BD0FC453
3CCBFD84
3DAB8B32
BDA23F41
3C1F765D
BE0AC952
3BF3EDEE
BD6B1811
BD42B669
BD76888D
BC99E1D3
BD114B11
BADA1603
BC2C661A
3D100A6C
3E7EDC86
BD466DAB
BC8B7671
BC56D214
3DA6223D
BDE4AD44
BD059F09
BDDBD3B6
3D40D2CE
BE9F1906
BD8670CF
BE294F05
BCDDEFE0
3D3FBA12
3C2F35B8
3D842EF5
3DEEE2D7
3D666084
BBB5DA33
3CFAD320
3E0EE47E
BEADCC2E
3DC1C6D6
3D8C8303
3C1EB2B6
BD88F9F7
3D86DEFB
BD6D54A7
3D8A9F2B
BD21D16C
3D3A875D
BE260F14
BE11D2EE
BE9DE1D5
BEBFECF8
BD9334C5
3DF73846
3DF17F5C
BD1283DE
BDAA03B5
BDB3FA57
3D9DD90C
3DBC9B08
3E0BCEA0
3DDD9267
3E9A6D63
BE5995A4
3D8DFDDF
BBFC8546
3E31256B
3DBCFA41
3CD34E87
3D985E98
BE46EFD1
3DBE76F4
3E05C0FD
BDE46364
BC8B2979
3DB90C9E
3DBF1CC9
BE1FE82C
3DC3E4B9
3F206080
39B01F47
BDB4A018
3B44A6B0
BDB45B86
3CC915A3
3D282A0B
BE096759
3C9B026A
BE69C5BF
BD6E5731
3D7C2E8A
BEBB799D
BCFC01CE
BBD8EDF6
3D37F2AE
BD68839A
BE534AFA
BD8A04C2
3CC11061
3D0B538B
BD9F47FA
BDBDA8B6
3CF5AF85
3CC955FA
BDB8CD90
BC135365
BE8E7059
BDFD6013
3D095798
3D74954E
3CE85772
3C8519AA
3E0C7728
BD46639F
BDAF655F
3D02CAEE
3DCD8341
3C1B8626
3E07E465
BDF44150
3A701249
BD0A269D
3D9B5B1F
BD87BB0C
3CDC2AB9
3DCEEADD
3D775B94
3E4AFE24
BDC81DD0
3D91710F
BC5451B1
BE14E28F
BB815B03
BDA21AAA
BD46E212
3CD039F4
BC94EA38
3C97B513
BE033044
BB2275E5
3DE96AFE
BD29C86E
3E278D50
BD570BCD
BF1FC84A
BE542C2F
3D865CEE
3DC78459
BC4930D6
3DB70880
3E05AB34
3D68C36E
3C8CA433
3D787D04
3CC9A7AF
3E054C12
3D296DB2
3DB98801
3D8ED812
3E4432CA
3D3D8DB5
BE353AE7
BDF3B58A
BD669850
3E553903
BACDB09A
BC39B228
3D67A296
3CBDC3CB
BB3BC60C
BDCB145D
3EA020D5
3D902E3E
BD124AF9
3E3C83DF
BD9B7713
BCF5BCC0
38CBB640
3E264F62
BD354887
BDC01097
3DA2A1E2
BDCADC5E
3D662907
BD58EEF2
3D540F03
3CE53442
BD8DBC98
BD2D0DB0
3DEF733B
3CD64AA5
3DEEBFD1
3D89C5B0
BE385F65
3E7D9777
3CB815A0
3D4D6ABA
3D5D7B28
BD8B096B
BD93B13A
BDB23F60
3CA19292
BD1315DF
BE86A6A3
3E20BA48
BD2CAE11
BD50075F
BE004F24
3DF90031
3D24227F
BD6A67E3
3D4E1C91
3E3F3FB1
BDBE3F7E
BD85FD28
BBC63DB0
BD74A937
BD18DD1E
BD5036F7
3CE6A0A9
BA2D0916
3DB22B5F
BD1881F2
3D04D20C
BE69E003
BD64976C
3DCC6944
3D62C9A6
BCA5E08F
BD8BCF65
3C6CFCCE
BDEFCCEF
BD36FA30
BD1589E2
BE1C98D8
BD07E4F6
3C89368B
BD5EBA2A
3CB578D8
BD5B9034
BD9F8DCB
3C6A2786
3D079C6F
BD8C1777
3C725141
3C946F6E
3D85411E
3CDE5AEA
3D48C660
BD1A6016
3CE0BCB4
3DAE02DD
BC0360F9
BD1EBDEB
BD30D154
3D4703AD
BD980529
BCD0183C
3C7094C8
BD4E59E8
BC9A3048
BCA5F5FE
BCE6E5B2
BD814F31
3D7FF165
BD9243E4
3D3AE59A
BD646E5F
BD5C6F7F
BD725486
BD75F911
3D76AF8C
BD4DB446
BD9ACF18
3DA2E2F2
3BEA5E72
3CE62411
BE20918B
3D0518E1
BD3C4DB6
3D899EDE
BD43214A
BD7D98AD
BD9F3436
BDF941E3
3D6183DE
3CB32226
3D76893C
BD8F7FC4
3D740A94
BBCD6F86
BD36C983
BBBFDAA3
BAD0F139
3C36F12E
BCC07D49
BD151305
3DEC4560
BDB315E4
BCA2BC3D
BDB50B3F
3BB2C047
3BA574C8
3D83677F
3DA7BEB7
3C1FFAB9
3DAA0CA6
BB807684
BDBF11F5
BCCC74DE
3D7F64F8
3D450E95
3D14A308
3D5C7F80
BDE36893
BDA5D060
3D8BE32D
3CEA2756
BD457604
3D599476
BD0327A5
3D9C3F79
3D8E2A1B
BDCED5A1
BD22E588
3D160817
BDB0A15E
BD647014
3E08503E
3D30C3AD
3CA6F349
3C99FDC3
BD6F95D2
3CCC0882
3D63F6CA
BC1D7792
3D6C2882
BDA7C602
3D8272B7
BC34CAA2
BC20E185
BCC5F9C4
BD55A90F
3D667E9D
BD7B5CBD
BCA4878F
BCC79E85
3CD691ED
BD942C0E
3C8BF490
3C76C559
3DA54875
3C94FDCE
BC2A0024
BD62FDCC
3B80C89D
3D0C249C
3D14D6B7
3D359EB0
BD69341C
BD64183B
3A870C93
BD8479EC
BDCF2270
BDA0F2F2
3D11AFC0
BD137614
3D7148C5
BD733529
BE568837
BC787F83
3E1E83C9
BE04B718
3BFE39EB
3C960E3A
3CCBAA8E
3D4DB347
3C337E32
BD0EB16E
BDC8EB21
BDCA0B80
3DBEB28E
BD92F2CB
BDD4E30E
3D66879C
BD09954A
BBD43B94
3D366EAA
BCD37C03
3D5BB7C7
3D227D7B
BE075EFE
BCE41F2F
3C91CD7D
BDED7C12
BDE5D7A3
BD1EC3C5
BD1A08AD
BD563F21
3D84835C
BE624576
BD186488
3DD5C613
BD318D61
3E0DCB72
3C944F8E
BBED303A
3C5F5BB0
3CA0BC83
3D80716F
BE9FEE66
BD4B4B55
3DC2B68C
3C071120
BD9CA319
BD3D3EAD
3E7799AF
3DAD5148
BCEF55AE
BC8C9B94
3E0B230D
BBAE12B4
BDDFCF3E
BCB44EC7
BDB19E14
BD839180
3DF77BA5
BE2824DC
BD748E65
BAF729A0
BAE5D81D
BCD8D8DA
3B93C9EA
3DCC2104
3D5EF6CB
3D0F1940
3D17CDC5
3B315F2A
3C83EBC8
3BB3F7E8
BB628CF5
BC8F44E2
3D94B04F
BD152F7F
3C05A2DD
BD5DA1D4
BD5F4CD2
BCB9555C
BE357618
BE3B7E98
BD837908
BC9565FE
3CD00195
3CF054C7
3D80F9FB
BDE19DED
3C7D0FE1
3BC31551
3D81D5A2
3DD7FC9E
BD27A043
3E8FD860
BE1344A2
BC0EE7BD
3D206C1C
BC5FEA76
3DB22E03
BD92CDE6
3D94328D
BE102E59
3DB8C9AA
3CE003B6
BE32A3F7
BD61D4F4
3E094CD1
3D027927
BA04C8C6
3CDB262C
3E078515
BB78D310
BDDFD04A
BD4AE973
3CB0F962
3C52EEBA
3D05B95A
BDAA6FC2
B9CCAA9A
3D4630BC
BD85835B
BDADEC15
BE821F73
BDD786EA
3DB21973
BD684CE6
BA0BF616
3E0428E8
3C98864F
BDECE7DA
3DAC33C1
BD964DBA
3CFDC1B7
3DECEC6A
BCB85DD5
BDFE2F96
BDA5F14C
BD187B94
3CFCF29F
BD1CA270
3C94B4A8
BDA44D25
BDA60D47
BA622CE4
3C6A368A
BD360642
3D68A573
3CB92729
BDA12ACD
3D727116
3BF24078
BD77B241
BD888F50
BD8C1E3E
BD9CDBA5
BD5E57AA
3CF0FF72
BD73D7FC
3CAA412C
BDBB244F
3C00D88B
3D671F81
3D782259
3CC9F8BD
3D8875C3
BCDF39D2
BD22F5DE
BCD119BE
BDA6E5E8
BD93FC1E
3D1B19AC
3D19192E
BCB3B9CC
3CC66D37
BD62A328
BDDA747E
3D872BD5
BD5FED10
BD6636AB
BBFEAE13
3C965120
3CF18A31
BD2F82C2
BC430228
BD0DCD35
BD948F5A
BD254BAF
3C93DE44
BCB0D773
BD5C9522
3AF928F6
BCD0F05D
BD7A09D7
3BC115D9
BD4EE152
BD067436
3CA9FC7E
BD5F3667
3DB20AF6
3DA1180A
3C52E601
3D59703F
BE042E70
3D9149E4
BCC26159
3E1F0D48
BD1994C4
3D38C16A
3C542DAA
BDCF8155
BDA92539
BDC78FFF
BD4E1BB2
BDB308FD
3D82E693
3D78F3DF
3CF2C092
BD460B27
BDAA0453
3B939CA4
3D9609E0
3D2BE993
BD9A4810
BCFFFA3C
BE0AF640
BB6FB965
3DB7A070
BCFD10AD
BD94692E
3CC3F9D5
3B7CE2C3
BD7F6924
3DB284B5
3CD8E59A
3D64EF28
3D649D94
BDD477D7
BD3CBD05
BDB20F82
3DD1710C
3D860B13
BDC6848B
BD857E38
3DE58644
BD45AE73
BD261BA6
BD007815
BC86900D
BD882F8A
3D9B058D
3D083AC7
3CF151A2
3D2294E3
BBD1F611
3D6DE751
BD747218
3C69ED39
3D8B13B6
BCE75EC9
BCBAA781
BE03C5DF
3C7F45FC
BD808502
BBFB85D3
BDC26C71
3CBB2FA7
3E2EB8C4
3C05512D
BD9B6F43
BDA0B58C
BDACEFA4
BD636885
BBC80808
3B49DD1D
BBBA3817
BD9399CA
3D3D264C
3D8F2CAA
3D4EA1C9
3C055CEA
3D82E87A
3D440EC3
3D5DBDD1
BD73556A
3D74FBB0
3D8CBA0F
3AE4D83A
BCA32655
3C8DF93D
BDA35F57
3DC51786
3D8A05E4
3D55CFF6
BD1D8519
BBFFF901
BD8EF79F
3DAC9D63
BD01AEDC
3DF3EBF6
BD572223
BDB4A3A6
3C133D3F
3D820B37
3D0A0527
3E08E04A
3D27E824
BD327424
3D819457
BC6FF612
BB137EE7
3D43B6A4
BD9A7F1D
3CF1B77D
3D47A2FF
BD8D3F86
BC554826
3D196435
BCF0B702
3C03FB98
3D0D6A51
3D861DB9
BD41BA52
3D683BEC
BC8E4614
BB5500EC
3D5FF27C
BD46AFE2
BDAB1A57
BD1D8539
BC4AFE81
BD0A26A5
BC52542B
BD3CCBEE
3DAA9797
BBD9EB2A
3BDFAD67
BC870BB8
3D0B97B6
BD5C9EE2
BD2A7A3F
3D677163
BD9AF4E7
BDDD806C
3CDECA50
BD4C0399
BDC022FA
3B50D41D
BD1812B1
3D102CA3
3C97FF2B
3BDBD533
3D0504BA
3D376E41
3CF17538
BD6E94CB
BD55DF9E
BD3EA2F9
BCEDB0FE
BDA9EAD1
BD848F55
B936C7FA
BD9ACBF6
BD0DBA8E
3D8456E7
BDA2D1B8
BCDECCF5
3C21BAF4
3E0220D0
BDB2FCA2
BDA29099
3DA8DA34
3D5FA811
BD58823A
3D660ADF
3D4C1C18
3C8AC4B5
BCCCC3D3
BB3A1185
BD7E97F6
3D017907
3D17F651
BD24DC43
3D7D066E
BD3F8742
BD6EDFAA
BD61F853
3D8CE344
BC285371
BD507487
3C0607AB
BCFE137C
BC51B23A
3CE1CF43
BDAD168C
3D24A6E6
BD85EEB9
BC357F3E
3D2DE1EB
3C4F6C04
3D2447CE
BD8CBB0C
BC6BF257
3D55CF55
BD8EEF7E
BCC46D4D
3DA6D276
3C4487C4
3CB15A15
BCD42948
BBE622FB
BD544910
BD9865CA
BD906B62
3D89716E
3CC428E4
BDAB1D08
3D318648
3D16AAEA
BB165CBD
3D206500
BBE0BBE0
3C4A755A
3D7BF3EC
3C7F28EB
3C77A4E8
BD152BA6
BD220952
3D2D38A0
3D8A231E
3D2A2548
BC2EF602
BD0FE07E
3DDE30F3
3D80CB5B
BB80E41F
BCC13E54
BD96E7F1
3DFB25A6
BBDAE388
3D514DDB
BD96D7B6
3D97FF80
BDD85031
BD4DC9AD
3D39C754
BD75000F
BD93011D
BD35E2A5
3BF01978
BDF46E31
BD68A56B
BA3C4EC3
3C26E755
3DAC669B
BB2C3F75
BCEE2D80
3DD34169
BD2CEC9A
BDA2C84E
3B06D8DE
BD3FED6E
BD53147F
3C19E210
BD62DF6E
3CDCB37F
BB185E5F
BD9FA58B
3D70197E
3E0F1675
3DAABBAE
BDABE36B
3DE7FFB6
3D853247
3D77B60A
3C828E85
BD67CD5F
3D3DFC22
3D582098
3D44504F
3AAC688F
BD911D4F
3C155B1A
3C7257A1
3D665336
3D3BBAFC
3CBBFBEF
3D4A7440
BC885391
3BBD9ED8
3BDC1AD3
BDF11B03
3C2483CE
BD7AC4E0
BD402217
3D60ACD4
BC036535
3CA77A42
BC8C4238
BC9D5BB6
3D9923AB
BD62BC10
3D059F84
BD664033
BD2F46A5
3C4DABFB
3CF146CA
BDAB9310
BDAE5CA6
BD9C7014
3D8090C6
BD98732C
3D2886BA
3CBC0C05
3DB311B4
3D5DCC21
3A850574
BDAE984B
3DA8B276
3CB1F8D1
BAD63875
3DAFD049
3DA8D4D7
3B06E09A
3C7B6338
3DC498B1
BD6F4F1B
3C549253
BD43A856
BD09F8D2
BD55FF76
BD3A4A69
BD428E6D
BF2EFF02
3EC0519B
BDD3AAAF
3D9757AF
BF0542F9
3EE08498
BDD6D91D
BE5DBE86
3E979E13
3DCAA664
3E2CA8B4
3EE9F0B3
BDA8DF46
BF04A561
BDC55B07
3EB0C470
3F0FF8F8
BDE6946F
3CE76458
BE12031D
BF37622A
3EB245DE
BEEACD30
3EC2EF26
BE23B0C4
3E1B6142
3E7F4696
3E2771BC
3E9DAD49
3EFA5F9C
3F26063A
3E0BD4B5
3E41AB4B
BE2ADD45
BD047416
3EF7A641
BF25A832
BF51626F
3EE14860
3D560627
3F1E50F5
BE2F8FF6
3F0FAA4E
3E3EC3FC
BE1C8924
3DDB7AD8
3EA65E00
3CD8C345
3DE0A4FE
3E79A686
BE474221
3E0E48A6
3DFA379F
BE96F2E9
3E043307
3D81DF1A
BDF5B899
BD59F6D7
BE277B47
3F84691F
3CB63CB3
3E331FB9
3E292699
BDCE6C09
BE056ADF
BF46953B
3BA6E8F4
3D2811E8
3D39612A
3E8F1038
BF4425E0
BE03EEB6
BE918809
BDF76C7E
BE84A735
BE4A6B1B
3F652EAC
BEE03874
3F470C7F
BEAFD421
3DD07124
3F26CD27
BE84F5B8
3C36E9A1
BDDFE03A
3E879FA6
BE4043B6
3F18F896
BE9C971A
BD36F2E9
BDCB4AE7
3C720CED
3F1F248C
BE9DDC33
3F086B36
BEA24FFD
3EAF373D
BF262772
BD2B482B
3CE936C6
BE1B6D15
3C81870E
3F14072B
3EA82F9B
3E9AD50A
3DA1B884
BDD17EA0
3D46DD6A
3EC13A96
3E1B113A
BEB4DB4F
BEABFFCE
BF10DF40
BDC8EE1C
BE8C45CF
BE136DD1
3D4B6455
BE132A6B
3E963A8E
BD304626
BE9EF28E
3E3281A0
3E50E7B6
BD929380
BE34B479
3F020C1B
BE510801
3EBFE491
BD21C1DF
3E4BDD26
BE94722D
3EEC2A9D
BE903706
BE14A489
BDDDBAEE
BDD76351
BE04419A
BC344F73
BB8C1110
3CFE158A
BDCE3525
3C12C29E
BCEA6844
BBD37AA0
3CCE7ED4
BDAB4E8D
BCB94241
BDC5144D
BBFB9D20
BCDC78A1
BD8A0899
BC906111
BDD8EC6D
3D79B69D
3E038DBF
3D3A4917
BD51F695
3E084329
3CB7F2B0
3DACBD21
3DCCE90F
BCBDF701
3CE069C2
BD05D38F
3CF6503E
BD74DA32
3B5FCAF0
3CE4A6F4
3CC87991
BD706B17
BDD4FC7C
3DE0A0CD
3DC214E2
3DC49C7D
BCAE7FBA
BC8EC60C
BD1029B4
BD648D15
BCA2C115
3C38B035
3DB47F45
BB7221FA
3D74D8CA
BE16809D
3D9ED94C
3D139302
BDC6221D
3D2EFF57
BDB575D7
3D721DB2
BD554C12
BC1DB1FC
3DEB5E88
3CE44D0C
3D85778D
3D88249B
BDCA7E0C
3C815D4D
3CB93EB6
BD749C19
BD3C455B
3DE36397
3C4F4522
3BB17BCA
BCE3A30D
BD06F2CB
BD8E76DB
BC677C05
BC74CBC4
3DF46F3E
BB0CFDD5
BC44CF1D
BDF58927
3D0EB466
BB92E9F4
BDD16FCA
BC656F25
BC86EF0D
3D580606
3D4A0974
3D664AB8
BC81C354
BDEA4137
BBFEEEAA
BC9BC51D
3D4A8D3F
3CD36FD4
3CE43BEF
BD74EEDD
BD905EB0
BDCC97BE
3CB27AC1
3C707FF0
BCA209AB
3CB9C2D4
3DA00B21
BD523AF0
3D99405E
BD86364B
3E05E0AE
BD648828
3B5AA48D
BD87A8C8
BD9669EC
BD48E23F
BE329578
BCEC66FC
3C7B35B6
BDDC778D
3DF1C44E
BD801F87
BDAA014F
3CDF5347
3CA3B755
3E06A720
BD27073E
3D9AA129
BAFA94F6
3CEA9463
BCB1BCE1
3DBF1755
BE101190
BD0AA31F
BD95AF45
3BDB776A
BCCF65FF
3E1207E9
BC56C5CA
3D3FB004
BBBAF94C
BCB560DB
3CCC53E1
3D41B2D3
BD9AB007
BDD5237E
3D7ADC0A
3D1F5BB3
BD004D32
BD2C9DD8
3D304179
3D3BA4BF
BC41333C
BCD7ACF5
BDA3F1C7
3D1ED820
BCD7C269
3BA46F63
BDCAF918
3D4954C3
3DB33E95
3CB80560
BD97C0CD
BDD9B655
3CC694BA
BB717839
BDAA652C
3C0ACAD4
3D359E65
BCDA9DC6
3E103615
BD404C46
BD8A79F7
3C2FDF97
3D9DEF7C
3D4B75E5
3CBAADD1
BD701DBA
3DE59C2F
3BC4FB6E
3D8141D2
3D1A7B59
3D4B4C9A
BCAA1DA6
BD698AD1
BD9DBC21
BDDF180E
3DBF91DA
3BD33F9C
3D798E36
3C9CBA10
3C9F59ED
BE097819
3E2A5721
3E009D7F
BD6A1100
BACBBA87
3D494978
BCA760ED
BD8CF20C
3C1C823D
3D5B8B61
3D1B950C
BDBAC23F
BD2E472E
BD4BE3F1
BD15F1DF
3DCF7A4E
3D162192
3DF8C147
BD2D79D1
BC5E56EE
BD67B704
BE73FC51
3D943836
BD1B5970
BC3C5B45
BD767964
3D3A1ADC
BD8007C6
3C4677DF
BD4B8A04
BD5E6566
3D6E253C
3D01018A
3DE7AC16
3DD6CBF4
3B39D80A
BC64BCE3
3DF367A1
3DB88521
BD32E136
BC2389F7
BC79F626
3D1113A4
BC6566B7
3C89C8A1
3D835C0F
BDC4FC16
BC332B66
BDE1744C
3CD67E7C
3C9A273E
3DB2FFEE
BCF37C44
BDAD3C10
BD893BDF
3CA4F502
3D8188EC
3DC3ECB7
3CA0D87D
3D9294A0
BD4410E1
3C66128E
3CA4CF4D
BCED9041
3D7D94CE
3DA563F2
3D60B418
BD2FAEFD
3DA0E551
BD5B4D26
BD43C26A
3DC66AD3
BE147B32
BCA2A567
BE096DB8
3D39DA14
3C79F3A1
3D93653C
3E1331C9
BE1D2C1E
BDD4F7DF
BCCB914E
BEDA5721
BB111D8E
3D96F626
BD43DF70
BC86C51B
BC45F50D
3DEC0732
3DDD40EE
BBE17DF4
BB0BCEBC
BDC77B9A
3CA5F91E
3D1D1B16
BD5CDAB4
3CC8EF12
BC40BBE8
BDC8FA0A
3CB7C0EC
3DC64A50
BDA088B3
3E069D7A
3D91171C
3DC13E8D
3B8364F1
BC881781
BC5497C7
3DD4DBD2
3D92F149
3C834E99
BD7C8425
BB91C814
3CA45D93
BDD539AB
3C44084D
BBC7B0AA
3C9671B7
3D3E345B
3D45E400
BE8F16C2
3D7213A9
BDAB2BBB
BDC8D1E7
3D8FD4BE
3C866A32
BC205A57
BE19DA82
BDA48937
3DC6F092
BCAE386D
3C98A4A7
3D069291
BCD9FF30
BCB2BC1A
BD20B85F
BDE4B663
3E886096
3BBC8DAB
3D1EC431
3D2E2F40
BDD5E03C
3D957D57
BCB0CC9C
BCD1A4CE
3D85E6C4
3DF7B310
3E3F8148
3D1FC052
BD8D6F2C
BDD57753
BD56B23C
3C6787B9
3CB5DA02
3D4351DC
BD7AED59
3D2E8BA4
B95928EE
3D34F33C
3DB1B8CA
BCAC36AA
BDF375A1
3E0F79F1
3D747525
3D964ED7
BCD07513
BDDA3D2E
BDC68ED0
3E0A33F3
3D726A02
3DA2CEC0
3E133D7A
3D320BD1
3C3CE254
BD92F237
3BEF1D2D
BC219A54
3DC563FA
3D8EDBD4
3D7A2144
3D7B2BD3
3E25C883
3D5D7BE4
BDB035E2
3D969325
BB226285
3D60C499
BCDA6FE8
BB4DE9C7
BD4A389B
BE111DCA
3E049584
BDEEA847
BAFD7378
BD19C33A
BD35B38E
3D58FFBE
BD7DBFD4
BD9F8A84
BC851EAE
3CF62729
3CCB51F8
BD751406
BD007485
BC46EA3F
BE51852E
3C8DC3BD
BD36A866
3CC27B2A
3C881B62
BDC91C72
BE1CF221
BE4EFB10
BD427213
3D34E1E7
BEB2C219
BC841F84
3E0800BC
BDBEA313
3E5AA052
BDBB3056
3E1102F2
3D968C77
BE4ADE30
BDA0ADC2
BD29AFA9
3DD04BD0
3E1360F8
3BD9890D
BE00CCF8
BDA83537
3D777B74
3DF4E593
3D4F1118
BDDDC791
3CF9B274
3D7916A2
BDE2FAF2
3E203A1E
3E3C5CB5
BDF15A73
BC059E12
3CCEE24B
BEAC5D2A
3E172820
3EB0F4BD
3E24D120
3E01B1F4
BDF52B91
3E7C8E2C
3D3162CF
3EDA15FD
BE0D3F69
BE70E3DB
BEC23E41
BD98F64F
3C9CD83D
BB602791
3CD10571
3EA1D130
3E880676
BDCF4A20
BC796A19
3DFF049B
BDB49984
BD682A20
3E04ACFA
BD635507
3E111919
BDC1D938
BE46D00B
BDC0056E
3C1A6B09
3E6F683F
3D3FCF8E
BCB3C21F
3D21110A
BD84586C
3DE8B080
BD6980C5
3E193C83
BC83F6B0
BD6EFDD2
3E21C25D
BDAA8BFE
BCA445D5
BDB4D878
3E34323D
3D983DBC
BB700C8F
BC99FFA0
BDDC04D6
BDE57802
BDEB6707
BCE8BB10
3D0C64E6
3E4D41AA
BD81978D
3E3BED3E
BDF83332
3DBE2B96
3D98268E
BDD5CCBB
3AEED58B
BD9BF0E5
BE0E12C0
BE77CAE4
BD875345
BEF6F304
3CE853F7
3D9FA271
3D2769F4
BE8D1E2B
3DF81627
BDB069B0
BD1A36B5
3BB80290
3E3FB833
BD9A98C9
BD1415A9
BCA76610
3E8125AB
BE595F3F
BE70616A
3CF8A523
BE0B4BD1
BD16A38B
3C84467C
BD65CB91
BD0E6962
3C5F204C
BD47A5F9
3D5005CC
BE3000BC
BCCABED6
BC5A3B15
3DD90710
BE42549D
3E6B8BE9
BDDCB436
BE76C86A
BC86D384
BE3DA137
BDD441A1
BC8D1FB3
3E092A73
3BD3EAC8
BE11B81D
BD171741
BD99FC4B
BD6BA725
BD952407
3E1DAA28
3D00A874
3D463053
3D2C8496
BE089AF4
3D87A5CA
BDE3ADE2
3D671E75
BC29B69D
3B4594A8
BDAB110E
3D27EA82
3DC5F8C1
B9AB56A3
BD733CEE
BCEF8224
3BFEFAB6
3E026E98
BC206FF5
3D97AA8D
3DA644B0
BDB4822F
BDCF4A05
3C840152
BE165EE0
3D0078C1
3E79E859
3D917CE5
3881EE2E
3CCBD383
3EC2D2E3
BC85230A
3DAD7D13
BC9CA634
BE8A0B5B
BE68F02D
BD33BB3B
3CA3D87D
3D2BF033
BAFD84C8
3E4D9F03
3E43C317
BDFA8742
BD1E1E8F
3DC151FA
BC57608F
BD4BC022
3D732851
BC1EDD72
3DD7928E
BD67F2EE
BD8E8C9C
3DB6F0F8
3D568007
3DD00C37
BDBC5990
3D7259CF
BDDCFA0C
BC01B887
BB8E4D31
3BD18BD0
3D695112
3C6E5D81
BC347A9B
3E2E9FAE
3CAC1074
3CAB11D2
BDE1E647
3E31F60F
3D886D73
BD0C77B0
BDCE49DA
BE94969A
BD3CCB52
BD9085F1
3D43FA10
3DBD7EE4
3DE11369
BD29AC5C
3D142366
BE1DB2F6
3D9F48C3
3CD10BDC
BD7B5AD5
3D46EC8E
BDBCA954
3D06EA8B
3DA0BE1E
3DE5526A
BD7A1674
BCCE0D24
3DBD9A18
BD4F1646
3D1C071F
3C034752
3D2A6CF1
BD57132F
BD5D834B
3DD2215D
3D8A16B5
3DFC8671
3CC5C059
3DBDF2E8
BE6251F7
BDE41E9B
3D2B98A2
3C25DB06
BDB0C506
3CC11C6A
BD267C26
BB71CA07
BD7FE723
BD44094C
3E0DAB9F
BE53A0E8
BD6B0613
BCD9E2A5
BD5E5403
BD5B9052
3DB6AE05
BD96A105
BD0E7BFC
BDB5167D
BD1767CE
BD2105C4
BD505B4A
BC8A19F5
BD9FEF60
3DA2F4FE
BD5CF557
BD79FAE3
3D76ABAB
BCF93917
3D78C516
BD49F384
3D60FAFF
BC99B0FC
3D1BAD96
BB077311
BD658372
BD6C5B48
BD0DE81D
3C493D00
3B30015C
BD486EFA
3D8F5250
BD3D76B6
3D9B2837
3D6E65DF
3C853CA5
BD054BA4
3D8ADCCB
3D06B44A
BD40655B
3D758169
3D2160CB
3BAF431E
BC95E651
BCDAE625
3C468CCD
BCAEF02D
3D174663
BD134EFD
3DA64F98
BD5A813E
BC7EE9C0
3D5CEFD5
BE31B8ED
BE17570C
BD9A1EB3
BD42D923
BCFE682B
3B4AEF45
3DA84533
3DAA80DE
BCCDF323
BBAA3CA6
BAF11A8A
BBE7C98F
3D11B21C
BA8C08EB
BD524705
3CC66B94
BC55B76D
3D1A3AE7
3DA1AE63
BA45C905
3B0FFB28
BCE35DBE
BD56C511
3B14E32B
BD90B707
3D84CE3B
3DA66F8A
BD247C54
BBF623CD
3D903000
3CF9CCC5
3B696523
3DB1F6E3
BCE8D6F9
3D55E7C9
BDC48E9B
3D64E8C0
BDB10DC6
BBB53BB7
BDD35AC9
BDC5C061
3D098D50
BCF6D970
BD2CC205
BD9DF750
BCA340CD
3D3DD896
BC6A892B
BD47BB6B
BD38A36D
BD3D2E09
3D35D91B
BD972173
BD8D43F4
BD731A06
3DC4B208
3D820FC0
BD66768F
BDA841BA
3D62F8B3
3DA5DEE4
BD70D77E
BDB7E59D
3C1565F2
BDA26D76
BDBE032C
3CA89398
3A606988
3DBAC7F0
BD803C0F
3D150C11
3D83A7DC
BD908FA1
BD9E2004
BD9A3513
BD7C6A09
3DC12F68
BD4BF2A7
BBD1B813
3D7C3FDF
BD940013
3CD50C0B
BCE06ADA
BD87D51E
3D4B14FC
BD13A5FA
BC1A401C
BCFD6DFA
3D3FE31A
BC33E164
3C357868
BCAF7B63
3D6CABA8
BD0CD4DD
3D1B149C
BD539869
3CC8B962
3D35E1E4
BD34F25E
3D8DD473
BC87F7EC
3DE77EA2
3D8DB84E
3D65B0BC
3D11BBE7
3D82B653
BD2CB0F0
BD8AC0B7
3D04F6BD
BD76029B
3D2E6BE6
BC78F3B2
BD5E6142
3C5EFB83
3D717B02
3D082447
BD534F07
3C99A1C7
3D550B93
BDA30E35
3CB1D77E
3C4A04E7
BCB21693
BD0545BA
BD1842D5
3DD6828E
BD8F0B94
3D55CBB9
BD5E244E
3DB5D08C
BC39D071
3DEC5B22
BC8B397F
3DBFAD66
3D681439
BD12600F
BDB89D1E
BD1C38AB
BDA866FE
3D0BDF54
BDED97F6
BCDE3F66
3D496C70
3D71D014
BCDCEFF5
3D8E2739
3D700925
BCB523BE
3C712673
BC626C31
3D893C99
BD8DE66B
BAA69429
BC6E1049
BD10B43B
3C8B19C4
3DB6C0D4
3D41DABE
3D840E58
3D5E3AD6
BB791834
3C757C6E
BD569CE8
3C1130F7
3D7A6488
3DA9A9AF
BA316931
3D6821B5
3B9DABFE
BB849C9B
BDD2F987
3D056B09
3CBAC325
3D852886
BBC4495F
BD58939D
BCB56F02
BCBBEA51
3DCCD368
3DA3A640
3C0139D6
BB888057
BDA5161C
BD888EAD
BD603FD9
3D826D14
3D37FFB9
3D6ADC82
3BF80FBA
3DAD37A0
3D2C8140
BD2ACA39
3C6B17BC
BD8598FC
3CBDF833
3D44D8BD
BD8BD198
3D979180
BBA1596E
BD8DABCC
3D679D28
BD8D3A86
3CF821F0
BDAFEE9B
3D280BDB
BD8B34F8
3D9E8BF4
3D38A223
3B2C115E
BD9AA8AA
BD09822A
BD364F37
BD68A2C7
3C9A960E
BAA37A99
BD1D5523
BD5CA639
BD867636
BBBF99C2
B9D32AF4
3C750AE4
3CCD4035
3D4F2F4D
BD3465A8
3D424B04
3D5E37BC
BD75EA48
BD86153D
BD9570DF
3D2027CE
3D78C58C
3CA1A03E
BCBB4043
BD5F0B89
BD2533DC
3D2B88EA
3D1F0DF5
BD71AFD0
3BC55BB2
BD33C27D
3D66FE5F
BDAC6356
BD2458BD
3BFBA491
BDC0456D
BD27E6FF
BCD998DE
BB2EA187
BCF5E5C5
3DBED9F7
3D09FB94
BDAD8417
BDBB4D17
BC413245
BCD6954E
3D0AACC2
3D92815E
3D6A0006
BD5644F6
3CBB8F28
BDF33DCA
3CBCB66A
3D54B7BB
3DAC828C
3DF6C849
BD348A20
BCCEED79
BDB384DA
BBD1F7FC
3CB1F947
BD236B4F
3D911EC9
BC08AD86
BD30C232
BD450E0A
BDAE1D3B
BD701F2F
BD924E01
BC3A17FF
3C85A56C
B956D1C1
BD99D5FB
BD8D7FB3
3D33AAE5
3CF7939A
BD6061A7
3CE1D5C8
BCFC0443
BD410A87
BD8A3601
BD82F574
3D5685FC
3DB1BDC9
BC4E655E
3D24EE06
BD8BB535
BD836CB8
BD45AEB1
BAC61751
3CB5706A
3DF66532
3D52B91B
3D495897
BD8FC9CD
BD47A3E3
BB8A301E
BD808989
3CD469D5
BDA71FC3
3DAA8F78
BDA6C85C
3D1B2A96
3D9F4F3E
3C0F4670
3D3431E6
3CBD3BB5
3CADE5C1
B93492D7
BD1A4ECB
3DA64216
BD7ADEB1
BDF65958
BC91CC81
BD704E47
BBEA1224
BD8AA7A6
3D4B13AA
BCF589F0
3BF491CB
3A550F7D
BCA020C7
3D56C3A4
BD0412BA
3D56723D
BCF8DC15
BC9C131C
BCAF76DB
3CB4C24F
3D83AE86
3D930EBC
BD60F934
BC81D405
BD88BB18
BBF012C9
BD1BFC50
BC83E989
3CB9F24A
BCA633C1
3D961E93
3DCC0983
BD99B065
BDF25687
3D130571
3CD01A4A
BD6AB317
BD16723A
BD71186E
3E2ADE80
BCF6080F
3C45DD0F
3E35870E
3DA684B0
3B8877AB
3C456BE5
BDB7FDC4
BB85B23E
3C5796F5
3C222BD6
3D849FCD
3DA5A7D4
3D157730
3D72BEEA
3DA217DB
BDD65973
BD85DB23
3D761233
3D33F01D
3D00BCDC
3D63A9D3
BCE362B6
3D02E43B
3C4651C9
BC4FDFB2
BD2E15A2
3D80C8C8
BD9A92BF
BD14AC2F
3C9C157A
BD77AF64
3DC70055
3D0EE81B
3D7BE955
BD677047
BBC408E2
3D9848CF
3D42EE52
3D234E0B
BDD451AC
BD5CCDD1
BC86B7E5
BD4ABF9F
3DA1E8C0
BCD50322
3C126236
3D40123C
BD7753A1
BD3147C9
3DB775F2
3D49434B
BDBD7ED5
3D927D0F
3CC223F7
BDF04DDB
3DA61F98
BA7A5CB6
BD3854D3
3C92A4D8
BD9B1128
BD60B499
BD75160C
3D82FB23
BD1CB007
BD03E8D8
3CD1B99C
3D98A451
3D281F84
BE51C66D
BD45118D
3D471141
BD035E7C
3CD4C234
3DB0AA49
3DC5D1B1
BE08618B
BD46007D
BD279911
3D8A1B48
3D8A4B99
BD59B6C8
BD39D053
BB9ED14B
3DD592E7
3C0087F2
3C32318B
3B181451
3DBEF382
BD283E75
BC5532ED
BC9CC34A
BD9A6A89
3D5D880B
3D0EC50D
BCF30BB6
BCDDFB8E
BCEADE2A
3D0867F9
3D076AE6
3DB3D6DF
3D9957B6
BC1BDB61
BD1A018E
3D7F7289
3C6FAAB3
3D5F0D74
BDC1000B
3D007792
BD217D6E
BDC3A590
3D756EF8
3E1EF2C7
BD275A4F
3DBB9118
3D903B10
BDB1D230
3D160B6D
BE429995
BC6413B1
BCD9BF0E
BD93D6F7
BDA902EF
3E1371E8
BD723163
BC348AC1
3DD54584
BDD51025
BD1BAAF7
3B90E404
BD4314D5
BD6821EB
3DD770B0
3E2664E8
3CC16027
3DAB5D5D
3CF32AD0
BDF0B0CA
BC8C2FFF
BDB554E0
BD85F253
BC8F4E01
BBC62ED9
BC279632
3D3F2374
3DB0ACF9
BD14CA17
3CB1F6E3
BDB254C0
BC60C075
3D689FA7
3C4C9006
BD43B3F2
3DB38A26
BDEACF67
3CC23FA0
3DB384DD
BD96C7F6
BCE979A1
BDF0053E
BDCF0ABD
BB63C1F1
BC8A9067
BD9929C5
3D719013
3BD6C850
3D0BBEEB
3D85106E
BD0C69D6
3E000B67
3A960C13
3BD63583
BC27DF98
BDAF80E4
3D9F21B6
BDA009B0
BE303199
3D940636
BCC7C9D3
BC2DC93C
3CB3EEA5
3DBFF5C5
BDA980F1
3CFA95C3
BD13240C
3C52B2F6
3D95B6F8
BDAF2742
BC3055A8
BBEB1576
3E117255
3CB1FC01
BD10558B
BD942578
BCA8E445
BD69EF45
3DA034ED
BD2402EC
3DF7C69E
BBCE533D
BD0172C4
3CB2367E
BDBB264C
BCFC5F67
BD930E80
3E646570
BDAC85D9
3DBB95BD
3C79D005
BD643AF8
BD5E6E78
BD4D3027
3D80354D
BD8624E3
BD9BCA8A
BCB6EF80
BC52053B
BBAB6305
3CD9607F
BC92E8DB
BDDDEFF0
BD4FB7FF
3D7A1BCB
BD64E1CA
BB25C3FD
3D1CF42A
3DC19936
BC29C332
BC9A1D68
BD8227DE
BE27DF56
3D15A6AB
BDAAEA8A
BC9A1CA1
BDE3BA42
3D9B0455
3C4AF8E2
BDB2B806
3B18131C
3DAF8B9E
3CDD900E
3CC91F69
BD4CEED4
3E086F84
3D5FA85C
BCFD59FE
BD0DA26D
3D57312A
3B319E95
3C3F4CF2
BC61AF52
BDBD51E3
BC964A95
3D7CE823
BD3D4863
BD67ACB5
BCD53EE7
3BF40958
BD1F306F
BD0636B3
BCCA681E
3D219C02
BE17E055
3DC47356
BE120B7A
BD6F60D6
3E2E8980
BDE837F8
BDD2C110
3C395785
BEAE4E38
3E117EC2
3DC78209
BC9FB1E2
3DD4E004
BE2C019D
3E154328
3DB97D96
BE110914
BD4B92D6
BE1E5F2A
3E27DE79
3DEE12DB
BE1B82E4
BE27B33F
BD59D0EF
3E0BF2C6
3DE57837
3DB540CF
BDCB33C8
3E244630
3E549AE3
BD3C47BF
3D08C81B
3D9A63CF
3CBE9F63
BD38ED9A
BDA6C4B8
BDFF83A4
3D80ADED
3E0D5497
3B88EAED
3D9CF9B9
BE06CC37
3EBFB3D6
3DD14BAA
3E663AF0
BE13EC90
BE4F45A4
BEAC259B
BE23E293
3D088CF7
3D84C399
3E3F2AEE
3EC840D1
3E90A4F4
BD51F286
3E430A1F
BD8D8E0F
BD8D53BF
3D64C54F
3D4A3B48
3DE66FFF
BDFB0B2C
BC275A0C
3CC99971
3E1D7C8B
3DAB6D2A
3E5A0239
BD9F3CDF
3E67D1C9
BC4D99A6
BD58558C
3C602C45
3E2E7A60
3D96B57C
3D439198
BC5FF16D
3DF70CCF
BE46D5AE
BDB6C7D1
BC85CD54
BD1E2140
3DD1ABED
3DD86445
BE117D6B
BE962157
BDC62A91
BE2CFD4C
BDEE8196
3E788575
BCB1C8EB
BCB17914
3DB2A497
BE0310DC
BDCECB9D
3DF6B335
BDDBDABC
BC557E82
BC06F44F
BE451882
3D2A4221
BD9040E1
BDC4D793
BD0FCD15
3DA18DED
3E04D3EE
3D34BDD8
BC042DD6
BD34D671
3DA64BB1
BE1BCA5A
3E64B578
3D9CEDEF
BD1EF4E3
BE10F656
3EA4B440
BE2EDA37
BE36F397
3E042D71
BE3F038E
BDF8A662
3E0B11CE
BE22AED8
BDB2D279
BD8DD5DF
BDC60C89
3DBEEA06
BCC1C8B8
BCC9065F
3D4E6E80
3E229387
BE0E572B
BDDA30B3
BC29A489
BD5913D8
BDB6A7FE
BE45CA52
BE059FCD
3E0ECE8D
BE0E9596
BD503C46
3E33BF07
BDD80B3F
BD8C64E3
BDDB0392
3DB54F66
BD5EAE6F
BD6EF2F8
3BD8C467
BE39DCF2
3D84ADB8
BD26F258
3D0878B0
BD9E5BB4
BD392017
BCAAC652
3C186AC2
3D57CD24
3D897E6C
BADF9642
3D1DE192
3D06A9B8
BDA0958A
3D0D2926
BE024611
BDD5BA47
BDCF3428
BD74D339
BD4BABE8
3CA54D62
BB7507F7
BB406D4C
3D54E0A5
BBF49784
3DEF00FC
BD28CCD3
3E1310AD
BD23E9BA
3E08941D
3E43C402
BDACF6EB
BE0DF93E
3DE9E379
3E02D081
BD7DAD0C
3C234825
3D72DA4B
3D3B7211
BC612BA9
BDB81DDC
BD851EA8
3E40045A
BDA29168
BDDAE099
3D990EC7
3E321AC2
3D50E4EA
3DC4ABDF
BDE7ADD1
3D2404C2
3D72DECD
3C9C037C
BE1D5ADB
3E142C3D
3D19C018
BD7D9C93
3B8845F0
3C143CCD
3D8FB239
BD5D9F83
