3E19137D
BC072F4C
3D915219
BDD24801
3D691AE7
BD81B9B6
BD055D4A
BD8918C2
BC4DCD3D
3DA13E8B
3D5AA398
3C49C07E
3D1FC296
BD7939B0
3DACE222
3D05ABF9
3D2DA2BE
3A97C35E
BBAF1618
3D85B85B
3DBEB2E6
3C4E0978
BC992906
3D883C8B
BDC4536C
3DAD253F
3D752D31
3D0F1DB5
BD325FC7
3D29FD5D
3D736F91
3D8EC07E
3C60E197
BA49B7F6
3D644C0D
3D3CCC59
3DD11963
3A35FAED
BC3E1BAF
3C80C36A
3D255827
BC8A4E22
BE875F0F
BE92C9F6
BD2CB296
BCB522B7
BD6F2EED
BD330A91
BD43840E
BDCFE66A
3D9F8049
BD9B4404
3DB315C0
3DA45DE2
BDD3D633
3DF11574
3DDF6655
BCB9359C
3DACD598
BD49B5C6
BD8CBEE3
BD634FEC
BC5A7E9C
3D3B6183
BBA6C316
3CB1FC3C
BCE95CCB
BD6FB384
3C96D81E
BCD9928E
3DC981E4
3D6F3601
3D4FD0C6
3DA07FA7
3DB14809
3DFD8821
BDBC773A
BDA82424
BDFDC8B8
3DB412E1
3CA0C6BF
BD6119D6
BD693F6C
3D8FA11F
3D443B86
3D5BAC18
3D273F34
3BCA6041
BD67151D
BD1439C1
BBE28437
3D6D0CD3
3DC2D84E
BD3F3163
3D6AE4FE
3CC98A83
BCBFCBDD
BD20A4CE
3D586D4C
BDC0FA91
BD464DCD
BDC5E0C4
BCFD98A2
3C929D91
3CF59F6F
3D84F0EA
BD91A2DB
BDC82CA9
BDA315DE
BC82D278
3C3A1C26
3DA758F5
3E0C9AA7
BC72308A
3D88C41D
BD83C051
BA68C400
3D05275C
BCEDBD38
3CF74765
3CF57400
BC5560B0
BD5169CA
BD1F883B
3D81FF84
BDB6D70C
BD768F4B
BE053B37
BCDB4088
BD80286A
3DB5B278
BCC4D7EC
3C258F91
3E39D7B4
BD510AF5
3CBF187F
3D887563
BC9D721C
BDB3F2E8
BD0EF219
BD5627F2
BC352338
BD948191
3C91ED38
3D5F3629
3C05FA53
3DA810D8
3AE134FD
BD963B29
BB346026
BD4CA631
3D8C9E23
3DB602FB
BD7D50EE
3D1103EE
BD1180E7
3D152B99
BC1DE100
BBE4A6C2
BD602AB5
BD03754B
3D8E1E25
BD853E64
BD1A65CF
3D3B539E
3D259BEE
3E0CD5A9
BCE6D03E
3D629310
3D9DC516
3DDAAF5E
BC94F2B6
3C8D5818
BCF05436
3CAC82E0
3CD391D3
3D61573B
BD780D12
BCC58ECB
3ADFDF71
BC1E419B
BDF44193
BDE78BA2
BD9B0761
3D53EED8
3BFF5B7C
3BF1F08A
3D518492
BE2B09A0
BD38E24C
BCC021C4
3DAA8AFE
BCDADA4C
BD761195
3CA96630
3CEF39EA
3C374ECC
3CBB2CBC
3D3F09D6
BDD38B48
BD20369C
BD918C4B
BD975CF4
3D5EB1FF
BD5859CB
3BE715BF
BD493B4D
BD1FBA0A
3D93C5DF
BDCCDA2B
3C4B1ADB
3D52301E
398E2240
BD1B5859
BD36B2FA
BC7FEAF2
BC6160AE
BD16E1F4
BD53E9C2
3DA2AA7D
3DAE82A3
3D9B3B37
3D4CA4AC
3D125F6B
BDEEABE5
BD2EDFC2
BD04CBED
3D845C3F
BD92A50F
3D046EAD
BD015515
BD098DF3
BDA37F42
3C7B0C9B
BD275C5D
BDAD2C05
BD8B8FE8
BD30FF54
BC611CDB
3D1BFB53
BC74F408
BD18779E
BC36C09C
3B4DC8A9
3B066F12
BCDC1798
BD9DC8F3
BCB3B366
BD64E43E
3CEEEA13
3D9A27E2
3D2EFD87
BD828F92
3D83D08A
3CE65D67
BB637B7F
3D835FE3
3DAFBB3B
3CE064AA
3D2C3AAE
BDFAC4F8
BC863FCB
3C832965
3D9021E8
BBFA850A
3D86867A
3D21EB4A
3E1B6AE8
3D426542
3C3DB989
3D09FA60
BD93E368
BB58205F
3D872455
BDA12938
3DB6AC82
BD937839
3CC90A1A
3CDD94EC
3D54A3EC
3DC15B0C
3D3A1A78
3D093F31
BCB96EC7
3D029AC7
BD4D831E
BE186402
3D905E1D
3B43D98D
BD4CA339
BDFFFEBE
BE1AC329
BC07494E
BCF7A1B2
BCDF6154
BD04BC3D
3DBBCBF5
3D9BC4AA
3E1F7B6F
BDE6F8FE
3C1B760F
BD83AC2D
3D89F7EE
BCFBD970
3DAAE2D8
BD51E497
3DDBFF3A
3D8E618D
3F0EBC99
3DEF6D84
3DB581DC
3CB467DC
3DA05A8B
3D7DB55A
3D464ADD
BE3ADB62
3D0743B6
BD8E7113
3D844E76
BD86F0C1
BD42B4E3
BE71A346
BD40F698
BE0F640D
3D6D3024
BC93769A
BD8A6018
3D267B09
BC04A8C9
BB4AEA12
BD69038C
BDA0E9CE
3C84410D
BD1F8E2B
BBA4DEF0
BEB9F849
BDE0D449
BB0CA14E
BE585E1C
3D2AC492
3D6130F2
BCB20A94
BCFEA5B3
BD988760
3D4B219C
BBAD48B9
3D6AE17D
BD4A38C1
BC060C16
BD1C3352
BCCAC256
3D03129A
3D8425DA
BCADF709
3D862FD0
BD19DCC8
BD0DCB42
3CFF84A5
BC31B752
BCE33128
BCEED494
BD827286
BD6DE1EB
BDE1E662
BD88598E
3D160F7C
BDBD2EED
3E436EE4
3D5B61F6
BD08617E
3DFC0A07
3DDA9AEC
BCFF871F
BCDC72D8
BD0A49B0
3DC1B140
3D9065F3
3DEA0854
3DF098D4
BD36E31B
3CD5E621
3B073F31
BDB2435C
3D2C0311
BD72145A
3DB7813D
BCD4D311
BDBD3E29
3DC1D1C7
3E193745
BD19A0C3
BCCB0867
3CFF05F5
BE0D7A0D
3DB4BA23
3DAE5D07
3E01C7EC
3D165905
3D3376AA
3DC531E7
3D4D74FE
3C6D3334
3C34CB19
3BE57F94
3C2E2710
BDDB36F3
3C8C66C6
BC8B457E
BD97F361
3E125220
BD7A75BD
3CEA245C
3CFE6F92
3D17963F
3C21CC88
3D26D6A6
3DB5747C
BCE18DB4
3D31AF12
BDC24EDF
3CD18670
BDB6438C
BDD3E7F9
BD8F61A0
BD90663C
BC459764
BDB32AC5
BBA8B549
BC5A60FF
BD8C9BB6
3D7773F5
BC9238FD
BDA3F949
3AABB561
BA165309
3D6D64DB
3D9DFE9F
3DF96E30
3CC07988
3DEA9B72
3DC2F4B8
BCF78EAD
BE842B6D
3D843068
BC234D36
BAC07EC7
3CE4147D
3D1C7472
3CF02FA8
BAC65C01
3D85F889
BD18B86E
3D969C84
3D2C33D0
BE5DE998
BE026A15
BB2F4FED
BD237E57
BE002554
3BFBC96D
3D20E038
3CA1544E
BD6B1202
BDCC30F6
3D8BB5B7
3DA503AB
BD4FE007
BCFA4BB1
BDF7B048
BD8DBEAF
3BD645C5
3DDFCA35
3D1C439B
3CC02B09
3C5AF026
BC96446A
BE089551
3D7557D1
BBCC3458
BDCE8FE6
BDD33FC8
BD8C3727
3D8C29BC
BBA8D26D
BD5017C0
BBA8DC76
BD009681
3D20D98F
3D441D0B
BDBF04B1
BDD8B9E3
BCB68B52
BE030EFF
3D71AE61
3D1837F0
BD2D3B2F
BC53351C
3DCDC5F1
BC0F832A
3DB49E16
3CEC2BC8
3C8278C6
3C816250
3D9C80D1
BB83E1E4
BD7CE5C2
3D80706C
3D1E556B
3D58DFBD
BC93E321
3CD40F3C
3C8788F0
3C15D05C
3DCAC224
BCEF957F
3D805C34
3C9CFE4E
BDF0AF2A
3D1F7AC7
3DAFDBEB
3C454A62
3D3A0A0F
BD6E3BA2
3C1E0049
BB2AAAB9
BB6CF405
3CB226CE
BCAFFD94
3D07CDCD
3DE1A9D4
BBF5DD50
BD0D733E
3C33D8EB
3BABEE54
BDA6D6D1
BD4BF54F
3B814BD8
3D344C60
BD184A7C
3B39DB4C
BD399BD3
3D227AC1
BD0A9C20
BD822EE9
3D068C94
BB3631F0
BDC8F94F
BC48EEE7
BD8D407C
BD798DF1
BD8719BD
BD9B5C9E
BD4CAE24
3DB660A1
BD90E42E
3AB6E868
3D4B1436
3DB8775D
3DB67B75
BD771D15
BC76920D
3D995DC7
BCAFEDA9
B7BEF384
3D8DE8D7
BD0A420E
3DCDCA81
3CE508A8
BD65505F
3CE10254
3C901B10
BBC634C9
3D5ECA81
BCCE0541
3E52B7F1
BD0796D5
3D07408E
BD6B4F09
3CA755E5
BC2636EC
BD0559F7
BDD67CD7
BCFF2408
3DA1A058
BD05DF0F
3D94CA89
3DACD5C4
3CB2A6B6
BDB12900
BDA4375B
3DA0D6EF
BCC02FC1
3D09687C
BD3EA707
BD6B3AA9
BCCCBF20
BD8DA71D
BDC76E83
BCC0D13C
3D64106E
3DC27A2E
BDC050D2
BD087B0C
3D7F9031
3C6E3C1E
3CF27FCF
3C966258
BC22AE5F
3D8CDAD8
3D38FC96
3C8E1156
BD8A8441
3CFA82E3
3D5D7091
3D85C63A
BA2EA222
BD6374BC
3DA82276
BB99381C
3DF2CEDA
BD6255B8
3DA2BD8F
3C82D7CC
BD29E72F
BD2AB9D5
BDB75349
3D077DAB
BBC6B349
3D618B5B
BD398D9B
3D3F515F
BDA372FD
BD80DCBE
3DC6E39E
BD495468
3CE321EE
BD27344C
BD2CDC42
BC6CD622
3DA111F7
3C7D1E39
BD7DDEF6
3CDEFF6A
3D18F37C
BD43B1F9
BB753384
BD8DAECB
BC4A68A4
BCE9E75A
3CA97224
BD86214B
BD05EE44
BDAABCE9
3D739D10
3CED8509
BBD4D49B
BD93D8BA
BD6B9542
BD0E2F08
BDA5DA08
BD001ABD
3D7DD30F
3D62D715
BD99C43F
3D673ADA
BDD30D3E
BD70C5C3
3DF3CB59
BD9E08C8
3DD3DBC2
3DAC11AD
3CD7B0A1
3CA40E62
BA38FF3B
BCF4B33B
3CD9A4E7
3DE88773
BD93211F
3D85B286
BB6238F4
3CEE753E
BD815740
3D9D5BF8
3D10E50D
3CA5B6C3
3CC1F5E4
3C2726A0
3D1A03CD
BD3ECEC2
3D5F3B3C
3CBA9A50
BD0DBFE4
BC440060
3C328AE2
BCAD90B7
3D82AA62
3D825B21
3A67472C
3CA1AB0B
BDB9D593
BCA870ED
BD8B16F4
3D483261
BE06801E
3CA20B93
3A378F2C
BD6CBFB1
3D54BDED
BD0F254A
BD8C1674
BD228005
3D054FB3
3B605D34
BD9119DF
BDA41776
BD1083E1
BDA9F72F
3D64D1FC
BE060EC4
3D0EDD73
3CE3983B
3C95B6AB
BE342BA2
BD9BB7A7
3D0522F5
BD611577
BD23A4B0
BB645E42
BD34A873
3D361914
3D3C9EF5
BD008AEA
3D9D056B
3DC19AE1
BCACA1BF
BB3CD04D
3DCBB5EE
BDED5D73
3DCD8F0C
BD935ECA
3C779C24
BD151729
3C841340
3DAAB719
BD86D177
3E090F9B
BD40C9A7
BCE8D521
3C1B1703
3C2E493F
BBC14658
3DA426B3
3DD3E1CA
3B38CD73
BDBA4AFB
3D561BF3
3CF2DC96
BD3FFF8D
BD440C34
BDA99C68
3D398E84
BD106AFA
3D8D950F
3D3C9C33
3D7C6797
BD0C82C5
BD45D75D
BE04A0D0
BBC72377
3D7679BC
BD087FB6
BD88ACC7
BD97C72C
BD77C5B2
BD2465E1
BD029797
3B423B1F
BDC74955
3DB653C6
3D0FC677
3CC3470D
BD292B70
BDB3114F
3CFC49D3
BD86267F
BDB62E34
BC156AC5
3DDBC6DE
BBF7E2C5
BD85A02D
BCE7DA19
BD1FFA71
BDFCCBA6
BE074C7C
3E23026A
BD43244A
3DBE53BF
BD6BAB67
3C926C5E
3D383A16
3D924C46
BD53C02E
BB7270B1
BCF94B00
BC857957
3C62770E
BD8E9F15
3C7F908F
3B8EB5AE
BD489149
BCB85785
3DE2F464
BC173C1C
BD09FD5D
3D27E272
BD1664EC
3DDE1D57
3DBDC4AB
BDBF082A
BDA43848
BD6A1072
3D29539E
BCC3F60F
3CE14CB7
3C0812D2
3CAB7960
BDDD43DE
BDEC0EF5
BDF6EC18
3DAFA31D
BD57E42D
BD531FD0
BC516DFC
BDEF4517
BCCF03CF
BC26785A
3C3F6C3C
BDAB54E8
BD4A5190
3DC759F9
3B0E6AC5
BD3EAFCE
3D3CCA36
3D80E4B4
BD31A495
BD8877BA
BB16ED06
BDFA72D0
BC8B6D16
3D55391A
3CA2D21D
3DD49053
BD3927BA
BE0C753E
3DA0BF61
BD3B5A5C
BC32FD4E
BE05CAF3
3D58EED7
BDD50459
BDA03650
3DEC8B1B
BC9F9BED
3CD2485C
3DA493A3
BD99F473
BD659602
BE365EA4
3DACC1AD
3B9EBE8B
3DAF7503
3D0B34A7
3DFEC86A
3C243A3C
BDA32C62
BCCAEE00
BDD92147
3DDBFAAA
BD003629
BDBE6140
3D65488F
BCEF5842
3CCE71C3
3D04F8D6
3D18B444
BD3E75A4
BCDEEA97
3D7FCE8A
3B734A2D
3DC85B9B
3D136210
BCF461C2
BC8505C4
3C407DBF
BD73E692
BD56AD9C
3D704B54
3BA11609
3CDEADBB
BC9B1EC5
BD4E970A
BCFE6F47
BCFBA3F5
BD79D42F
3D545199
3D415C51
BD9B543E
3DAD961C
3D16C5AF
3DB77A26
3D3C4D56
BD19F3BA
BCFFEB58
3DC9D0C3
BDFA5292
3CF8EF7B
3B973CCC
3C87C897
3DC8C7E7
BDEB04AB
BDA9857E
3D34E49E
3C104D6F
BDE76D55
3DD9E6AC
BDDFB14E
BA3E7A24
BDA43D08
3D2DDA06
BBC2104C
3DC3BF9B
3D3E09A9
3D31B054
3DA5D369
BD433B6C
BD5205E4
3E15590C
BC165394
BE03C82D
3E15AC7D
3D2C7C75
BDBBAFFE
BC9BF803
BDBD4535
BD198D22
BDCDA08F
3D96357B
3E034E84
BAF4AEB6
3C7B9745
BD455A78
B88C5022
BD8BDA1F
3E6BD4FF
BDFA1AC9
3D8739B6
BDBD014C
BCB8C899
3C3C6455
BD7FFEF9
3DD2C4AE
BD6222DD
BD0D5AA7
3E622B9D
3CD9994E
BE75FE6F
3CA9B0A8
BE1885DA
3CBF9B87
BE03DE11
BC870E0C
3D536C0B
BD714DE3
3DBB61B0
3E40A054
BDA346CF
BDD23BBC
3E24168F
3D3D3E09
BE6C9F7A
BE9C52D6
3DE71EE6
3DE5C648
BCF321F6
BDAF6798
3E03CD2F
BC653EFF
BCB6054B
BE537CCF
3D7179E8
3D8CEC90
BB8D5EEC
3D541924
BD85DFBB
3BD90840
3DB70F43
BD85BF7E
BD603B95
3DE953A9
3DD35570
BD2A5ED1
3DDD4DE1
3CD92D28
BE0F3D91
BD9512B1
3CC7B76A
BD6680A0
3D7F6B0D
3DB50BDB
3DC2C90B
BD91F583
3D9A9886
3C86651A
3DB2F469
BD6A9AB3
3D6A7140
3DBFF8BE
BDDF1031
3DD8126E
BD1C3F4B
3CCD9920
3CEBACE2
3E315E0A
BD273312
3DCD5A0B
3E410082
BDA4EFF1
3DECAA76
BE69533E
BCA9C378
3D63E001
3D0D19D4
3DB55B5F
3E165208
3D84CDA8
BD763549
BD1F194B
3DDFC13E
3E1AB177
3DBE9F11
BE24FA70
3E455849
BC8B5DC2
BD57A57B
3DA29397
3BD77812
BE133C53
3CF1F6CD
BE0B72BE
BC8F50D0
3D5ED116
3CBEDDC1
BC9546FA
BE319ED1
3D727523
BD2835AC
BB843CE2
BE02AC2B
BE470D2D
BD767CEF
3DBE08C4
BDEFF20E
3E2B4D13
B920E742
BB188CE1
BDB632E8
BD8D177D
BE02DE37
BD8BF832
3D73FD7B
3D78EF35
3D494962
BD4B9959
3CF347AB
3D985691
BD08882F
3D6109AB
3D374D92
BCE82CE5
3D968D90
3C6F2136
3CA520A6
BD965EEB
BD162FCD
BE3075CF
BD4FD9E0
BCA02819
BDFB5CA5
3C14A835
3D3E1A88
3D297B31
3BD31CAA
3CD88E01
3DABADA4
3DA4AB48
3D8211BA
3D845375
3A89FF48
3D859593
BCE438B4
BD69FE84
BD7FA387
3E31B097
3D9B6879
3D320A71
3D04E44E
3EB261A4
3C668FCC
3D3DAF0D
BDDB9B3F
3BB4A91B
3A9D358E
3DBFE7D5
BD32D03F
BCD29C70
BD803A26
3D9103D4
BA56AEE1
BDB15645
BE7175C4
BD329663
BCF4A9A6
BDA06211
3D58E7D0
BD9763F9
BC9C1BE0
BD6BEC04
3D181032
BD40D6F0
BD1522B7
BDABD22F
3D91F22A
BCCA1771
BE347920
BD8F85AE
3DA9C726
BD6E5A20
3D5ED461
BD00EEBB
BD3DE0D9
3D9C8A5D
BDDAF046
BCA36F61
BD409676
BD80061C
BD9043D6
3D6B4985
BB4FDB0E
BA43A033
3D685B5B
BC5A9D70
3D2A4F06
BDB75AAE
3D5D34F4
BD8B1E44
3C464BEA
BE19452A
BCDC8C48
3D6971A1
BCB69EEE
3D25FE67
BDDBD19D
BD9FC2F2
BD9B2E64
BD6537A8
3E8C474E
3D6AAD02
BDC65244
BC963E86
BC8B8A42
BC31B7D3
BDA040AA
3D8B91C3
BCA6734C
3CEB2DD1
3D8633A6
3BF09106
3CFEE7E8
3D4369DD
BD5408F6
3C550779
BC7BFBDA
BDD87478
BD833747
BD169FD7
BC08809A
3E079322
3DCE3A3B
3D889C0B
BDB67E67
3D9609E0
BCDA4505
3D15BE66
3DC506B2
BD7F8536
3D4BD5CF
BD55FD65
3D9D7BAA
3D4E2202
3CB131D7
BC9F2FC1
BDDE1EA7
BD79219F
3DD32DF5
3C63D70A
3D7108EF
BD95FB30
BD35FF7E
BCB192CF
BCB6E326
BD5A2F43
BDA74776
3CD57913
3C9523EE
BD692E27
BDA7E38B
BD7C16CC
BDFC0B2E
3D542C0F
3D9D45D6
BC9E2F76
3CBEB136
BD81572F
BDA1F655
BD18C31A
3CD20E25
3B8BD1F0
3C037EC9
BC341404
3D9161F0
3AACD730
BDD133EA
3C6732CA
3D109531
BDB7D312
BD807B21
3CF93952
3D90CDBF
BDADB519
3D1E6477
3CE4DCFF
BD399956
3D0578EE
BD1D8379
3D8FCFBB
BCAD42C4
BE2DED00
3CFA7552
3CB2CE4E
BB0CBAB5
3CB04750
3D8460F6
BE549AF1
BD8604B2
BDEFE586
BD6B3D50
BDCDA314
BDA13EB2
3D09FE9F
BD3E35F1
3D84592E
BC423E74
3C4EE058
BDCA0913
3DCA812B
3C9811BF
BE4BF211
3D851EF2
3C72ED53
3D88DB03
BDA94991
3D8E6825
3D8A4726
3C14C808
3DA9A28A
3D72DDB6
BD99A3F8
3CB2E53A
3C610096
BD648870
BDDF13EA
BCC6D196
3C644AC3
BDBBD9E7
3C1F511A
BBA259D2
3C362D6E
BD11B73D
BC8F25F3
BCF40500
3B1D2808
3CBAF5CA
BC8600C6
3D459CB2
BCA7E130
BCB7841B
BD106137
BC067D88
3DAEF5B5
3D80C108
BB0CB1B2
3D02DC03
BAB695A0
3C901F42
3AE3A6BF
3DAD702C
BC489D12
3D6B7ACB
3D80580D
BBC92CAD
BD2A188D
3D481DE1
BD73C6D4
BC8DA2DB
BD4FBDDB
BD00B044
BD8F31A9
BD44681F
3D905233
3D96C439
3DCB5203
3D7CDD41
BD86BA84
BD674EAC
BE7F4921
3CA79388
3D2BB42E
3C2674F4
BD99E9EE
3D813F6D
3D5E4116
3CEE40C0
3C8056AD
3D14A587
BCF957E5
BD5C6E55
3CFB4ECB
3D89C6A6
3BE8007E
BCE630B1
3DA74621
3BEDC142
BCDF98A7
3DA48B97
3D4A9C39
BD22159F
BD75D3C4
BD548017
BD791164
BCD74D3E
BD0BF54C
3DA7D0C8
BCFC513A
BD835B2D
3D45DF5B
B9DA8B77
3C2471A4
3DA1BAB0
3D0E11A1
BDA43F93
3D5D49F5
BBCF057F
BD11AD95
BD3A5030
3D846BC8
BDAF258A
3D81CE05
BD30E6AD
3DDB271D
3C8D94F9
BCE8DA5F
3D796C88
BD880255
BDFBF918
BD0824DA
3C02312E
BDC74F45
3D7AA228
3DB2A221
BD597A9D
BCED9280
3DAABF13
3D308CEB
3CB8B30F
3BA0E38E
BD5BD39B
BD9BD73F
BD7AB911
BA8F8B4E
3CA673D2
BD239289
3BFE7DB4
39267281
3DBF1968
3BD15767
3DBF4902
3BBAA4F9
BCAD476C
3C76BAB2
BDFE8DA5
BB25FC7A
3DABA085
3D999D38
BD41372D
3D50051E
3BC5704D
BDA52635
BA37FA7E
BD8CB8C2
BC23AD85
BDBEA1B0
BCE8382D
3D75745B
BD121CA3
BB68CB3D
3D5AF702
BD03A414
BD2DFD6F
3D3F345B
3D8D7053
3D0678FE
BD99FC02
3D6D8577
3BDA98D3
3D3EB4F7
3D4C8242
BD8F85DD
BDA8D0F2
BCC8C937
3D9D6293
BD8D71E2
3E145E3A
BD4B9C40
BD3E26CA
3D3CE9AE
BB99B7B1
3DB46AB1
3D06BF37
BD42AEA1
3DB80A9F
BC292B7D
BD15C821
3CB4A2BF
BBF0729B
BD3C52BF
3BEE46B2
3C485153
3C0937DC
3D4C006C
3DAC9820
3D07A5B4
3BCD05C9
BD8B5E11
3BFF5CD1
3D09F257
BD2617CF
BD5AB080
BD1D00E2
3D71E875
BC9D5A99
3D276A8D
BD20C324
BD316C64
3DC5CA3C
BD8FE0CE
3D9D3EBC
3D5256FD
3C223740
3D988C70
BD7CE203
BD8E083D
BC816885
3C568AF1
BCC5A1AB
BC8FB5CB
3C3CBADC
3DF472A6
3D7FF985
3D3666A1
3CD60865
BC04CABB
3D40F571
3D4A0B09
BDD31500
BD01C9CA
3D7B3141
BDB46657
BD0EA679
BC875CBB
BCB610D3
BD9FB678
BC86E9F4
3DE466BF
3C848830
BD410D51
3E1CFECA
BDAD8252
BE9052B5
3C6587DA
3D8B6A9B
3B9081AD
BD8EF211
3D3EA68C
3D26F3E8
3D8FB8A8
3E9230FD
3E1269ED
BCB9EBD4
3DA57187
BD01B6F4
3D216EC0
BE48C7D5
BEA517F2
3DEFD794
BD05C14B
BD610C67
3DCD095B
BD8FF7AA
BE3F2B1D
BC294DD7
BE1B0596
3BA03A5B
3D925382
BBB42BAA
BD8D3701
BDDF24D9
3D8413F6
3D1F45C6
3CCF9E7E
BD969962
BDBB09A8
BCF6B209
BEAB9C9F
BD394B2B
3DBCA78B
BDDE43E0
BCE01849
3C9F0305
3C35DD47
3DB41C7B
BDAA0CA2
BDAF6922
BB9F57CC
3DDA8D8D
BD19BA71
3D3846D1
BD79B14F
BCCF61D3
BD40AB4E
3DAF551A
BD30E6EB
3C0928C2
BC88F42B
BD1C4518
3D9A36CD
BDC779DF
3DC56D2D
BCF68F39
BB510219
BDE3ECA4
3D83DF4E
3BBAC5C8
BDA375F9
3DAE536D
3E52169E
BDD2E771
BD84793D
3C0ACB81
BD0C7968
3D3C690A
3C21E57A
3C95021B
BD8CD6F9
BD2A7F35
3D2154AC
3E47485E
3C81A318
BD24B66E
BD88B5CD
3D08F651
BCAD9864
3C8E1186
3D8D45EC
3D9E8C73
BDEAF343
3D706A6E
3E0C5AD9
3CBC900E
BD4956E9
BCDDB9A4
BE0FCCAC
3C44F5E9
3E098D5C
3D5197E3
3DC1E00A
3DB238C2
3D8F65C7
BDFB852C
BDE359A1
BDD0E66D
3D231F19
3DA35BBE
3C6965F5
3D681273
BD214F79
BD639358
3C186F63
3D55EB97
3C31761A
BBC70E1E
BCD5EE59
3DAB2B4F
BD4B277E
BCBF1514
3CA0AA0F
BD3F51C5
BDC94A3A
BBC116A1
3D8CEB93
BDED29CF
BD4AF55A
3DD165C6
3CC00A21
3D6D3D5B
BD13A2F0
3DBC00AC
BD14971C
BCF7A7E7
3DBD960C
3CB4E5F1
BDC82FED
BDB6B60E
3D9B3FED
3C52BC7B
3D863C0F
3AA2F06C
BD3D67BA
3D47D343
3D53D8B0
3D80551C
BD5E98A4
BDBA56C3
3D8CE632
3CA0E182
BC452828
BE26890E
BD204F0B
3DA2211E
BDAD6E57
3CCC2248
3C6CA748
3B8EE55A
3D5CD482
BDAE4DA6
3D3BEAA7
3D3EA7C3
3CC51EA3
BBDD8E57
3CD392D5
3B1411D2
3D90D72E
BD52F85D
3D52B47D
3D945B18
3B5B6937
3BFD1B47
BDBAE48C
BCA405A9
BD83A620
3D700180
BD8CFE91
BD40F24B
BD489F74
BD893DD7
BD20B778
3AA67267
3D5EDC6C
3D521CE3
3D8A38AA
BCD8F849
3C427317
3D983DBB
BD6623CE
3DDF321D
BD547007
3C7523AE
BD005848
3CFD4B45
3C397349
BCBB4E90
3CB3A757
BDB6D304
BDB5A3C1
3D9E6765
3D9B5728
BB52C991
BD8BA3CC
BAD96559
BD158EA5
3BDFE3A9
BD7D31C7
3D0D7482
BD52F0C8
3D017866
3C2EA108
BD44332B
BD9895AC
3D880B61
BDA9C4ED
3D13C0CA
3C66B99D
BD635377
3C7DEC09
3CE5CBEC
3D8118BB
3C7539E9
BCB43DBF
BD747590
BD6D7FB5
3CEC74B3
BD94B9EC
3D8EDAAF
BCCB4878
BCCD268F
3CD173A6
3D3AC5E1
3DAFFAEB
BBEF8FA5
3923DE8E
BC7752FD
BD6383A3
BDBA4D39
3D54E08A
BDB13E7C
3D39FB39
BDA89FB0
3D56E9DC
BC1D41AC
3DC9FD72
3D81A000
BD3A8649
3D8DA9BD
3D933785
3D85DB19
BD7BC075
3D88BD39
3D85FFC1
BCE9C673
BCAAF7DB
BC547F08
3D83609E
3D534E46
3CB29122
3CC915D3
3B45E2D6
BD253B9E
BDDA4972
3C6FE307
BD6E8FBB
3D80B438
BA5C10CA
BD0EB2EB
3CA5FE67
3D87D66F
BC90A58F
3DE021EC
BDCD6A9C
3D96A1E5
3C897CC1
BD8F7D0C
3E020E4E
BC9276C0
3D147286
3D3377EA
BC15A6C2
BD04BF0F
BB333A59
3D4C8460
3D93B289
3CBC9974
3D2D0B46
BD0BB3E3
3E0D0C73
3D9047F3
3B2791BB
BD995346
3D040896
BC9D62DD
BDB22DC1
3C620853
BCFB0585
BD981A6D
3D862D7A
BD66845C
3DA45468
BCCE9AA3
BD0C10E2
3D3C8084
BD22AACD
3D49D808
3D82224A
3DAFB1EA
BC233E9A
BD394638
3D5C456B
BDB13C8B
3C469A84
3CB34DCB
3D55539C
3C95F936
3D2213A3
3C1DF6C9
3DB560E9
3CAEA94B
BD47A6E6
3D88834C
3C14CB7B
3D5B267A
BD66B9FE
3A211521
BD924F84
BD732E28
3A83DC3A
3B9D73F9
3D336A33
BDB5EC0C
BDCDA3C2
3D88110F
BDAEAF04
3CFFE808
3DAD59E8
BD68D5DA
BDA73E8E
3D5ADD41
3DB97210
3D8895C1
BD3DB403
BD2946BB
3D62FDDC
3D719BBC
3E0D9F39
BB202DE2
BB680766
BC095071
3D6E20D8
3C8E0E86
3CA953F1
3D972416
3D325BB2
3C84CC12
3C813DE8
3D99EA10
3D6CE1CE
3D5C1258
BD8DB0AF
3DE67D5D
BDAB0400
BC18EDEB
3C03E214
BAC38B41
3D46930A
3D5A2070
3DECC78F
3CA3C394
3C88808D
BD93BE98
B8BE3884
3DC058C2
BCA378B0
BD840998
3CA1EFDA
BD709FFE
3D9620D9
BD26D4BE
3D56EBB5
BCC8BA79
BD8296E0
BC04E469
3C9A1601
BCE46B54
BD605A66
BD8EE270
3C6EE033
BC8C3741
3D2228C2
BDC6C97E
3DABB7E4
3CAA962C
3D85F498
3CDC7F22
3D888E7C
BD0A3ADC
3DB0DE71
BD9F0BEE
3D98F61C
BBE470A9
BE0777A2
BD72A1E9
BCC8AE80
3C8F73D1
3D877684
BC4B9A07
3DA7F25C
BD2F176A
3D98C85D
BDA38405
3CC9A1B5
BD696584
BD1AFC2D
BD9016EF
BD3CB35A
BDEB1C1B
BD67C886
BBD044BE
BCD7E031
3D47B41C
3D7BBA71
BDE10195
3CEEB834
BA2193D3
3ACAAA55
3CFA7D09
BD2C8290
BD953564
BDAB63ED
BD915FCB
BC0215F5
BD86667C
BC198E11
3D9F058A
3C3FF2CA
394909A7
3D8392E9
3DBB77F9
3D341A79
3DA87DAB
3D6530C7
3D9AE80E
BE2B51A9
BC1C1407
3CA2DB01
3CC54041
3D9DBD02
39AC4D35
BC211127
BD037AD4
3DA1534B
3D29D711
BC0BD43B
3D3C2215
BD744EE2
3C934EDD
BD136AC4
BD9DE87D
BDB32266
BDEF5AF4
3D5D961E
BD85917F
BC17065F
3DC02748
BD80AB1E
3D9E1E81
3B56ADA6
3DC641DA
BD586946
BC1D5544
3DC29FA9
3D78E816
3D39D2EA
BD0B52BA
BDC23593
3D8C130D
3C113B76
3C4B351D
3D989E32
BB365EAE
BCBAEC7B
3D411CEB
3DAAF100
BC362348
BD963DA7
BD7E6D81
BD3CC51A
BBE2FE7D
3C9079FB
3C7A94B1
BD9B648E
BD797FD3
3D212A9D
BD805969
3D03CA17
3DB2CA72
BAF3FD57
3D935598
3DA997E9
BE85B277
3D567F33
BD6D8A57
3B4D0C40
BDEC9B41
3E089A38
3E266857
BD9FCFA8
3E16CF85
BDB37E98
3D4BD312
3D79CF37
BE4B2E31
BD031896
BCC58FF2
3D89FF59
3E43C3C6
BCC86E43
BDA4AD6D
BC1E9EFD
BBC40D89
3DFA43E4
3D8151FA
BD579753
3CB78C4E
3DFBBDE6
BE2C38D2
3D99779A
3E522A04
BD6CC164
3D12BCA3
3D50D6AF
BDB39960
BDA3ECA1
3EA9C384
3E5F5346
BE104648
3D37C4C8
3E48AD04
3D1E565F
3E757096
BE33D882
BECB5AAE
BDCC73A0
BD3CE6B6
3C3E88B2
3E1E9843
BAC31C5B
3EDCADD1
3E136007
BE1F272E
3E299590
3DB87363
BD685829
3DDF1031
3E5720D0
BDB63222
BDDD7676
BD89F47C
BE4D8079
BCEF10D5
3E342B87
3E8CE64B
BDB00A26
3C958EAD
BE3FEDBB
3DC06A01
3DC078ED
BCE69F8C
3DBC607D
3DAF5D31
3CC170E9
3E2F2FBA
BCB1FBE1
BE0E4A3F
3CA143AD
3EDA525F
3D84F799
3E5D9DDC
BD232FB0
BE804F13
3DE13D67
BDEDC0C0
3D71A648
3D7677E9
3E86983C
BDB58852
3E286409
BE947F42
3DC0A479
3D285732
3DD1386C
3E7D215E
BD8BADCE
3DA41D45
BE77A292
BDDAF244
BDC26098
3C9A987D
3E2BDB0D
3C8E6721
BE826ED1
3DEA18A3
BD299090
3E6A7BBA
3CE30F64
3D3F9630
3D4EDC4F
3D664B28
BDA51D12
3E7D790E
BEBDDA4C
BEF363F5
3A453E5A
BDFF1F58
BBCAC9B3
3DEECEF8
BDBA64A1
3DEB9F56
BDFD759F
BD59CE4D
3E0AEA3F
BE8CB791
BDF9B307
BD3D5E65
3D1B2B3F
BE76B5FD
BC56DB64
BE34B72C
3D8BC06D
BE4B7A3E
BC4C6E0D
BE6DC084
3CE259A2
3D7F18BA
3DBE9FC7
3DD45DE3
BEC7485E
3D5AB441
3D16014F
BDAF722A
3D2791F5
BD0C45BC
BD350C41
BD8A13C1
BD237A81
3D38BE6D
BD952F68
BD825A04
BDD8E333
BDAE993F
BD34C785
BDAA9840
BDFDD3FE
3D8816D1
3C738447
3D711074
BCF4D55F
BBBFF018
BCB94E10
BB946647
3CA82D05
3D4B2311
BD1C39BF
3D89BBD5
BCFE38F0
3D1EF56E
3A2EAC08
3D731927
BCC534B3
BD0B16FD
BC3D1B74
BD36C693
BD1896D0
BD1AB10C
BD9E1007
BD3D6645
BC47DE10
BD2732B4
3D6A64E6
3CF3B874
BBB9B7C3
3CF37411
3D6F3A55
BCD60A0D
3CD4885D
BD0703B2
3AEB43FE
BD7F9C45
BD19B144
BD8A35FC
BCAD98E0
3B88D3A6
BD9C475A
BD6BE2A2
3D108A2E
3D754EDC
3B7F0605
BDADDCDC
BC3C65C2
3D77107D
3CB147C6
BD9DA4BA
3D32D106
BDA25311
BD03C874
BD3F2232
BD66513B
BD8571E9
BDD8A47F
3D9D84D9
BD7DDCDA
BD03700A
3DD73F4C
3D5044C9
3CF31E10
3D6E04A3
3DC10C92
BD907AE3
BCCE933B
3D311C65
3C533633
3B771144
3D09EC80
BC728D7C
BCEF58F9
3E0B0B1E
BC88F171
BD9498DD
BD5C781B
BD276C8E
3D91BFFE
BD30BA55
3D9C0563
3D8F8523
3C0831B7
BD2200A9
3CA3257F
3D0AC424
BC7B8EA1
3DBA1DE1
3D4F77E8
3DA90083
BC99F717
3D21C708
BDD2BD9A
BC63E50D
BD3678E8
BD6C9BAA
BC1408D2
3D031803
BAE61C29
BC086719
BBFA25A3
3CBAF219
3C27A7EF
3DEECE3C
3B942852
3D2103A1
3D8EB17C
BD3DDC19
3D6FAF45
BD31956F
3DBBE35C
BD013222
BCFE42B1
3CB74FCD
BE1B5F4B
BE3AD85E
BE1E62E3
BD396BDF
3C8A2395
BD08D673
BD2298CC
BCFFC0F0
BDC2C2AD
BD94AE9B
3D871B27
3DAF9778
3D54DC89
3CD807AE
BAAADE7F
3E406FC1
BCBABF7F
3BA52972
3D23212F
3D83923E
BDC39669
BE0DFB57
BD55A625
3D9ED07D
3D87203F
BDEACF24
BB01E3F9
BD63DA8B
BD92E96F
BDAE423D
BCC788D6
3E4BE462
BD57AC92
3D14C73A
BD0AAC8F
BE73F3EE
3BD10E90
3DB2AD43
BC878565
3E5D3E4F
3C47ED7F
3E29FF71
3DA59F6D
BCB1E3B8
BD966CC5
BC4666A1
3E051AF2
3E18136D
BCF1D5E1
BC81BE1B
3D64745C
BCB4D24A
3DB230AC
3DB96FC0
3B44E139
3D18D8BF
BE94A76E
BDA649BB
3E4BFA46
BD605AF1
3DBF3DAB
BD525B14
BD122755
3D99AEBC
3C5ADE53
3D6E8DAD
BCA39A3E
3B36A60D
BE1EF333
3D2C6081
BC922C02
BE6D0983
BDBB92CA
BD68A1E8
3B95D837
3E6C0449
BA8AE6C6
3D72F174
BA226412
BD09974E
3C5EDC59
3BD5DB3A
BC9006BE
BD6FB651
BD309549
3DB5B0F8
3D897157
3D422B20
3D7AE91A
3D60933B
3E56603D
3E235D1E
BDEF8F3A
3E2A1973
3BB07424
BDA0B56F
BF115DC2
3DC2F011
BB29950F
3E0DEA17
BE24AA1E
3DCF58F6
3CCDD342
3E0E4C22
BD71EFBF
BCE53BDF
3DB3AC04
3CA81CFA
BA2046EB
3D65FBA5
3C778263
BD588E9A
BB8CFD56
BE07B840
BD0F3641
BB361C76
BDBD44E7
BD33289F
3CCCFC52
BDC5D34C
BCDCC883
BD935BE5
3E5BFF1F
3E01E090
BD6737E8
BB45161F
3D98DB8E
BCA149ED
3E103AB8
BDB5E8CB
3DF48451
3D5B69EC
BD6FB920
BBB16BCF
BCF18782
3D11347B
3D3BA3E5
BD6272F7
BCCA92B0
BD73AAB7
BE14AFE9
3C9A1763
BD1DCC9F
3C4FBC6B
3DB3CB42
3C961F46
3C85C52C
BC946E0C
BDCBE5A0
3CC997B4
BDD35B0C
BD2F62E2
3D84E4CF
3D3C3ED8
BD6D226D
3D93563C
3AD7C79F
BE05F9D2
3CC06B45
BCA3AE3B
BD6BB149
BDAD608D
BC79B579
BD37D6CC
BDD52EEC
3DAEB89D
3CB1E16F
3D3BD820
BD972216
BD268109
3CC270EE
3DF32541
BD4C5DCA
3D920DC7
BD58036C
BCAF2DC0
3CA28307
3DA057A7
BD228F3C
BD757062
BD213FC9
BD2DAE8A
3CE01E43
3D9C7ECF
BE1112CE
3E0D3719
BD8C2CE7
BE2E2846
3E025B96
BC3A1B7A
BDA3E775
3DD401ED
BC9BEDF8
3CAC18C2
BDFAEB9C
BD4B199F
3BF63EBF
3DC8BC33
BBDBF34E
3E054097
BDD236C1
3E73A6AD
BD17AFCA
BDF3FE6A
3D8FA64F
BDBD9185
BDCF8F6F
3D56BDB2
BCF9FE43
3C1E535A
386F23B9
3DEAC63A
3DA7E272
3DE2E191
3C00C4EE
3D153F4F
3BE74E92
BDA5BF76
3D36049F
3D44AC45
3DAB396A
BD39B385
3D97DF10
BE14E70A
3E20BFBB
3D54F67C
BD4D135F
BCFDF0EC
3CA7E7C0
BDA6D5DE
3D8A19BC
BCA2712F
3DAD86A2
3C4B48BE
BDA5AD62
BD9CD870
3DCDD540
BDD1FCED
BD653FE6
BD3985B8
BA559778
3DB93BCB
BE081055
3E0187E8
3DB1E577
BDBAA744
3DD6A210
3CFDBDF1
3D4B8943
3D9F5AEC
BE3B05FB
3C443CA6
3C15BAFA
3D6A8809
3E400EDD
3DE10279
BD66CE03
3C857220
3DA55276
BBE8B8B7
BB914788
3BFE1422
BC3A571F
BDC215FF
3DA4A7C6
3DE47D3D
3D712E8E
BD5E6F0C
3D53B999
BD213603
BBAED768
3D985868
BC9B23BD
BDA25F63
BCF87309
BAB306D3
3D14ED8B
3DBA11A7
BD9B4216
3CDDE35B
3D8C576C
3D0AD370
3D69AAD7
BCB7C32B
3D119E6B
BE134BC3
3D5B3E2C
3C9A45E2
BD8267C1
3A814D9B
3DA5728C
3D6474E5
3D902E42
3D1DDF31
3C539FFB
3CC5548E
3ADFCC59
3C14D0DA
3D488FB6
BCB5AEE4
BC8AA16F
3D3E5B35
3D564FD6
BD74AAED
BBE4B90E
3DB5624D
BCF9E940
3E477879
3DA11644
3D00B1AE
3D8EF4C3
BD4C9E94
BD7642FD
BD19285B
BE45190F
BD0A5828
3BD619D9
BD8E4608
3C8D6E63
BD9EC46E
BE19BF8F
BBC08F65
BE611B03
3D1C7BD4
BD859025
BD38109B
3D866203
3C0DA7AE
3D5EED41
BD0C8EE7
3D5E6388
3D6E387A
BD6E6652
BD1F83C6
BDC620D9
BCC5B389
3CD0BCEC
BADA5DAF
BCE4E186
3CCDD830
3C81528B
3D183EE9
BD39109D
BCC763B2
BD92CD89
3D3C0138
BD2F85AA
3D0A5B28
BDA74E93
3D33EFDC
BDA541C1
3CC741F3
3C47E816
BC4A3F94
3D82A097
BD891DC5
BDB7AACE
BDE5692B
BDEE83A1
3C78FCCC
BD8F83D0
BCC4C633
BD95DE39
3D9C2A8E
BDEF0B00
3D87FD4E
3CF12516
3D702DFB
3D733D7F
3D87FA5F
BCBD1F80
3D0A151A
3DA1DFA6
3DBB82E8
BD2FA354
3DC8ABBC
3D927592
BD44D9F7
BCE52F04
3D6B9405
3D8673ED
3CC58825
3DB89D31
3CF80EE5
3D7D0851
BD355466
3C09E0F5
3D580725
3BF3A5D5
BD226D8B
3CF25537
3BB4E43D
BDC8A186
3D323877
3CF96252
3CFD9C99
3DC45757
3C67FC28
BE30F80A
BE170BFF
BD76F542
3BB1B128
3C57CBCF
BC4458C0
3D38D54C
3D2136C7
3DF8CC4A
3D885582
3D4E7269
BD54A2F8
3CA0BD8A
3D13BEC9
3D0A3144
BA31A252
3D960547
BCECEDEF
BDB30309
3C4BA921
3E07FACF
3D059482
3A9FC1D2
3CE06256
BC2670ED
BCCA1BD3
BB275FCD
3DD77A12
3D4C1118
BAA51B69
BD858D93
BDAE47EE
3C800B69
BD055BF5
3D8D3726
BD18B927
BDD40987
BD5B3025
BD847A13
3CE229FC
3D4EBEC5
BDB68EB0
BD676CC6
BDB42806
BBEBC88A
3C84C3DA
3D8B991C
BCE4A251
3DE708FB
3D776B44
BCE9F2F3
BC00F891
3D34293A
3AE296CA
3D97E31D
BC74A3F7
3CD3A1DE
3B97D41D
3D890D35
3DC656E2
3C94AF14
3D7FF7EA
3D3F7C6A
3D826EF3
3C07B649
3D0EBE26
BCE3B83C
3D85E4FD
BD5AA69F
3E245ED5
3CA52411
BC67282D
3D8114D3
3D816A5D
BB2F7568
3D3E3A35
3C90DBD5
BBBC643F
3DD26F39
3D0456B4
3CC064BF
BDC34556
3D6CCDE9
3D8BEAA1
3C190DBD
3D58E2D8
BC15E3E9
BBC12309
BD622605
BDA02F90
3DE37D7E
3D3F0584
BD4F1A5D
3DC6BC27
3BFA28EF
3CF7E46D
3BD56C30
3BBFB124
3DA0D819
3CE4E395
BD8C47B8
BC98A20D
3D49A632
3D60EE9A
3D7E0737
BD6469ED
BD37E946
BD40E56E
BD392E42
BC0BB72B
3AAEC77E
BD00748D
BE10A57E
3CDCDE52
BD0E2DB3
3D3F9C22
BC9A9502
3D3369ED
3D8A0288
BCA5EEAC
BD8C01BC
3C436A23
3C2E8C50
3D272F7A
3D87AAC3
3D0966DF
BCA7F9B9
3DDA3B07
BDA7E2AF
BC030F6B
3A9580B0
3D8B4DEA
BC1BF669
3E1443F6
BD23BAC8
3D070DCE
3DF7FD17
3D58FFDE
BBB6E57C
BCA17CD8
BA839D48
BDA8F297
3DD6E852
3DD78997
BD8B7698
BDAE4FDA
3DAD4EE0
3D10B5F8
3D330DD1
3C868332
3D134D01
BC693BA3
3BE28E9E
3D88D05D
BC858DC4
BCCD504B
BE123070
BCA97224
3DD41CB8
BE1B658F
3DA118AD
3D58F35F
BDE8E714
3D81170F
BDA63776
BE06AB73
3D0A52CA
3E810EA0
3D42146A
3DF31C72
3D312592
3E1AEC44
BE125FC8
BD7C1B31
3DD3FCD7
BEDE21F8
BEA2AACB
BCFD53A3
3DAC3ECF
3DCB0ADB
3C60AAE6
3E37D384
3E90370D
3C650FAF
3AEC019B
BCFCFBC4
3C283A3C
BDBFF965
3E58BC2B
BCF729EE
3DD49F51
BD862111
BEA4B066
BD482A7E
3D9CFDDD
3E35613A
3DAFE498
BDCCB33A
BD8330E3
BD58805F
BD13541D
BD084EDE
BDF12FFB
3DD0CC6B
3DBA5C4E
3E2B84F0
BD04F5A8
3C29A7AF
BD93F151
3E585B41
BCB54857
3CCEF714
3DB6CCEB
BE8ABA72
BD0AFE8C
3D450ACC
BD1B2D53
3D81C02B
3C42EE9D
BDB7206E
BE380636
BCDE6F26
3D527048
3D22B9E9
BD7E4F3B
BDB0270D
3C20D921
BCC2C64E
3D98A66D
3D83005B
3D4C90DD
B84EB894
BE0C2CAF
3C388F89
BE48E370
BDAB1C94
3DAE60C4
BDA1DB83
3DE5B93A
3C974C02
3D1FBE84
BD3365DE
3DE19660
3E56DCFE
BDB23BE7
BE0E24C2
3CFA5F1C
BDF3ED52
3D400D64
BDDCA71B
BD937588
3D9337FF
3C591D48
BBC5C947
BB18FDF5
BE1C5621
BE19E768
BD37CA7A
BD803864
3D11F129
3DF536F1
3D243696
BCB9051F
BDB5C881
BD83CC0C
BD18C90A
3CFD56F9
3D1B199C
BDBEAEF7
3D34A2A4
BD9BD045
BB9B435B
3D8D4184
3D78D1EE
BD7CD774
BC9EED96
3D4307A4
BBB19AF6
3BD5FE17
3BEA4475
BD0142A8
3D93CA91
BD742BF7
BAC32BE4
3CBF386A
BD251F2E
BDFDEACD
390223BD
3E08C8FC
3CB3C19E
BCFE6612
BDA1BA8A
3CA57C7C
BCA09359
3D7CD655
BD2C03DA
3D8288B0
3D08AEB0
3D6AA2DE
3C49B739
BDFEE881
BC8A3B52
BB68D8E9
BD655A85
3CDF83B4
BB7C5811
BD26CD39
3DAEDD67
3E7BE11B
3E35F49A
3DC84899
BC71575B
BC109143
BD53DCE7
BE07A121
BE25D7E6
BC48A805
BD9E3D59
BCE2F12C
3DC79015
BD8EEB4F
BD6D7C0A
3B6EB1ED
BD82727D
3D49C5A9
BCAF93E2
3CE2912A
3B815114
BC98A1BD
3D335DF9
3D841E42
3D20D2B9
3D095E00
3DB920EA
3D8326BC
BD1AA05D
3B7010CE
BD88DF35
3CE42A16
3D3F2EEA
BD7A142E
3DB529A5
BD663A74
BDB93064
BD24F03D
3B8BFF25
3DFC6C1F
3D0EE7A2
BD8423CD
3C91BEBA
BD3516DB
BD862C92
3C8CC063
BD021856
3D890842
3BCCC5F0
BD15B485
BD156077
3BD9E980
3DEE0638
3DD198CA
3D6AB042
3C3E4103
3D70B46E
BD8A9005
3B9B2295
3D8AA45D
3D5B62ED
BD5B2D73
BD90E048
BCFC89C9
BD459719
BD9CAB71
BD71D17F
3D420083
BC3EE086
3DD11FE3
3CFCFD77
3CE6D58D
BC93E62C
3DB62E0D
BD2318A1
3D90CDDA
3D88EBC0
3D025F9C
3DB07D49
3D94D43D
3D5BE91A
3D8A2F0F
3D63EBF6
BD27918A
BD30FA71
BCE961EE
BDCD1F38
BCC98F30
3C99A2A4
3D11220C
BC68380D
3D73A37B
3B627139
BA676683
3B18D281
3C0477B8
BDCED8EE
3C9D0E0E
BD8DC3BD
BD48A662
BC63955B
BD77C02E
BC0B0637
BD6E8BC9
3C915659
3D231C4D
3D2B6506
3D5699C8
3CD07A46
BCF6FF91
3B57FF8A
3DAA6064
BDB2F40B
3D859228
BD8E0EDD
BD2B2E09
BCB42A4F
3CD36827
3D509948
3CC8E821
3D099D1D
3D2DFD46
3D95B3B5
BD3B2F30
3CD697C2
3D9FBBAD
BD9D8CBA
BCC66443
3CA036F7
BDBE775E
3D72E04D
3DA7D536
3D483CEB
3D1F29F7
3E7C735B
BD0B7D4A
3D00EBA8
BD0F8831
BD848873
BD33EE29
BDFC6C2C
BE107882
3D60269E
3D9AB33B
3D8732A3
3D06CBA4
BD6F9C40
BDED566D
BC0F4599
BDAFF709
3C323AC5
3D4DA377
BB208F0E
BD99D225
BD56D0E7
3B835148
3D6BA2EC
BDA690F1
BD9DDCA1
BDA8C66D
BD36A6C8
BE36B6EE
BD3736F1
3BBDCE06
BDEB2FEC
3DA857B3
3C8A756A
BD745181
BDDD42C4
3D051195
3C9F67D5
3D1727DD
3D25BE53
3DA05200
3D494FBD
3BF174C2
BD737ED0
3DA0305A
3C0015CF
3D4366A7
3D06146F
3CE33747
BD846710
BD93F781
BDC6149E
BDD02C83
3D2F4728
BC949CEB
BB7449B6
3D40394B
BD9054E9
3D492A2B
BD42EA33
3D04813F
3CEAB617
3C386C22
3D9934AF
3C210FAD
BB8A45F9
3D039749
3D4E11D9
3D819A08
3D323323
3DB99B94
3DF4D70D
BD911664
BB534048
3BD073AB
BD8B72ED
3D6D690F
BDDF6F67
3DC3B4D7
BC6395F2
BDA42433
3D5312BF
BD36A5D7
BDAAAE0B
3D608302
3CC08013
BD9788AD
BD8AC9D1
BD849FF0
3CAD96C1
3C8492B1
3DC06D99
3B77C64B
3D8218F3
3CDFC6E5
BD950B89
BE522F20
BD207114
BD584DEA
BD7297CA
3D99DC9B
BDB562ED
3BB1296E
BDC7D5ED
BB95C3D9
BD9C47F9
3DC5DE29
BD6ED72E
BD93255B
BD13368C
3D092C51
BD5592EF
3E0A8544
BCB39889
3E0E957B
3D62F50A
3B921516
3CFD85D8
3CBABDE1
3BA97C75
3DA1A398
3C6B8966
BCB736AE
3D9FFB57
BDEE85C7
3D5DD858
3CD916DD
3D43CA47
3DA78BF7
BD24CB5C
3DC66EEA
BD1CA715
BD648090
3CF9A01F
BE8654FE
BE204D3A
3D086343
3D9E0AA0
BB0B6DEA
BD31E055
3D99ECA4
BE0AA638
BC890E97
3D529C52
BD560F71
3DE5633F
BD4BBC31
3E17BDBB
3E0199CF
3DBCDD95
3DD77681
BBDCC13D
BC939E5D
BD707BA1
BAAC1572
BD96E57D
BD9058E2
3D9CEC7C
3D9C896C
BD67296F
3D3187FB
3A26BBB0
BCCCEDAF
BC4C4D0B
3DBAB93D
3D5576B5
3D549C0F
BD2CEA49
3C5D07CE
3E11C107
BC9523A9
3D6436C1
BE0EE306
BD08E742
BD78B2B9
3D1BFD19
BD7BBF43
3D6003C9
3CE27B35
3D205BC0
BD96D0B4
BDD1CDD8
3DA9307B
BC9B2169
3E2347A6
3E7D37A0
BD53B6E4
BD1B80E0
3D2CF04B
3DD5BE1B
3CFF9292
3D96AA1B
BD352714
BE1BC991
3D645765
3C909C5A
BBBF5354
BC9DBD60
3DC3AE05
3D776024
BDBBA817
3C515E21
3E0FCA7F
BDCC2F32
3D79E163
BD463816
BCF1F0CE
3CFF01DE
BC1A5541
3D88F46E
BD1235ED
BD267D42
BD0543AC
3CB553AF
BE382D7B
BDCA8E2B
BD35D74A
3D99E7BC
BD1A6567
BE0F3C92
3C84862C
BDBAAA0B
3D8B136E
3D713CE4
BBC56403
3D63E9AC
3DA48EE4
BDB0D08A
BDC57C31
BBB08E19
BDCCACD4
BD8B07CD
3D9254AD
3D90707C
BD4D0455
3CF6E519
BD899121
3C1E0116
BD4F82A2
3C14616A
3CDE4DCE
3D803435
BD34C9FF
BC3DE5FF
3D66FD8B
3E17C57D
3DA33088
3CABB92C
BCE1D009
BD431A74
3D149B58
BD53EEED
3D6769D7
3D7F80CF
3D57E4E6
3CEF6CFB
BCA17D33
BC5D002B
3DC76EF5
3E601D9F
BD1546C1
3C7F747F
BD39168A
3E757C70
3C099F0B
BC8D8158
BBE6E4F1
BF01C1BE
BE40A577
BABA93EE
BD500E93
BD4A1913
BD22B049
3E2235FF
3C45698C
BD81DA1E
3D9D8EA9
3CB7E5BA
3D380606
BD66AC77
3E1F9ABC
3D96DC47
3DC401C5
3D639ED6
BDD5D689
BD9E713F
BD037835
3DDCC01D
BD45ADF2
3D547BC0
3D5D1CA9
BDB1C9B7
3C8F888F
3D8BA2EC
3DD5620A
3CDB6D34
3D0B4604
3D3D8C4D
BDDB8DB8
BB937551
BCC4569C
3D9A8C0B
3D692870
BC8B4BC3
3DC7DE6B
BD84A275
3C245600
BC05725C
3D5C30E9
BD8D7133
3D88986A
BD3AD360
3C49F0E5
BDB54D93
BD92BB17
BBDA7962
BDCAA848
3DD56F40
3D9352FE
3D22B2FE
BD422887
3C84C97E
BE12CBFE
3C9B2E34
BCD609D2
3D9E5975
BE0CBFDA
3DAE56B5
BD10E007
BDA96CC2
BDA5EC61
3D4D4EA2
BD08CAA7
BC861E8D
3D0510F4
3E225607
BD0780FE
BDCA68BC
3C9EB776
BD55B356
3DCC7179
3CF6FBA5
3DA170CB
BBA74CA7
BC259C87
BD9FD555
3DD3438F
BDEF94A0
BC2C3E17
3D28BE2A
3D421117
BD86B54A
BD9AEF1B
BC4CAD6D
BE0C37C5
BD9A00BA
BCFA1B1F
3D6995B0
BD06E0F5
BD114537
BD8EB57A
BDB48ECE
BD8581EE
BC92022B
3C80A98E
BD872A37
BCAA79AC
BCF48B52
BD8CA2F1
BDBFFB9B
3D82F17A
3CC7F8ED
3D1BB6E3
3C82BBF2
3CB88DC6
BC7F321A
BCCA6437
BD9478FF
BCF5241F
3C5346B9
3DBA3280
3CE8A154
BCB446EF
BD1254D7
3BC1925C
BD5ACA0E
BD3F8A01
BDE0402C
BC6F6035
BD511C4A
3D8E2423
3CF7BDE7
3D1561DC
BDA4EE55
BDB49198
3C8EA981
BCF4051B
BC4BF3D4
3DA13C17
3DA19756
BE12356B
3C949F09
BD14A27C
BD8E9826
BD91C435
BD48B7BD
3DBD996D
BD0D72AD
BCCA5DD2
3DA2FBC0
3CB12DF5
3DADA7A3
3D183FD2
BD6F65B1
3D345DBB
3CA97168
3B605168
3C4167CA
BD232EAE
BC8E9A01
BD1D1E11
BD8066E3
BD34EF43
3CA1C5E8
BD852AD7
3C55ABD9
3D7177F5
3DC9C4B9
3DE9D27C
3C9823F9
3DC83B30
3DA3EC3E
3DC13F18
3DA3327B
BC870F43
3BB77CF1
3C02C8E7
3D253091
BDFDC30F
BD3C5E07
3D213B24
3DB481FD
3CBB44C5
3D9FD15B
BD2D2CB4
3CA716AA
BD666E2E
3D2AD1D6
3BB3C82A
3D23C54F
3C928107
3BC46BA0
3CB21F6D
3CE5F862
BDA68F4F
BE23E100
3DBD53E5
BC411A92
B6979ACD
3D70F86B
3D2F8472
3D8A681D
BD2DB961
BDDBCA53
BD043526
BDBB330A
BD9C5A1B
3DCDDD46
3C0585A3
BC27ED0F
BDAF1737
BD8E4C22
3DB57C50
3D6703A2
3A99E2B7
3D68B74C
BD479DD6
BD06098A
3C1C0A68
3DAB10DD
BE012909
BD5D255D
3C49B291
3D878711
3DD25248
BD86EC6F
BD378A25
BD448A7E
3DA1BAE2
3B69CA92
BD1AD968
3D3C5C2C
BD2BA1A4
BD3E846D
3BEBA603
BD50F74C
3D06DCC6
BE161A1E
3DF9E244
BE9D856E
3CB0931B
BD3C8150
BD29EAA2
3E00A09E
3DD72C6C
3CE75768
3C89FED2
BDF8A00A
3D827D44
3E387428
3D1F8D21
BD422C90
BE0633D5
BC81BCD9
BD0D8673
BE0A038F
BD32298E
3DC74ED9
BDD6F354
BCE8AB4A
3B955683
3CCA3EAD
3E330A33
BD0D613F
BE28B0A2
3D2D8AE8
BE06DF7C
3E07320F
BE1A1760
3CD4500E
3DA6EF1C
3DFCBDDC
3E8EE51F
3DA2BF12
BD9BD45A
3E2FD58F
3C8F28B8
BE13C8F0
BCF93363
3D838437
3CBC3FDC
BE0E8E9D
BD9112D8
BD7B280A
3E9BAEAF
BDB0B42F
BDF87EF5
BDC9B9ED
BE0D2F35
3D80E59D
BA57376D
BC863599
BDC34B29
BE37BA74
BC843386
BDE7CEB1
3DD696B0
3D82C49D
BD9D1934
BCF62714
BEE393B5
BE24F484
BDB26E42
BCEDA9AC
BCAE5090
3E03EE87
3DB032AD
3DA3C031
BD119F65
BE16AD27
3E0EE0B1
BD214CEA
3C226ACC
3CB4262D
3D565707
BDD23910
BE17674D
3E1911A0
BE50F66A
3E8AB046
BD95C246
BDB08044
BE0DE028
BDB7365C
3D22B173
BD22039B
3C718985
BD85CECC
BEBCD014
3E5BAE47
BE8D9C6B
3D3DF0B9
3D645A42
BE011DDE
BCE9396A
3DA00BCF
3D48EFDB
BD8EC57C
BB7BC487
BD8B9615
3D28C2AC
BBC3A236
3E31237A
BD22EAFC
BDE869B9
3DAF660F
3DF4A7C2
BD50C7F1
3E0AC103
BC8F2CC9
BDF59429
3DB30191
3BC4444A
3E31BBB4
3D9C1881
3DB9C0D6
BDCDB7D7
3E79485D
3E022DD1
3E350AC5
3DF82709
3E243C5C
3DAE24D8
3E75F797
3E0A2DCA
BE28B857
BD84CF4C
BD17A251
3E0AF831
BD068A05
BD149E96
3D16C445
BDECDD79
BDA36978
3C336181
BDC8BE7F
BB2D902D
BC8246A1
3DE581CF
BE025B24
BD581C81
BCDEEEA8
3CCA5DF2
3DCDEB10
3E26DD92
BDEF2C4B
BD8803F3
BC593F16
3D3C523B
BCCE3004
BD808190
3B818FE3
BDC8C209
BD6A3203
3D0D56B3
BCA5398B
BD2EEA3E
3CCF1CE4
BD4EA4D4
BDF8FF4D
3CB0AD0C
3D2600E3
3D6221B3
3CD7937A
3D48D871
3E34E288
BE97A7B2
3DA5428F
3DC4841E
3C78F8A5
BE0E7BA2
BDDAF5D5
3E03AE68
BD890F10
3AB9D817
3CA837F8
3D651D26
3E2AC00A
3D8CD5F0
3DA5D705
3DC2D1E8
3DC83F4C
3DD14A17
3D1ED3DE
BD944E53
3D714A78
BD5EA93B
3D09760E
BCF7AE2D
3E391552
3D89EC39
3D12D81A
3D3B6564
3CE5DC43
3DC9C6E1
BD89964D
BCF7FDD8
BDFA4E0F
BA7CE43B
BDA25BD3
3E3B2258
3DA8B599
BE1C0E75
3E3D0F4E
BDE68598
3CDE4E14
BD791B4F
3D54C567
BDA39F57
BE36DD2D
3DA62171
BD9C9E77
3D0E06FC
3DCB74BC
3BDCDD37
3AB483E7
3DA76736
3D776CEF
3DD8F67E
3C70BABE
BC5DAF12
BEE9F362
3DEAF69E
BD014440
3D2040E0
BDD79A50
3C26B7DA
BD11DB3A
3CBACD5B
3CC24428
3CD011B6
BC91914D
BD78BFF8
BD06F52D
3E2E0CB2
3E3EA07E
BDAE2C87
3C194498
BCD32F22
3AE1F644
BDB6A3F5
3D1D6F4C
BDBF9FED
BDE5EFC1
BD1D3A50
BC359670
BE05146B
3CF0A834
3A95B5AC
3D2A290C
3D664B18
3B3A6607
3DE68852
BD9C95F2
3D85E65C
BBB9A7A1
3DDCDDF2
BD87851D
BE8AA396
BE0887F9
3DC4F58A
BE0AA3D5
3DBEF436
3D558AC9
BD8E6ABC
BDAE97B3
BD13BB39
BDA84C5B
BD22F154
3D2D31ED
3D77C28C
3CBFB2F3
3DAD973C
3E8E855F
BBE905BE
3D135BB2
BDDFF3D6
BD737258
BCF50F91
BDB2A76B
BD2E8831
3D269A43
BDADC20A
3DF25AE1
BCF74912
3D97D9BA
3D0FE93A
BD66F8D3
3D119AA7
3E6447AF
BE3080D8
3DA703C3
BD55DCA1
BEB65B7F
BE055CAA
3DAF53F0
3E1F62CB
3EB732E9
3D76F78E
3E8A4EDC
BE24AB60
BE33BD02
BD84F650
3D9C5AF6
3D966317
3EBF84DF
3DD37E1F
BB6A313F
3C7B98F3
3C254A72
3BA49728
3D09A220
BE204F9D
3D5F7BA9
BE9597EC
BD054E4B
3EAFEC32
3DC79C5D
3D42D7B1
BE26EC91
BC6D955A
3D2BA0C8
3C6D9FCB
BD7FC951
3D559EDE
3E20C0A6
3D247F5B
BD2626DB
3D656C7B
BDEF1597
BD41302C
BDC67482
3BB057E4
3E42202F
3E291E7F
3CEFC1FF
BD9AFA34
BDCF1405
BD71A4CB
3D7BEEF9
3D611FD0
BCA028D5
3D8CAC1C
3E0325FD
BC1ECBC7
3B25C4F6
BE0B7D56
3DB4978E
3DDF7CFB
3DB26D99
BD1A2461
BE054E96
3D302EAF
BDBCE2E2
BEF57064
3E1D2128
BC1F4353
3DB407C6
BC454ACD
3D4734D0
3E296CBF
BD8460D0
BD75BE2D
3D41649A
3D88CC49
BD82426C
BBAC4C5E
BE04AA1E
3D022A9D
BE0BFEC8
3DD35646
BC0B5ED0
BBBB2310
3DD5CE40
BDF9BB1A
BDE2F258
BE0B8038
BDD2B056
3E29E2BD
3E0A15CE
3E928086
3DC28F5E
BD4EFCA8
BD411A19
3E1706E2
BD0BA481
3E19886E
BE0B8F94
3E298D33
BD01D0E6
3DB6A12A
BDDCD614
3C3FF62F
BA814B40
BE4DD29A
BCC76B59
39D945F2
BD80CC16
BD109E18
BD61EA8B
3D31B51C
BD763D2C
BAC00513
BD130ECE
BD98CA39
3CA5BE35
BD429A09
3D339328
3D41D9F8
3DAB024F
BD43920E
3D2213DC
3DB867BF
3D86488B
BD86D567
3D1CC77F
3DC9B300
3BC2F885
3B995069
3D23D3C2
BD69DFDB
3DAF75C7
3DE4C5A5
3DA12341
3BC5C8EF
3D8C4CD2
BD03EB24
BE01F864
3D4C6D31
3C947192
3D35C75F
BC4A6C95
3DC9C34F
3CC302FF
BD9BF9E5
BDCC0684
38B1CED6
3D04BB38
BD9B0513
BDED6071
BE06A8C6
3B541A7D
3BE087B7
3D38DB0E
3B57AFBF
BDB345F1
BD541BD9
BD89C446
BD336FCF
BD258DD9
BD6C2A05
BDCCAB99
BC840F6F
3D1DCDE9
3D59C51B
BD1AF61B
3C7A4DB9
BD13B12D
BD09C7AF
3CAAA372
BD904094
BCB4E82A
BD5EC7C4
BDF37FB2
3CC6128E
3CA114E3
BE15EFE2
BD83AACA
BC0EC158
BD3025A2
BD56EE3C
BC01A33F
BC0C4C4B
3D2AF1BB
3D82652E
BDC67AB1
BCAC3CCA
3D7939B5
BD1755F5
3D0C4AA4
BCA6DBD7
3D85CCB4
BDC8BFC1
3E2541FA
BD1F4FD4
BD6C19F2
3C79F829
BE85A75D
BC510CC3
BD589723
BC80E45C
3E032CEF
BDAA0AF6
BCAB781E
3CEBFB5C
BC516050
3D870206
BD5E4771
BDB1EA7F
3D17573F
BD938213
3DAAF970
3DA6A21C
BD8B7F7B
3C42DB06
BD99BACA
3D7F27C3
3D4A8AF3
BE01DAB7
BD19AC16
BD787542
BD6D9F07
3D2A5A16
3D85644A
3D24BE93
3D2D70C9
BD272749
BD3C1CD9
3D83234C
BD42FF4C
3DD4F01C
BD6FADFE
3D009869
3E55E1C8
3EB909FC
3D16E8BD
3DA6BDBB
3E12E785
BD429EF9
BE2DF301
3DBBAD90
BE94BAB0
3DD29902
BE5AC676
BD8E0724
3E982865
3E4866F2
3E91D5E1
BD1E03E7
BE00CA88
3E0D7166
3E8ACC19
3E5FC7B8
BE9F2ADD
BE1CF3C8
BE38F4CA
3C8C0E66
BE2A60C0
BEBC0615
BC8FF896
BE8F34D7
BE3B8D09
3D9629CB
BD5398FF
3C973978
3E2E8CBA
BE601E3A
BE181AFA
BE628B10
3E368244
BE6AD9C8
3EA2BC98
3D28057D
BE37E92B
3E669FBB
3EB2CD41
BDAA3162
3E503687
3E1BA4C3
BE326FD3
BE00D789
BD12DC08
BEB6760D
3D8CD650
BD915F3C
BD8D7096
3E4CF9FE
BE732B3B
BEDB7800
BE4020E6
BE80FB0B
3D9032FB
BD47DE4E
BE13E9C2
BDB97181
BEAB629F
3D99AD3B
BE19FAEF
3E04E20F
3DCF3C99
BE816854
BE1CE189
BF347D56
BE3D23B3
BCA8AA59
BEFECEC2
3E1F6102
3E89B3C3
3D528A94
3E60112C
BC46A5E1
BD0BC863
3E844277
3E554EA4
BE1A47A3
BCD76359
3E147094
BDF28A1E
BE6CC9FF
3E40F2EE
BE6B880E
3E9E831E
3E05560F
BE3C9C62
BDBB5704
BDD70C2E
BBDA7DB6
BDA66FC0
3E05C916
BDDF12C2
BF028213
3E4A6CE3
BEAA768C
BD479850
3E8C3A00
BE38720F
BE20EE0E
3DF3972F
3DC7846C
BE10EB1E
BD3E01B3
BD187684
3E153B4B
3D3BFEC9
3E7975B0
3E650B74
BDD5A759
3D9B370E
3DA51346
BE8906F5
3E1133C9
BC2EC260
3DB5C663
3E29CC1D
BDF603AD
3E6F5177
3D98F3FD
3E0AF8D2
BE289771
3EA88C0D
BE18182B
3E5F6797
3DB1E990
3E37DADB
3DEED840
3E7C4E94
BCCB5995
BDD6F106
BE1E2B78
3DA7321E
3A6C4C82
3D827830
3D8B5E1E
BC6F294E
3D200FF0
3D7B3A26
BDBEE397
BD5986E2
BD3DEDD4
BD8261A7
3CEE44CC
BD890E72
3E1BA740
3D490D22
BCC20813
BC46B861
3DD408F4
BDB81EFB
BDBC0C59
3D79FE21
3D5960E7
3D08C061
BE1AEA10
BE0EC516
BD926898
BC2DEA74
3CA8CBB1
BD8BE3A3
3E2643D9
BCA8EB36
BD2D1176
3BFF51E3
BDC32EDB
3C00E332
3DB5C3E6
BE117445
3E5BE5F5
3C08D436
BED67940
BE690328
B9B5AB0F
3DAA4BB1
BD37AD0D
3D18E6CC
3EA39AE1
3E4EADA0
3D9A1D8E
BCB336A4
3B1A19F2
3C4952BA
3D483FA5
3E599136
BDBC3AEB
BE196101
3E034897
3D7306CB
BBCE826D
BB9C7AEB
3D998B99
3DA945F3
BD06528D
3C7762B8
BCBCE9C0
BD085046
BCA673ED
BB9CB0D9
3DBB5BF3
BBD17C4C
BE07389D
3CF5D046
3D6A9CFA
3C4A36DB
3EAFC038
3D1C8B94
BD0D6B99
3D36ABF1
BE727FC3
3E445246
BB594142
3D92B077
BD56CC78
3C835C26
BCD28808
3DD66CCC
3C2838E4
3DF8E87F
BA9E53E0
3DF2066A
3E900A86
3DB62CA4
3DA3DA0A
3CE0ECDA
BD9941FE
BEE7C141
BD1BEFE0
3A277F7E
3D31110A
BED0148D
3D500B96
3E23F9A5
3DD73DFD
BD92DDFB
3DA13309
BDAC4ECA
3DB02285
3D66C96D
3E034F7C
3C73C2B0
BE60FE1F
3A595064
BDA4AD67
3D1D9FAB
3C6C0948
3D51E419
3C25F034
BD4E9B4C
3D61AA24
3D778906
BE34B2D2
3C9952E2
3E186A24
3C344B21
BC8C2746
3C3B3D18
3DD3BF72
BD9BAA38
BCA4E99F
3E297BCB
3D1B497D
3C78CD26
BCC08FF3
BDAD4D2B
BE6D70EE
BE4BE4AC
3E6502EF
3BE22349
3CA27358
BDFD0793
3C06968D
BCFE2397
3E931DFE
3DC83903
BD92EB4A
BDE5DDFB
3DC0AFEB
3E57F9E4
BD3C439B
BD429AAA
BDBF0A6C
BE33522F
BCBD00F2
BE4D1B3C
3DF6AD63
3D5967A5
BB30598F
3DAEB7EF
BD2B352B
3D8351F8
3E12E4BE
3E299F3C
3E09FE07
3E02531F
BCA5EE0B
3DE5BFD5
3E39C6C4
BE9500BE
BEAEA0F7
3EADE789
3CB33BED
3E236410
BE0A33CB
3E9CDAB5
3E18C2FC
BE0DCCA0
3A7CC491
3E5D7DF5
3DCCAAFC
BE0F9584
BD80452B
3D72D12E
3E4F6EFB
3DA53F59
BB6A6AF2
3E42BE6A
BE13E20D
390C5CE1
BD897233
BDE7D35B
3E8F79B4
3B1D7AF2
3CB66AC0
3CB0738B
BE3AFF6D
3DB0AB1B
BE1FE3D9
BC670CBF
BD5363B5
3DA4F189
3E62A9BB
BDD95A6C
BA87DBAC
BC35B1DE
3DAE288B
BD210EC3
BDA85CBC
3EB14904
BCEEC815
3E26FCB7
BD0D8A75
3DD7F52C
3E917049
3DF6B8EC
3D2585F4
BDA7EC9A
BD436280
3D59E6C9
3E7459B8
BCFBFFE0
BE341F3C
3CBA6AD5
BD91CC67
3E6E67B6
BEC52784
3E1A343D
BD5DFEDC
BD57E58A
BF2B1484
3CB29376
3D2A1EB2
BC36B9DB
3D0C4D7E
3DB86E76
BD41128F
3E4C66B9
3D2AD5B7
BA4829D7
3E016320
3E4041C6
BC605F1B
BE606628
3C882228
BD82F34F
BDCD4C26
BE08AD2C
3BC9C601
BB9E05DC
BDF0078D
3D3EDAA9
3CFAEB03
BE50E688
3DF3364B
3E1B44F9
3D51D8AB
3B867122
3D0831C5
BDCC6065
3E1A5DF9
3CEC57BD
3E205BB9
BD81C866
3E3B351D
BD3F652E
3D9D5965
3D8C992B
3B3D5572
3D9BE5EB
3C4EAA32
3BF24F6F
BA83528E
BD8B960A
3D1A1837
3C303DC0
3D6ED8EC
3D76B688
BDC574FD
BC065A24
3DB3A188
BD041C4F
BD83BF4C
BCAB23D0
3CC65A88
3CF2506F
3E0018F5
BD280702
3D30717F
BD24B427
BD007002
BD1D47A7
3CEEBE24
BDAF6374
BD36648B
BD7F094B
3D78F76B
BDB5DED3
3D8A1556
3C48D902
3AC91D04
BC8FA6F7
BABC2B03
BDEAF201
BDD8C678
3C4FF287
BD1194E6
BBF15A02
BE9037E0
BE164DC2
BD6FE8FC
3D94D57D
BD117530
BC5D5F8C
BC832859
BC99FA72
BCB78C94
BB82555A
3D17E52C
3DB9455B
BD984123
3E0A07F6
BD11436C
3D8D8C0F
3D591883
BD94BDE9
BB823336
BD860EC8
BDA1BCC0
BD94AAFD
BCD886C5
3D75AED6
3D92B72F
3D98F160
3D879A90
3DAD31C7
BDC102AE
3D13297D
3E02C87B
3C71B34C
BD41938B
BCC5C9B9
3A25AFE7
3CBFA339
BD994042
3DAC24CB
BB7C0030
BD66F79E
BD937745
BD02EA9B
3CC6ED34
BDD2E8E9
3DB2592F
3DD649C6
BD5A12B3
BDCB1709
3D39F3DF
BDB88A0C
3C75D051
3D1F266C
BD2258B3
BD13F466
3DC1724A
BD9DB1D7
BD934375
BD5FD022
3CD436C4
BD48EA90
3DD44A70
3D0BF5AA
BD6F5F03
3DADAB28
3BD959B9
3CB77908
3B9B0D5C
BD47D7DB
3D0124B6
3DACC875
3B48E6C6
3D3E5C97
3C79053A
3D4ACC7F
BD26B513
3D1AFD01
3D36A2EF
3DC49F41
BCD2C56A
3C5D42A6
3D957E2B
BC2E45CE
BD404BE5
BC9FD43C
3D79CA3E
3D26CE7B
3D8BFAA5
3B4D6C22
BD6AD6CE
BD8EA565
BCCE2887
3E2E5A3D
3E4A410F
3DA30763
BE206A90
BE9CCD96
BE2EADCF
BD61B969
BE13E25D
BDFDA405
3BC9D7A5
BE66B611
BDE7B7D5
3E4EA9B8
3BD458F3
3DA2E91E
BE44F957
BD8377D2
BC502AC5
3D978835
3E29DE4F
BC830CAA
BDE559A6
BE2D6246
3DEC1377
BDF01C35
BE81198B
BE6CEF8F
BD1FE5EF
390C3F8A
BE1CF249
BDE2ACC6
3E28399F
395B2385
BE2689D8
3E59D28A
BDB8580D
3D14A3E9
3D8B5906
3E9483D8
BE211F27
3DBB1483
3E140FB0
BE814AB9
BEA9868B
3E30772C
3DB84A10
3DCB39F3
BD86BAF2
3E9CE450
3ED01D9C
3E7C79E9
3CD5DE08
BD3666CF
3E28C019
BDC300BF
3D8DDC2F
BDB7017B
BD8806BF
3DF74554
BE6BCC80
BD9BBE15
BD97E3E2
BE5A7FD7
3DE41ED1
BDCD69FB
3CC88585
3DDDD1B0
BC27A25B
BDDDCEC0
BE105235
3C4B2A6B
BD4C2979
3E1C38CB
3DA4ACDE
3D505941
BCFCC421
3E9AEB63
3E015E40
BD586A9A
3E31D55E
BE81876F
3BAF7030
3E3C57DC
3E148092
BE089AC5
BE5EFB24
3DC711E8
BDD1E4A7
3E48F2AB
3E8FE1FF
BDDC5B22
3D660A00
3B0D3F91
3D0EB776
3E0F5467
3D18E8B5
BD3C32E9
BF0529EA
3E54015A
BD5D1722
BDAFDAC4
BEA2B8A2
BD9674C7
BB1046F1
3DB13153
3E3B2C48
BE097177
BDF9F079
3DAC6515
3D498D98
3D10B809
3E457A43
3CB8693E
BDB8D40A
3DCFF06E
3E229F96
BE4345BC
3E2FC89C
3CE21346
3E2F319D
3E12017D
BE9810A2
BD87FE92
3D2C1EBF
3E109CA8
BDF842FA
3E4B92D5
3E859366
3E4C73A5
BE85BD30
3DA191CE
BD9E3DCD
3DC141B1
3E060469
BDB7C1D8
BC926EB2
3D40844A
3DCD46F6
BD6CAC28
BDD4856B
3D5CA4C9
BDB1FE1E
BD4BDE40
BD26D1D6
BDC38B65
3E045423
BCC7EC83
3D938061
3D5B83BF
BDE2A689
BB8CDA86
3D920534
3E0FD772
BDCC97B9
BBE826B2
BD90D852
3D539101
BDE90F9B
3B9A27D6
BCAD2CE4
BC89195F
BD6835FF
BD49EF78
3D901EC3
3BF4A320
3E07D64B
3D107FF8
BDF4B945
3B8D4B20
3C984CFE
BDEB1BE5
3DC2812A
BD3F3606
BDE85313
3DF74DD2
3EA96533
3E0954EB
3B786677
3DD373D8
3C390AD9
BDDF6CD5
BDC37DFC
BDAF40A7
BB820E11
BCE912FF
BB275EC7
3D8B6FFC
BDFF6C92
BE70C0F7
3C909148
BD9079D7
3D6F1564
BCFA5A2E
BDAA7E85
3B623DDA
BC9281E3
3DB0C0A8
BDE71873
3B7A9091
3D1EAB67
3CC44B13
BCCBDE4A
BD81690A
3C0A011B
3D975CC1
BD86E222
BD150AB1
3DFB1CE4
BD70E967
BE34F7E5
3AB3A1B6
BDF04436
3D953E38
3DE71624
3BA8E2E7
3DA6FFBE
3B3197BD
3B834712
BB5F0556
3DBBF962
BD5E6FE5
3E1C5E48
BD68199A
BC5E5271
3C34EEEA
BC941043
3D21AA72
3C01FAAF
3DA3EA78
BBFE08CB
BDCB93A5
BC98FFA6
BDA60DA5
3CEF9E79
3DF192DD
BD82DB23
3D652BD6
BD0045D6
BB8EF7B3
BC1E2BFB
BDD00B46
BD1A58A9
BD545743
BBF567E1
3E0AE466
3CF0F393
BCD5DD22
3DED5312
3D80AF22
BBFB0B66
3E045DCF
BDEC1BA5
BD62ECF5
3DED6B73
BDC6B42F
BBF001DB
3C9ED52D
BBE57102
BD36EE33
3B0D958C
BDD9889D
BC06C9AE
3B1225A5
3DCB2B88
3C87D465
3E0B1275
BEA2A73E
BD176051
3DC1A9B6
3CB1EAB4
BF20567F
BA4345CC
BD27231D
BE2253CD
3E4C1942
BD10C426
3E900EF5
BE307BB5
BEB48377
3D1DB171
BCF2133D
BD92B83A
3E5A0111
3E00BF06
3C91067D
BE020E26
3DB5E17C
3E1BFDC9
BD1760DA
3E1D0F98
3DB94355
3E899EE5
BF0E677F
3CD27035
3E1B7747
BE245A74
BE6AFD5B
3DB0FAF7
BEC4C1A9
BCB18C8A
3E80A98B
3D8D7869
3E28A230
3D9CFDC3
3EAA467F
BE7CA743
3EAD87D4
3D27989E
BF2996D6
BF0ED4B9
BCAC3DF1
3E1CB4DE
BD42F9F5
39F47E1A
3EE235EB
3ECDB0FF
BE72242B
BD0870C5
3E06146D
BD4F0417
BDFD9B87
3D932A4B
BE4AC0DA
3E7DA555
BD56550C
BF35B246
BEA81A9F
3E6BB86C
3EAB0EC6
3E49B6F6
BDDAF450
3DBC1545
3C86BEBB
3D164503
BE867316
3DAFDCA0
3DAB58B9
BDBDB8AD
3F11C090
BE813DE7
BDAA7AF3
BE49CECA
3EBB82E4
BD193D99
BDA0A814
3DFAE61A
BF134437
BE914BAA
BE916F87
BE0273A7
BCF10683
3DA08AF6
BE522DBD
3E2F2120
BE350819
3E2D91C0
3D877726
BE1ECA11
3E990801
3BE89508
3E48AD7D
BE118D62
3DC11CB0
3D4BB30F
BC8845EA
3DF8051D
BD7284DA
BEB3DA73
3C3121C1
3D100536
BE03213E
3C8EE24B
3CEBEA7A
BE2E3356
3E1374A8
3C415FDC
3F2DD1CA
BEB618EC
BEB47288
BDF7B360
BE3A60DB
3E0BC9E1
3C96EDCD
BE289119
3E62DFF8
BE31A5F9
BD58063F
3E77B7DC
BF22FFCB
BE988755
BD948B7D
3EAC88F5
BD9C546C
3E71CB39
BE125885
BEFF7993
BE30BD0F
BE426924
BE33CF34
BD755FA3
BEC5B0A1
BE5F92EC
3E3DC9A3
BED15B0A
3D524288
3D20A1B9
BDC79439
3D8E5E98
BD281F33
BD8C23DA
BBF31D8A
BD18263F
3C370651
BBB151D4
3DD4F319
3E567AF4
3DA7339A
BCA92AD7
BE11E3F8
BEC2F570
3DD2900B
3D68111E
BD162D49
BC3432A2
3D44EB04
3C8FD23B
BD0E504A
3E3238B9
BD490BCD
3DDD0EB4
3E2B19EE
3C88685F
BD282A18
3EAB0209
3BFC16F6
BDF51DAC
BD14DEBF
3D839302
BD1DD5D1
3EBACC05
3D2413A6
BD0E789E
3BB0096C
BDAC2F6B
3D77A5A6
3C37B96A
3DEBC2AC
3ECCD3A8
3E4031CF
3DBC7CA2
3CC1A9A3
BCB79ECD
BD32B366
3B08D852
BD8E6474
BE0D80EB
BE192E04
BDF07ACA
3E223975
BCAD4B5D
3E05CE26
3D1DAB49
3C7412C2
3DE91637
3CB7CE93
BC9520B4
3D996516
3CCE0663
3D1DA3B2
BDF41F8D
BC0BE441
BD28B2AC
BDD9232A
3DD46131
BB6482BF
3F0638C6
3D6AFC58
BA85E452
BD5D1323
BE85C7B3
BDE0E794
BDB7716A
BD7B2D68
3DA9D77B
3E22F5E2
BD22A881
3D7F07D5
3D73EE4C
3DA39BA9
BC1B3CDD
3DE41A91
3E46D5FF
3DC3E254
BD22763F
BEA37F54
3D84B8BA
BEBC46E2
BD1E851C
BC3B39C8
BCECE1BB
BE579789
3E0B2EFB
3E59F128
BC6D8A07
BD8D60A8
3DAE4260
3D8F7552
BD9BD763
BD70A3C4
3C512B81
BD658C8A
BE39591D
3D16CA67
BE574E29
3D779F00
3D80CF3C
BDBCA062
3CBAD81E
BD96D1CD
BD2A4FB2
BC7E8F68
BE349922
3DB2F405
BD6C993B
3DB9B790
3CAA3FD5
3E8C1F1E
BE171CE1
3DF7919C
BE096A27
3E7E7A60
BDB690ED
3D003986
3D5A9486
BDA064D1
3D00C0FB
BD7A57D0
3D88FEAA
3D245819
BD6085E5
BD4E8B71
BD6FE8C1
3CACF5E7
3D3A0EC5
3DEAFC20
3D954252
BD9EF2CD
3B25E9C5
BB056932
B9A0C8E6
3C6D3A4B
3CBAA5BE
BE30F0C1
BC505BEE
BCD57436
BE00BF50
BDAB923E
BD846C5B
3DAB97BB
BDD1BB13
3D4759FF
3DA92AA5
3D48F227
3D6BA248
3D2786E8
BD1A4DA4
BDA1AD35
BC22050B
BC82B608
BD9E4B7C
BD38EA07
3CD26B88
B9ECD788
BA93EB74
3E83825B
3DD7BD13
BD6C49F5
BD30F48F
BCD598CE
BC14F0E3
BC163BAB
BDC4C1E9
BDAFC82E
BDA4CFC0
BCB775C8
3D5E4245
BBA161EB
BD80625F
BDC1B548
BD138109
3C3CE7DD
3CCFBE94
BCB30947
BDC859EE
BDE7342F
3DAEFDDB
3D2120BC
BD27C5A7
3D8EEBA3
3A6CD38D
3CBDAFFF
BDDA39B8
BD8EB01D
BC3F65BC
BCE9DA04
3D574D4C
3D95E21B
3D1BBD93
BD956DA4
BDCE24D6
BD3C4E4A
BC19FF5C
BAE61C4C
BD899E57
BCD7EF90
3A746795
3D94170C
BD8D4956
3AA57012
3CCC2568
3D993A43
3D287F20
3CFB3B7A
BCF0CE04
BDC88197
BD3CE7F8
3D1975A2
3D77B539
BDC2B120
BB4209CC
BB5AAE6F
BD567D73
BD0A1D0A
3E4D1D3A
BD7A9855
BD336BDD
BD0BC9BD
3D20B20A
BD6F9EA9
BD02809B
BB8DF6DB
3D34D916
BD815F8A
3D21E2DC
3E0A4342
BD9B555B
3C1B9730
BDB32ACA
3CD4A269
3994A86E
3A854024
3D548E65
3DBC6F07
BDDB5195
BCDBB94F
3D984B32
BD7F7FC0
BD68DC45
BD50C2EB
BD458E95
3D8CFE60
BD14F106
3DD2003B
3DE58FC2
3D6A8B3F
3D9426EC
3D24A945
BC9FB329
3C1A81E6
BE0A981E
3D909C85
BC5675E3
BCC155D1
BD711724
3D861329
BD6EFB15
3D33DAE6
BBAE6366
BC1BE187
BDBEC61D
3BD0AF1C
3D96145C
BD2EA70A
BD87388E
BCE7B8D7
BD219A39
BA5A939E
3DC50BF6
3D9E77C4
3CC4AE66
3B8F3C7C
3D00CE19
3CEC5CCB
3D89FA37
3D161A0B
BD17DF4A
BD28C8A4
3CB6B76C
BD25F5F1
BCDBE132
3CE6EDC0
3CF86A95
3C50820E
3D96750A
BBC3F5DB
BABA03D9
3CFEAA40
3E0DCDC8
3D317815
BD891B44
3D2369FD
BD7CD080
3DC98A78
BD33D39A
BE17E436
BDBE4CDF
3BB47695
BD8B69C1
BD82516A
BD71FB55
BD53193D
3DAF8049
BE0CF511
BDA964A7
3DD6679B
BD8F8A10
BCBF26E2
BD0CD3F1
BDA09F32
3D9D9F18
BD8DA8B8
3D5356AF
BD97A8E0
3D2C41CD
BC93A315
3D0065AE
BB9E5841
BDF2E97C
3D7FBB01
BC20266E
BDC87F6E
3C536832
BCA916CA
3D912FC0
3C027E33
3D088D70
3DAD5EBA
BC627058
BD7B3C94
BD81625C
BD58CD46
3CBD8922
BD1F34A6
BD626095
3D483167
3B440E4D
BD090BA7
BD6AF3A7
3D181B0F
3D80A349
BD9A23A6
3B9577F0
BDF991FF
3D661E68
BDB76A54
3D888B7B
BC89EB91
BC74728E
3DD223C7
3DC853F6
BC8B157D
BC64582F
B9941573
BD48FF63
BD828456
3D8DC037
3E202EA3
BD94A1CF
BD9009F3
BD8D634C
3D1A7AB0
3DA27036
3D47CD8F
3BB83991
3D1C15A2
3D76F991
3DCD1775
BCC0B592
3CF113C9
BCCE5726
3D8BF4A1
3C1377F5
BDB955CB
BD97E54E
3CF024C1
3D877B2C
3C02A7F4
3D87F978
3D9A292D
3CC2F1ED
BD875A1E
BD8CFD6B
3D7A264C
BE05A47E
BD999B83
BD6A6020
3D03164D
BD72F342
3D336408
BD7A20A3
3C8AD77F
3D8DFA83
BC0DD79A
BCE40F9F
BDF75FDB
3D48022D
3D8B10A2
3DFAF55C
BD9A90AD
3D142818
3B9F8ED3
3DD01B36
BD40D9CD
BDAA11B2
BD8A7DAA
BC9B1133
BC1B30BD
BC417866
BDBF390E
3D8A73F5
BB166689
3DC540F3
BD87E48E
3C956821
3DDA5508
3C98CD16
3DEC46E6
3D9EEFF2
BD1C9344
BB979080
3E131C22
3D815C46
3D00A2F0
BD9DFA49
BD92AA0C
BDD86C22
BAA9C5EA
BE57C328
BD6DFC5D
3D3302D2
3CFEEBA9
3DD4F97F
3ACDA938
BE7B0EAF
BD1095BA
3C8D247B
BC42F62A
BD6A6AAD
3CF01C07
BC52D2A0
3D3000D7
BCE75F0A
BD819042
3D130F0E
3D318F24
BD4F768B
BDDDEE1A
BE20519B
3DB21160
BD8CCD30
3CF4ECF2
BD59A01A
3DDAEE3B
3C8F8C75
BDFE4812
BDC5A2C2
3D174396
3D4E003E
BB9107B4
BDC338C9
3C9AFF80
3C83EA50
BDADE278
BC9A363C
BC2B7CA6
3CD8D884
BD59A131
3DBB8504
BD86F319
BDADF16E
BD1F811A
BDA121C9
3D596597
BD8F6908
BDBBCBD9
BD2C4997
BD396506
3D91673E
3C70957F
3D48FEEF
3D69332D
BD39DA59
3D867B57
3C3F3ECF
3D1EFAE0
3D589055
3CF46939
BD9D331B
3C7FE24E
3E08832D
3E3791F4
BD9218F8
38CCB193
BD02D298
3CF25100
3DC0ACEE
BDAF59B6
BD767E74
BD25E76E
BDC10A6B
BD5DFE48
3D36EF88
3CFC36A2
3D92A9A9
BC575A9A
BD8B5DA4
3DE48832
BDC9D5C0
BC501AEB
BCB1C590
3D8EA825
3E330B5B
3D5DB337
BDBEC07A
3C0F42F3
3D8A97AC
3BFB38E4
BC941200
3D1CD86E
BD4856E1
3D239EBE
BC41DAF7
3DA2560A
3D6C578A
BD22E365
BC0A78D2
3BE6606D
BD46F367
BD070A23
3CC33B19
3D96302E
BCA08A64
3C4CF0BF
3CBFE2AF
3C8A20D6
3D7DA0F3
3D560B42
3D8C9515
BD88ACD2
3C7C724C
3C9CE43C
3CD914DA
3D075704
3B9205DA
BCF1504A
BD12E26E
BD92ED07
3D87CCCB
BD06D752
BCF33BE2
3DAB111A
3D8A01BC
3D6DC187
BC7B1514
BD408A9C
3D9B5F33
3D56C899
BD8EB8C7
BD435773
BDBFCF30
BDF12118
BD4CE4E3
3C2A88E0
BD5F387F
3DDF086E
3A864E0D
BD5F9422
3D27BFFD
BDE024CE
3DA36BFA
BB8321E4
BCBBEA41
3CC4AF42
3D82D547
3D60985C
3DB91A68
BD0A8D3F
BCB31C6D
3CE4B338
BCD6CC55
3D5A6C42
BD91C38E
BC0A046C
3BF3F090
BCCF0226
BBBBBC6D
BD9E1733
3CBBA319
3D16D2F6
BC3D5866
BD2D5675
3D770E01
3DEBE8A1
BA843A26
BDC3BCE7
3D8B5658
3D2A4DBF
3CA56A88
3DF0F2CC
3D5F8E3D
BCAE87C8
BD9500F3
BD9C27A8
BDA13E1E
BC40891D
3DF0597F
3CC691E0
BD612A04
BCC47C31
BC9DC03F
BD55F96F
BD9DC918
3DB8EF51
3D46591D
3C36AC5A
3CAB40DC
BD945D9F
BCC59F16
3D9F7F13
3DBC3DC1
BDB1FCB9
BD13D61B
3D7B6180
3B548FCB
3D80BB8A
3D877E1D
3D8FF522
BDB17C6A
3A05D5FF
3D22BC08
BD42BADE
3D820261
3CFF1188
BBB58648
BD41D7AC
3D8C7BE6
3DDBEB69
BAE17CEE
BDE2CE39
BC1A9AC2
3D0739C8
3C459642
3D19EFC8
BD26654D
BDB8C182
BDFF4BB3
BE08552C
BDE58C09
BDF14C3E
3C576C6E
3BB5EC52
BD5AD023
3C2AC068
3D8978F3
3C3BFE89
BCE5E4F1
BDBB6626
3D5DA611
BD838389
3DB66179
3D982AD3
3D15BD13
BDDCCF0E
3DA0BA03
BE69F370
3DD92C9A
BE6253D4
BAC91ED4
3BEED671
3D858468
3DB5EC8C
3D96FE9C
3C5E0CBB
3DA53B94
3E0AFE7C
3DFBC72E
BDA2AF8A
BD178AA9
3F05B96B
3DBB9BF3
BE188FC9
BD951F47
3EB58E22
3DB28C2D
3E97C51F
BCBE37A4
3DBEF9C8
BE817ADD
3D120571
3D9239B1
3BE10732
3D83AB6E
3E16D479
3EB8D76B
BE19F299
3C41248D
3D3A9BF8
3DA275D8
BD07098F
BD3A3DB1
3D604A9B
BD4D0E7E
BD8DCB6C
BCE4E582
BD4B35D1
BD38ED95
BC3049EA
3DAC9CE9
3A2E8317
3DDCE315
BD6BDDBA
3D76D948
BC1BA0B3
3DAF5BBC
BDEC2309
3CEF483D
3E556147
3D55D394
3D0430F2
BDCA6D62
3E7B0491
BD943762
3DC8E4FD
3D9467D9
BE654B5D
BCAC4E78
BCC2F406
3D56F7DE
BCCC7A17
3D816ADD
3D752B2D
3DD4EC63
3D85D5D3
BD3F5502
BCC6AB10
BCF7F3F2
3DDAA667
BE773AA8
3D347C39
BDF56799
BD016B27
BF113635
BD63F73B
BDC9F9E5
BD81B74E
BDFACEC6
3D6D06AE
3DAF4A6F
3C81D90E
BC45BDC5
3D389AF7
3D383866
BD6E1D2C
3D4D4885
BD68C8C1
BD56173C
BE6AAE52
3DA51414
3A9563EF
3C824F86
BD999FBF
3DB43F76
3CD4CCB6
BB77C570
BCDCBE77
3DEE8F02
3E14ED41
3D2FBC0B
BDCA00A3
3CAFF2BC
BD8512A9
3E63DF1D
3D062F5F
BE073C1A
BE0A52C7
BDD95414
3C834BCA
3E9177BB
BC91C397
3D7E8F90
3E5F9958
3F597827
BD8EA88D
BE1242C3
3D4B30DE
BE5BEAF7
3E28B659
BECB7087
BE255A04
3E7F77A2
3E97DC85
3E721895
BE47F258
3E1B6AB2
3EA4312A
3E9FAD01
3DA4DEBA
BE451068
BE888755
3DB42FB4
BE6CD2EF
BE842B7A
BE4BCFBA
3A0D9E6B
BEA17BD9
BE8AE20E
BE4EC06C
BDDF2AFB
3EA78873
3ED561F6
BEC3E03A
3D155FEC
BE8BDD70
BE188836
3E099FC9
3B0F3B6D
BE32B65E
3E59C886
3E9D4937
3E889A6A
3E301B28
3E033A2C
3E00B674
BDFD6833
BE898D26
3DBFBE74
BCBB10BD
3EB81893
BE914D11
3DCD21AF
3EB45198
BDC36B18
BE06D4AF
BEAB334E
BEF8B79E
3EA3587A
3DB89A13
BB655C4C
BE1FEB22
BEBF5FF9
3E82DDF7
BE21689B
3D77EA68
3E55CACB
BE6B1DC2
BD02AAD8
BE630C24
3E6AA469
3DCEEFA2
BEF24B6A
3E85BB85
3E88C511
3DC5DEE9
3DE72C7A
3D310254
BE452A34
3E0AF691
3D6E3B92
BE44667C
3E5B1A1D
3DDD2A98
BE4D6891
BDB2E4DB
3EE08917
BE8587E8
3EBF2A57
3DCD5F57
BE985345
3EA240A0
BCB89746
3E06AC28
3E3C77F2
3CFC67F5
BED612C7
BF0BA7B1
3E1DFD34
BECA453A
BBE62B8A
3CE4F817
BE28BDA3
3D9FA3DE
BC9145CE
3E10252C
BE8146EB
BE016286
BD9FD766
3E54E7D4
BD1749E3
3E4CF484
3D7830B6
BE0CE38E
3D970CDF
3E84F689
BD6337F6
3E5CE7C0
3D9309F8
3DC25F8A
3E60207B
BE3F9BA0
3E435280
3E21BD6F
3E96E412
BE140C48
3E6F1807
3DBC4C16
3E0163D6
3ECFD5DC
3E8EFCA2
3F13BA31
3E28E7E5
BE265E32
BE9039D1
BCFF1310
3E294BFB
BDE8AD9E
BD28A8C9
BD49C246
BD9461B3
3DD9180C
BDA904E9
BDB31BC4
BD0060B3
3B530002
BD9DF391
3D1CC317
BCA31FE5
BAFFE2B5
3D1A7940
3D8E561F
BDB64448
BC593591
BD81E957
3C83D405
3D5CBA50
3DD2EE42
3D373E43
BE003D9B
3B83F8EF
3CF4AB33
3CEF1EC1
3B569FE8
BBAF025D
3C2FA47E
BD8C0A9C
3C36B3FC
BBD2D7B4
3D148C16
BD7D6A74
3D5F14CE
3D25C183
3E086706
BC8C94FF
BE9F0004
BDA55CA1
BDC16A84
3DBEB5A0
BC2E08D2
3D629132
3E0BF53D
3DEB6AF5
3D88425D
BCA5FEC8
3CB9C0EC
BC8C4E8D
BD80C1D0
BA11BFC7
BD7D21E4
3D8384D6
BD4D09F9
BCE4215D
3B047DFF
BD08E0B2
3D9E306A
3C880DC1
BD8C3785
3D943648
BB4510FD
3D430777
3DC39254
BC633869
3DED031E
3B781CC3
3BFBCB28
BD376A70
BCD5B315
3D9FE381
3E132F45
3DE0EF71
BC853086
3D7A0B01
BD88B43B
3D92805E
BD81D6C9
3D8F17C0
BD3354CC
3DDD8567
3D4E8CF1
3DB68A2D
BCE81EF8
3D38B9E0
BD835C9D
BC83730C
3DA4878B
3E9517DA
3DD1E570
BD588AC3
3D502D75
BE4B8484
BC5B709F
BA430A2D
3D26F1DF
BD910F6D
3D137121
BC8AD4B5
BD85A04E
3CA808E8
BC995B15
BD9A5D44
3D110CB8
3CB7B000
3DA752E7
3A0D48B8
BDDBA769
3D1C4972
BDA9CA9B
BD70929D
3D553348
BCBB5C3C
BD714F1D
BD8B8C5C
3D6189B5
BD6A5F5A
BDF687BF
3D0F8E6B
BC15B113
3DC771AB
BD332D3E
BD3CA832
3D06F593
3D462E65
3D3FAE61
3BA09E1F
3CA2CBA2
3D6608CE
BDB9071C
BDAD3FCB
3D462CC5
BCC06550
3AA91766
3CA8616E
BDAB5CB9
BDA70D18
3D0E56FE
3D79B9A5
BCC8B368
3DA804DA
3C6F2CA9
BD063C0A
3B2A113F
BD8E29A3
3D9D0FC4
3D955B49
3D1F3CB9
BE3654D6
3D3C4AD2
BDABB485
BD012E56
BCC8E53C
BD9FC624
3DCD78EC
3DC15C9B
3CB22F1C
BD46ADEF
3BA46F67
3D5FC73E
3DD90471
BC1FD03D
BDC81E44
3D957AE5
BDAC2D9B
BD9B34A8
3D94E175
3CC5996D
3DC41658
3D6752C2
3DBF1D54
3DC490B3
BD8E0A18
BDB326F1
BDB38C23
3A897306
BC395F92
BBBCF988
BC7F1F85
3D4CE330
BD83506B
BD32132B
3CE551CE
BE039DE5
BC17DF19
BCA0D208
3D80BC68
3D44FCB7
BD4D6A8A
BDB9703F
3C1BE1B6
3C58DDC7
BC7EFC6A
BDA785A8
BD6DAD85
3D1FC29B
3CE1FA1B
3DBCAE50
BD006302
3D9F971C
3CFD3C16
BD3BA956
3D8DB99A
3D0D8908
BCC4AEC6
3D453138
3DB0E2AE
BD868BEF
3D88E0B6
3CE54DD2
BDA469B2
3D953DEE
3D8A387E
3D0A96D5
BD33A5EA
3C8F6477
BDB075F7
BC5C6CC8
3D990215
BBEE1891
3C545FD4
3D41F8B9
BD19D003
BDE75918
3D27ACCD
BD56EC10
BDBBC1E9
3CB7CF7A
3DA6D386
3E016129
3C8EF6D3
3D99A9BA
BD68D9A0
BDA549BC
BCA14AC3
BD8B4BCD
3DB7F339
3D585823
BD03525D
3D26A828
3D40B903
BD2C0A7A
BDA10C5E
3CC5DF6D
BD68506C
BCD7C38B
3D844523
BD6E8955
3B748CE7
39B23BDE
BC936DC6
3D85F4B3
BD87B4D9
3C6DB6B2
BDB35BE9
BDB5018E
BD2FCD05
BC08ABBE
3C842B4E
3CFE2159
BDA6098F
3DB2576B
BD2DDE85
3D15BA31
BDEBEE8E
BD324146
BD748FFD
3D2BC1F3
3D865672
BCAB9C76
BC3E745A
BD598C66
3D219A27
3D750F4C
3D586064
BCAB57DD
BDA31A03
3D36C175
3D80BE67
3D9B3D63
BC1C3709
3DA6D747
3DBD9069
BD9026DE
3D644D44
BAFA438F
3CAB7686
3D2BA6B2
BD54C275
BD538AF2
BD5942DA
3D487D04
BC9C0D98
3D76B41F
BD1F664A
3DD30114
BD8EB941
3C098CEC
3D2B731B
3C4FD49F
3D0E8F6A
BD227781
3D99710B
3DA07077
3D0B2EF3
3BD5CD4F
3D549F11
3D9029FC
3CF866F4
3DC6F04F
BD99B441
BDE9CEEC
BD78735C
BD3DDF7F
3CBA5038
BCFA519B
BC8F1C43
3CFBED3C
BE0D798E
3CF7406E
BC2EE0FF
BD9684D4
3D764B2B
3AB734FA
BD9926A0
BD809408
3C059264
BD84FBBC
BD9A3579
39E55CF1
3DE2F2B6
BC5F7378
3CC0D0A0
3C6370BE
BD277994
3CF0BF9B
3CC3DA1F
BD9A2DC2
BC48B71E
BD846D83
3C4B8976
BD50B397
BCDD4F21
BC87B530
BB80C736
3DA3D8A0
3D116D18
3D0C831B
3DCB823A
BD07BEB0
BD4BF125
BA9CDD8B
BDA81084
3DA20167
3CC5058E
3DA40EFF
3D398EE8
3CFF942F
BD5E2FC1
BD091C74
BD93A188
BCCB3080
BD627744
3D884BED
3C9F331C
BCE130AD
3B855B72
BD94A6B1
BD5B01C4
BCFEAA95
BC47101F
3DA56DA7
3D8D78AF
BDFBC20B
3D92E872
3C0F0DDC
BC80E457
3D0DAB34
3D8AC66A
BC74D87A
BD0CB6F5
BD9F89D3
BD25B22E
3D1A27C7
BC7F1966
3D7C683B
3D894CB1
3DA818F3
3D8F24D8
BD0F825C
BD9F0EED
3D8785B7
3B6FAF77
BD384475
3E0DE9B3
BD91F484
3D1AAFEF
3C401564
3CFB1A18
BC655047
BBBE0314
3CD4E463
BD818460
BD761904
BD01858C
BD8FF7F2
3C26CF37
3CE1F579
BBB8095E
BDD15C64
BD8FCC8B
3C4823B0
3D92D522
BB3E84A9
BDAF46FB
BDBAD730
3D1D6269
3DB4DD3D
BD483EF9
BC2F0D69
3B43D354
BCCCFE86
BD799885
BD9BF141
BB9179A7
3CC3D456
3E0B4E12
BC72FAF4
BDF2B778
BE0ECC31
3DF0FDDC
BDC0B967
3D79457C
3C77DEF4
3B2018B1
3DA2C1B2
3E984F35
3DA5C388
3D265A92
3D495158
BE2A23AC
BB32C5B6
BE6692AD
BE7B0B40
3D725DA8
3D0368A3
BD8D22CF
3D6CEACA
BE0A77FA
BE456997
BD3C1C63
BC449BA6
3E0702AA
3D0A4B78
3D031AD2
BBC91AFC
BB9984BB
3D768D38
BDB75E4B
3D995218
3D8C18CF
BD997EAE
BCD8C09C
BE7CC469
BDAB6066
BD63DAEB
BD0FDBDB
3C4B6E08
3D9BF87D
BCAE9E0E
BE1A74C7
BDE093D9
BE0FD9C8
3D833253
3CD11CF9
BDCF7F72
BD8B2462
3D4FDC69
BDA9C427
BCB30FFD
3CBCB588
BD183751
BBDBF023
3DDED302
3CF3C189
BD20EADC
BC8D755E
BD044463
3D9335FB
3B9C0945
BC73A777
BDCB9277
BD458F3E
BE0BC46E
3D4575D1
3D9BBF50
BE0178B3
BC6046E8
BC0E65C5
3B567CC6
3CAA38E4
BDD0CBBD
BDE37C57
BCF07DF2
3CE411F8
3E0CD805
3E055532
BD170FC1
3D9063E2
3D14BAA5
3C937DD6
BC9331B1
BDD47B9D
BCE55585
3BF76708
3BFB5E0F
3D3F90D4
3D6EB661
BD4196A9
BD1459FA
3E1CF6CC
BDA75E5E
3DB4F6A6
BCC4FD20
3D75A1F3
3CB6A0EC
3E0C782E
3DF61FFD
3D778D0D
BC9C4C2C
BBF06F2F
BBD93D76
BDA0922B
3DA3E8BB
3D52AB79
3D80EAD1
BC7F8D94
BB7AAAC5
3DA953DB
3CBF3443
BD60367C
BDBDDBBB
3C87A43F
BC916863
3D2B95A5
3D72E16C
3C9925E6
BD46C031
BD6B1C2E
3CF00FDD
BD1CC11C
3D5CFBEF
BB91A915
BC353F7D
3C3C6B00
BC8D999C
3DE850FA
3DE06B6D
BD44A8E2
3D1E9E1B
3DB4567D
3C605D58
BDA80383
3D112150
BD95C45E
3DD12663
3D411033
BD27C78D
3ABEA3BF
3E0EDF83
BD5A6767
BD25F9DA
3D90606F
3C113A6F
BCEEC59B
3CF35B97
BD3C87B8
BD2AC363
BD93C418
BCDBCD4B
3CEA999C
BD63E4E4
BD90C86F
BDB23461
BBCB5B19
3C566A70
3D90F2C3
BD12C1F4
BD03BC70
BD19EFFB
3D9D586A
3DAD1A7A
3D58B713
3C88DBAC
3D059F69
BD0DA9CF
3CDD40F3
BD97700D
3C7BE509
BCFA840A
3D94C66B
BD165016
BD5401ED
3DBB84E6
BDF5B5ED
BCC9E887
3D6911C7
3D8D51B4
3D99D5A3
3C841797
3D9EC361
3D9021F3
BD55FE51
BD8B5F2B
BC86A378
3B920252
3CB31937
BD6D800B
BD8FAD9D
3CE6B9C8
3CE3147D
3D5B9F33
BD070443
BD573FA8
BD351411
BDAD1635
3D40C309
3DB71C8F
3DC6042B
BC5632BD
3C18155F
BCC7B5D2
BDE0EAFC
3D058444
BC78A954
BDB2477A
BC9BC508
3BF70B69
BD905373
3DB80401
3D42C288
BD77737F
BD3FDEEE
BCCB44BD
3D75FE39
BAA68AC4
3D8AA844
3D869754
3D8881DC
3DA4785A
3DB33928
BD838EA0
3CF84023
BC7C84C1
BD9C45F5
3D29B127
3DC8B73A
3C1E71A0
BCDEB075
BD37BF6C
BE7CE182
3DEB3D4B
3DF02AD6
BE13866E
BE578E77
3D5A4AC2
3DEB3B17
3CE60EE3
3E048B94
BD77DC90
3E6AFC4F
3DFDCE04
BDDA09E7
BE1D4E67
3B1EB096
3E243017
3D1BF73F
BBFB2EF5
BE35EAA4
BD9FFE6B
BC80DBCD
BC50D6DD
BC2576C8
3E4EFD4A
3D72FD7E
3CC51FDA
3E1164BA
3DADCD96
BCA6E41A
3E0FA1BC
3E0646B5
BD2D0C50
BD706FDD
3C838B65
BCE8EEC7
3E4305B8
3C904EB7
BE02D213
BDD49C97
BD6CB98F
BD3CC3BB
BE230701
BE885737
BDC7F7C6
BE2010B3
BDA88AD5
3DC38387
BCF1007E
BDFC67ED
BBCBB666
BE0AE7EA
3D771F4C
BD416578
BE13D8B1
3DBCC449
3E5E5958
3E0F2035
3E4899C6
BD41A8C2
BD797CF7
BD37677D
3D8865DA
3DBAB191
BE119D31
3D03BF90
BE3A047A
BD823AFD
3BB13CB0
3C7FA862
3E13FA5A
3D17A1DD
3DCD5FDD
BDC52527
BE11C8E4
BE401C6B
BE0649CD
3EB7DB89
BD5BD7C2
3E1F437E
BBE6D0AF
3D5491DD
3E833F1A
3C83625B
3B762C6D
3D862EE7
3D8E1DEB
BE260F8D
3E8FD49A
BE2174ED
3D686483
3DCC644A
BD720E1F
3DD777EC
3D916FE7
3DEC9979
BDA24E6B
3E3491F3
3D0B48BE
BE040B1A
3E61AC30
3D2A47FD
BDC6D53D
BBBF8171
3D19C060
BAB327B5
BB80E056
BD3BCD18
3C4865CA
3D1F6F1C
BD823D2A
BCBB4998
BE06BD1E
BE5E8DBF
3DBC3B4A
BDF217AA
3B3D3CAA
3D33E3AA
BCD4339E
3CA74C3F
3CDE6AFA
BD89F0C5
3DC3FDF4
3CD49BC3
BD609F3A
BDF835B7
3E316AEA
BDDFC5C0
BBF1E5E3
BD103E59
BD15FF76
BE33C998
BDCBBC3E
BDF895C3
3DE7ED0C
3D323D8A
BCFA157B
3B76FFE2
BD50D4F5
3CCC0405
3D7DD802
3CCE3E77
3D48DF17
3C1F182D
3DCA1980
BD93BF31
BD5728F7
3D0C90EA
BC557E17
BD9D40D9
3D3E073A
3D28B462
3DB7D9C5
3D7B0684
BC818E7B
3A917DF5
3D06DF1A
3CC61700
3CF0B6B2
3DE61F34
3D541AD5
BD7E7E73
BD1C37F2
3CF19472
BD4056ED
BD45EA60
BDFD3F26
BD636CF2
3C203773
3CB9DA62
BD7899ED
3BB49EDB
3C6C4025
BD5A38F6
BD08A2AC
BCBED3B5
BDBEF8E4
BDB3536E
3DA51BBE
3D332D7C
3D235F4B
3D97CD59
3D6B8B7F
3D2D27E6
BD2FCBC8
BCF9188B
3C85D663
BB0A4D50
BB2141C4
3D3AD0E4
3AB746DC
3C238472
3D63F64F
3B89D503
BD7B4878
BC24A2ED
BCE630DC
BD86A823
3CA306B5
3B65FF70
BD644E94
3D157A80
BAEEFB76
BD5B326E
BD96FB39
3D9628B6
3DAB7C63
BD115078
3D7533B4
3CDDEBF9
3A3A358F
3A8D923E
3CF6AA6C
3D8D7B6B
BCAF6EF3
3CB965F8
BD96D7ED
3AE49FD2
BD38039D
BD03ED28
3DB03E12
BCDA4038
3D826D4D
3D10FE68
BB9BCB87
BD572C2C
BD0CDE4D
BDB6C782
3D3B29ED
3D182A1B
BD05B5A2
BE5CE3AF
BD79E686
3D63111C
3BC9F616
BCD79DDC
3CC6F2BE
3D46615E
3C8F3181
BD6E0905
BD6DF95A
BDA1A01E
3C983C5C
BC1D9E10
BCB5B478
3C80C7B1
BD38A10C
BCD28427
3CAE0AB5
BD19BC9A
BD6E6380
BD6BBAB9
BD8E7638
3D5C5E30
3D611E46
3D174C17
BD18C7EB
3CB6180A
3DAEB1B7
3CD6FBD0
3D946D56
BD6A65AF
BD50DB1F
BD0DF0DC
BD5DCE14
3D81CB7B
3D600D29
3D38DCA3
3DFD6A3E
3E3005CB
BCAD00AF
3D6BCAA1
BD226499
3B7383C6
BD738BF1
3C66B2E7
3DB9AE2A
BDF3B0DF
BC36C829
3DFCF27F
3DB80603
3D78BC62
BD244B84
BD26A5F7
3D8E86ED
3E1F0EE1
BCFCDA1B
BD22C09A
BD84720D
BCE9D1DB
BDA8FFCD
3B35553B
BD1A69D6
BD290DEB
BE0FC0F4
BD98F7FC
BDA24BFA
BE256586
BDD703E5
BD75545B
BD795F5D
BE8908DB
BDBA3C51
3E482836
3DDF7597
BE4BD959
BDF1E5F6
BDA195A8
3D872F30
BDD1706B
BC608AAF
3DA163B4
3DE6A3CB
BD11AA1F
BD23528B
BC992194
BE80F239
3E24EC99
BD07F049
3DC95E64
3C16B600
BD22028F
3D16DE6C
BDCC72F7
BE01B9B6
3E1A86DE
BE5D2872
3DB8EAE6
BDC51083
BD015103
3E1BCECF
BDFF6C6A
3C2D4822
BC8E1B21
BD1FA105
BDE76E7C
BEA73D41
3C76E88A
BA00419E
BE58D30D
3CBB7699
3CE9FF98
3E0E2329
BDDC9F58
3DB7F48B
BD5224F6
3DED97A6
3DC43C01
BE077DBE
BD817986
3DF8F316
BD824EC6
BDDCDA2B
3E0320FB
BE4E9326
3CA3EA40
BCBD8B87
BDF3D882
3CAD0AF6
BDC2F045
3E4ED381
3CA08C57
3DBB42A8
BDB1CEB9
3E2F55D1
BC45C755
BE17E22B
BD142A4F
BDF957B2
BD324B9F
3CE49FC2
BDE56191
3D05ECA4
3D91D095
3CA6ED7A
BD91B323
BB03EA5F
3E29F1E4
3D6C9397
3E318330
BCF7BD87
3D9B1311
3DA8F317
3CAADD94
3D608752
3DA9BFB1
3D72C183
3DAA8320
BE16D381
BE1F0A37
BD56059E
BD34DD01
BE1B946E
3D70E1D2
BE254CC7
3D94EF9E
BD89CD07
3D95A6C7
3DE9B421
3DE4FF6C
3D55E326
3B504C04
3C8B23E5
BCC74F4F
BD9518B8
BDB759CC
BCA18881
BCA75BCA
3D0FF698
3D7DF14D
BD5FAE7F
3DBE9E10
3DB1E9AA
BD31C5B8
3D3ABDBE
BCB13B57
3C3216BE
3D5DE360
3CD877C6
3D1EFB1B
BDD86D57
3D6E9D29
3BAFA8AF
BD98BA58
3DAF8831
BDB900E9
3DEB7231
BD124ACE
BCAE952F
3C27A9A8
3D3FD20D
3D24B155
3D0D2BA2
3AB7E7A7
BD4993A2
3D7F52E4
3CAB6AED
3C5FA750
3DD18B28
3DD56D6A
3DBBD93A
3D9AB638
3E445367
3C99CD7C
3CF223EA
BDC9F114
3D8598B3
3C721DDF
3C3A5AA5
BDE7C335
BDC2F44E
3DAC9328
BAAE511D
BDBC9AF5
BD9C1ADD
BD49DDE2
BD6724BA
BE0600FA
BC952BF7
B9462D1F
BCD61266
BCB3A996
BD691A2D
BD24819F
3C479E9A
BD8DB8C4
BD74E4B4
BD8AA441
3B1E351F
BD9958ED
3C6624ED
3DA1DDE3
3D811210
BC3DDD10
BD71F6D0
3D47FA7B
BD1EB22A
BDD8DA7F
BD2ECE04
BDD621C5
BC581799
BD842224
BC01A146
BD015921
BDBC6065
3D904038
3CBD015D
BBBFB5BE
3B1308F6
3BD550C4
BD81AE38
BD05F5E1
3D35B155
BD254874
BD982CF9
BD254938
BD9D50EC
39FC2615
3D928690
BD2DE302
BDA3E503
3E2A6C06
3C1575AA
3D65CF85
3D9EB55C
BCE48DF4
BD7DF3A1
BD641D20
3D87DD91
3D9EBF0B
3C90F992
3C023DA6
3D54BD47
BD1A788A
3DAE1083
BCB7C16D
3D301539
BCAB54D3
3C803E9F
BDA7C0B8
BD6F38D0
3DA4598D
BC8563A2
3CB0304F
3D8879F0
3D21D84A
BD88A6B9
BE541B90
3C8EF67D
BD1E35AE
3BEEA490
3D3B037C
BC84F197
3E8C8C14
3CF35E36
BCB10693
3E090F73
BD2FA069
BDEDD731
BE0637E5
3D16D524
BE33AB72
3DED5B4D
BC93117A
BE7701FC
3E2B73D2
3DEC7318
3E46F969
BE88364E
BDA0FB3A
3E248AEC
3E8FE4F9
3DDA7173
BC495F0F
BE7B1EE9
BE3B9D36
BCBD744F
BE86CC52
BC386105
BE21DFB3
BE6F26B5
BDF005D2
BD942709
BDBE6876
3DB4EDFF
BE3DA6CD
BE0F6A5E
3E70AC55
BE643555
3E803F19
BDA941C9
3E76CFA0
BCCFC95C
3DBC54BD
3EFD9296
BE7339DC
BE899C35
3E95F521
3DDDE2BA
BE49F74A
BDE978C8
3E4E50C6
3E132FFA
3DD2D194
BDF51B1A
3D6ECF71
3EC059E0
BE00C35A
BE07E897
BE202F44
3E038DE7
3E0CEC1A
BE57E494
BE478FE2
BDE61269
BE5D0E13
3D9E1391
BE27BFC6
3EA6FF09
3E309F76
BE7AF717
BDA82676
BED61DE7
BDC3F852
BD4BC002
3D927DE4
3D3A6EE4
3E81CD6A
3DC47C11
3E8724E0
BDF09C73
BEC54F02
3E992ADB
BE65D36A
BD4E51BD
BDBB9F7E
3E36082F
BE0CF85E
BEADBF2E
3E542099
BECD153E
3E8103E7
3DD8D2A2
BE71CBB2
BE2FAD4B
BCEE7FC5
BD976C52
BDF7220B
3E4E3A3B
BE92AA81
BEC01081
3E9F69D8
BEA5C6AA
BD3FF840
BC8415F4
BE0193D5
3C916A61
3D9583AB
3D783662
BE328F4F
BE404CE3
BD14C8BF
3E28801C
3E85FC5D
3D8D39A2
BCA7EE91
BD20E0C6
3E33F10B
3E8FE927
BE25F68B
3E86B59B
BC8C9524
3DC8DE0C
3E80833B
BE641C1D
BC92F7C4
3CE679B7
3DA1D33D
BE3DCD63
3ECBA7D7
3D6EE990
3ECD3F73
BDB10EEA
3E2BDAF9
BC950937
3EAE8709
3D7252FC
BE422B4D
BE0C4BA4
3D430482
BD4D6993
3D28447D
3D4E7B69
3B994CA9
3DAE723A
3BEB3DF8
BCC09D04
3C1536A8
BDCA66E8
3D4A1F7E
BD50C882
3DC5B9F1
3D19F300
3C8EB169
BDA6A068
BDC185B8
3C337D91
3B8FD64E
3D8EDF64
BDA30684
3C329F3A
BCE51487
3DCFCAFF
BD2FDF6E
3D6469B7
BD1A3403
3D000561
BD06B6AB
3DD50A10
3D95066D
BC8B3929
3CCC5360
BC0B1E75
3BF2349F
3DB12714
3BC8D93C
3D5552D6
BB50BC4A
BD893938
3DA7949F
BDC82267
3D66B36B
3D22FF91
3DD26F7C
3AFA02F7
BD93BCEE
BCFBA710
3D1AF9EC
3C6E041F
BBF5CE03
3D3FAACB
BCFD9217
3D22CDD6
BD19E8A4
BBDB1119
3DB894D4
3D9FC280
BBDF853B
3C7905C6
3CADB2CB
3D994DC3
3C463417
3C86BDD5
3D21C5E8
BD8D8F9B
BDC979A8
BD0D6D9C
3C9D573E
BD60C730
BDC0C752
BCFCDCE5
BCFAEDE8
BD1A7EEF
3D0F505A
BD77E15E
BDAEE28C
3D730DFA
3D053536
3D270220
BD183848
3D1BCC0E
3ABC1AAC
3D44951B
3DAC6C17
BC075DB4
3D719FAA
BC08B8CF
3CFF5FDD
BDB52CB8
3DE934FD
BC371210
BD40BACE
BC53F392
BDE010BA
BDA38E83
3CA8E33E
BD6DD8F9
BCC222CA
BD648FA7
BB281713
BBFEEF92
BDC9D30D
BB4F2650
3CD0CDF9
BD8AF8C9
BD90E30E
BDBD22AE
3DC649EE
BCEF4649
BC723298
BC427C51
BDC0F561
3C670DEC
BD5851AE
3CAA44D2
BD9E18EE
3BD1E36F
3DE743DC
BC8A076B
3BB766A7
BD9C00CB
BCC9ABAB
BD999EB0
BCC070A3
BDC172B5
BD452D6C
BCB36F5E
BBE5E6B5
BD29DD1E
BD152BF7
BD1179F3
BD68926E
3CAEC885
BD02F860
3C805D02
3DB8AE57
3D00B49B
3D22186C
BD9FC7CF
3DA1BB1F
3D21C6D7
3DB984CA
3BA24A94
3DAA029C
BD8BDB3C
3C8AE938
BD0346AF
3C1FB0A3
BD8D4768
3C04F99E
BD4DFE60
BD9287EC
BD8704CA
3B90A7CC
BDA7B660
BD4D2428
BD6C58CC
BD59DFD8
BCD72C3C
3D9F7033
3C407C47
3DE6F4B1
3B34BD03
BD15710E
BD0DDD28
BD894DEE
BDA59AFA
BC22BAB4
3DB03D43
3D9224EB
BD2DE13A
3DAA8E8C
3DA417AD
BD4D60AC
BC1CFBA4
3AFAF599
3B58628B
BE069DD1
BE18F500
3D207729
3DA8B72E
3D5F6B93
3D84C0D1
BD9F484E
BE07756E
3D8651B5
BD36CE30
BDAD9C85
3D921D64
BCC9A6DD
3D6CFF12
BBC26827
BD638317
BC5FC583
3CD86A85
BD3F214E
3D0EA1EF
3D683157
BDD17F34
3D6BDDB4
3C3F25D0
3CA14DBE
3CF778BD
3DAB6287
3C2DF612
BDF94566
3CDA09F2
3D0EC7CC
BD117B25
3D73CFBE
BD1F30E5
3D4735BC
BDB36864
3DA11D51
3D3F12B2
3DAD4E86
3D88B89F
3D9E2328
BD6F234C
BDACF424
BCA00DCD
3D32BB03
3C600010
BCC8D876
BD96C931
BD887FA7
BD915FC0
BC8AE2C2
3D49B86E
3D4E3E8F
3D522A14
BDB95C62
3DA179FA
BD995166
3CB3A38B
BDACB968
3D1365BE
3C9A79EF
BCE1BD44
BC53223C
3DB8341C
BDB5FB13
BD8737F9
BD7C8AE0
BDA87C17
3D95D4CB
BD889B74
BD002793
3CE6DBB7
BDB1689F
BC0D3702
3D5B7237
3CFC8217
3DA4AC2B
3D703D62
3D832F5B
BDD3DCE9
BD168EF3
BD878CF1
3D34ABA9
3B843DFB
BD3333FF
3DB26388
BE8111ED
3CC138B5
3DA54FAE
BC8C7C15
3CBCE848
3DAF39B6
BDCB7268
3E2F6E46
3D432381
BD49CEE9
BE0947A7
BD93633A
3DA30CB9
BDB96C9E
3C08EC91
3E1D66C9
BCD49421
3C2B1582
BD983E8C
3E08A2D8
BD4D6645
3E1260A5
BE1B913B
3DFBC72E
3D2E2BF5
BE512798
3D134F48
BD0B561F
BE0642A5
BD80D6E8
BD70582A
3CE90527
BCEE60E1
BC6B27AC
3C1D544F
BD96AA39
BD644A47
3CB1E413
3C6E728F
3DBF815A
3D21E05D
BEAC4E62
BE3C68E6
BDE33E51
BD6B8394
BD60B4AB
3D150DDF
3E510FE5
3A906501
3B0B4C24
3DB2EE02
3DEB3E57
BD3BDF4F
3CB410C4
BDA8649E
BD698EDD
3D49443C
3D26A249
BDA2F83A
BD40D134
BDCF510C
3DD7DEC9
3C902BC2
3DB1E536
3D36980D
BD3C142B
3DABFB9F
3CE2E4F7
3E36C3EF
3E43623B
3D9F924F
3CDE13E7
BE0714CE
BDB55F7E
BD45B699
3D549D53
3DF55857
BC5F1B19
BD9FCA2B
BDF1FCC5
BD987992
3CA969FC
3CFE64EB
3E017B9C
3D67DEF2
BD684CC3
3DBCA560
3CB730F9
BD36943E
3DD319C6
3DAF8614
3D01E68A
3E9C97CF
3DF2ADFA
BD813164
3E1CA248
3C8DDF9C
BD94E060
3DBFAF1E
3DA8994F
BDAAA42D
3E001209
3D836284
BE3824BA
BD83B5C3
3D71DAD6
BCA496F9
3D177EC5
BD892E41
3E26328C
BD0F8EC1
BDCEE7D2
BC8FFABF
BD222326
3D3BADA6
BD41776F
BDAF4230
BD5472AE
3D8D467B
3DBD8BF7
3C92FA1E
BE5BB851
BC61CDFB
3C722E10
3E129352
BCAA47ED
BDA391AF
3D320741
BD5F135E
3D7841E6
BDDA6D84
3D2F490B
BCBFF7E2
BC6A0CB9
BCDB22E1
3CBFA196
3D4F4497
3C6761CE
BD39BE90
3DA012DA
3C2D7AAD
BD9D44AE
BCF4B55F
BD9EB51E
BA4FB6F3
3CFCEC45
3C3D80B4
BD71060F
3CA062E1
3DA74FFA
3CC22437
3CD487CC
BD90C6BF
BD369982
BBCE2AE2
3D5E82FB
3D6BC3D9
3D618635
BC3FF91F
3CFA1C86
3B1CD57D
3D3F64FD
3D456664
3CA61182
3D103207
3D381ED8
BDD9BAFF
BDCB16C3
3D407566
3D315957
BCD333D4
3D05B663
BD4AFB9C
3D8170AD
3DCA731D
3D97B2A6
3C1244D5
BBEF246C
BBD2FBAA
BD89FFFA
3D0E0531
3DA63C9D
3C876B34
3D07F2DE
BC045AF4
3D5C1CC1
BDC5C16D
BDD7F5CD
3C882D50
3C928BCE
BD2B375E
BD3AB10C
3D970627
3C195298
BCD08330
3A85F9CC
BBAA4D71
3D2EF81E
3D8E0F74
BD2CE1F3
BCDF934E
3D303B3C
BD3E452A
3BEA6937
3CEFABD5
3DB0F1F0
3D8725C3
3D212905
BC20DF1E
BD4A9578
BD9E3A84
3D8C0787
3C1689B1
3D7B4243
BD96CE75
3C9CE16D
BD9B367F
3CA5A80B
3DB395CE
BD050ED3
3C89B124
3D19E384
BAF45190
BD3744A8
3A20AAAE
BC9CE85E
BD7AB419
BB3B101D
3C05DF15
3CD374A7
3D65F5C6
3D04FC51
3D93D466
3DF4C829
3CC1202B
BD09ACDD
3D239485
BCF51810
BDA5BD54
BDB47BAD
BC00A3CB
3D552C65
BAC95B31
3D9277E1
3CD6F865
BDBEF96E
BD502A57
BD8B30A0
BC9FF431
3D7F5B42
3DA55C83
BD8FE094
3DCB7011
BCDF09B6
3D41D7C6
BD7904C1
BDB45801
3D47AD5B
3DDF5093
3D7D04B8
BCBF075D
3CC21A21
3D8C8651
BD620683
3DBE522E
3D54A386
3D848313
BDAD0672
3D49E016
3D45E8C5
3CDE70C9
BDB55C17
3D989722
3CE0B12B
BC9096F1
3D6DDD46
3AAF4FA0
3A96662B
3D92903C
BD68F844
3CAB8397
BD8A252E
3CC9FE61
3DBAEE6D
3CE44A47
BD5443DF
BD2212CA
BD45D3AF
BD0C9F3D
3A30A033
3C197C35
BD378A70
3CA44412
3CA62E73
3C6A1F4E
3D322D8F
BD8319A9
3D9DADF5
3DC504C9
BD2065FC
3D1C0811
3D6DCD60
3DA9A526
3D489FDC
3D07EC4B
BD23084B
3D870584
BD7704EF
3DB43DD0
3DAB6B14
BD6F4A0A
3BE3BE9D
3D2E12BB
BE080D87
BE463766
BD149F19
3D8B6333
3D787D27
3D863655
3BB8152B
BDDA02E1
BD08DDF2
BD90DFD8
3BBD0C27
3D7E310B
BC6E4DC6
BDB45592
3C5B4058
3DAD5D67
3D820BDD
BC37527D
BD3AF6A9
3BB4CD7F
3A6BD28B
BC9A79C9
3C13FFA5
3DB593DB
3BACB515
3AD0A59F
B9EB7EA8
BD9202B6
BC972CDD
BDC95307
BDBBC727
BD87B0FC
3CFE10B2
BBFE3E0B
3D86DC2A
BC0073B4
BD8A7882
BD214814
3DF037E4
3D73C705
3D5FE987
3CF7CE63
BD3FFE2D
BDBE8AD1
3CD5E7B3
3D90F8EB
BD53242F
3CADAF8B
BC64073C
3D24DE81
3D91A1FA
BDE2239E
BD33C9F7
3DBAA4B4
BBA87285
BD964E90
3D116192
3BEBAD96
BD66BF67
BDBD3BF4
BCCF14D1
BD663AAD
3C9AD605
3D90CD23
3DEDB08D
BD7F4BE0
3D9BD167
BD9C480C
BCE44773
3C8E5279
3B67A93E
BC8B8051
BC0B7C2F
BCD15C13
BD2F6C1C
3DA5912D
3D6A478C
3D5359BA
BCA93390
BE68D8FA
BD3293FC
3D387F5B
BA8F2609
3CDA6B41
3DC97A14
3CEF0FC8
BC3B5D4E
3C209881
BD80C48C
BAC376C0
BD9B770E
3CB2B3C7
BD099E52
BDAAD525
3DB31C92
3C66A5E7
BDF4F088
3D3AB8F4
3DB453E8
3D012742
BDBB1E02
BD5CE7DD
3CED1344
3DD6CDCA
3D88E032
BDD2E507
3D6B39BA
BD4799D0
BD17AA7E
BD8B3500
BD0A558C
BD916D1C
BC339B58
BD7AEB36
BC645E0E
3D0ABFA4
3D5B42A4
3DC9307E
BC1E8125
BD49CD74
3B254B87
BC9B0F05
BD79147C
3D44DBCF
BD0B11F7
BC79C1C3
3DBE1D7E
3E4464AD
3B849340
3DE5E2A5
3CC1027F
BD4BC46F
BDCB5CFA
BDC2442C
BE54F9F8
BD903817
BD337AA1
3BCB5DD7
3DDBBF36
BDA38CFB
BE4B2DE1
BD04BFF6
3D0C3258
BC6A33BB
BE0ADC0A
BDA64AF1
3C3C7D54
BD5D4858
3D5C10F5
BD8E5035
3D2A85B0
3D1BAD35
BD8798CD
398A13EB
BE892FB2
3D8F096D
BCFFD0F1
3CFD6E3A
3DB8B9DE
3CF3DA3D
3DC3DC99
BD5EBD1F
BD8C28DA
BE047CCB
3D528719
3C9FEA2B
BD9C95B1
3C2DD647
3D2D5695
3CE761C4
BD7C9827
BB3E378D
BDAB9A2E
BD2CF963
BC4AA6E3
3D6E4017
BD8DA8F8
BD7CC28C
BD47D22C
BCE9F618
BD474A06
3CD05C1E
BCF67BFD
BC03E603
3C911C1D
3C438FD7
3D41AEA1
BD6C5D81
BD13836D
BD1EBDF9
BD2C74D8
BD13EA9B
BCD3406F
BCB9A73B
3D8FDC32
3D30812A
3D2853CF
3E4596EA
BD118452
3E071FC3
3D75A7D2
BD68FA68
39B539DC
BD0BCCF0
BD343320
3D11AFC6
3C0AF591
BD9691A7
3D99AE9C
BD82614A
3D5611E8
3DC4497F
BD8ABAF8
3E0413A6
BD9CAD55
3DEEBCC7
BD2321AB
3DEB8EA9
BD93A5C8
BD0E430F
3CB4BE7E
3D57EB11
3C6ABFF2
BD8464A9
3D42FE5D
3CEF2582
3CAD2D55
3D471BA3
BD70826C
BCF56029
3C13B1E9
BD485B69
BCF891CD
3D998DBF
BD0F4D12
3CF2EEDB
BD8150F0
3D950D42
BC38180A
BD007048
3D2A5D9A
BD5CAC84
BC229159
BD93F5B6
3DC1BE74
BDA9398D
3D31584D
3CB7B86E
3DC783D4
BC9FB8B2
BCC7A434
BD57E3CA
3CFC453B
3D00FAE7
3C4228C4
BDA252A4
BCEB627A
BD13717A
3C1F60CA
3CF00ABF
3E1649CD
3BA3BE92
B96C47F5
BCD5E88A
BC989E21
BC06F286
BC03CB7B
3D896454
3CB079FB
B84050E6
BD843D50
3DB8D085
BD935886
3D0A559C
3D918EDA
BC5ED2A9
3D5ECD35
3CFC1BAA
BD924E5F
BDA6038E
3BE38B8B
BC442015
3CC5CD39
BD80434C
BD54C752
BD557535
3CE09F02
BC5C224B
BB8ADB80
BD35F51F
3D5AA385
BCAAB28C
3DAE8FC7
3D9E5289
BD8389FA
BD21D913
3D96F0B0
BDC8364A
3DA6CF66
BCE9D59C
3DB5DFD9
3D7D04E6
3CA0C96E
BBC57714
3D87A108
BC1E3C3D
BC9E703E
3CDC46FE
BD4EB0D3
BDBDEDF9
3D4357CE
BD33FD50
3DB13B15
BD2E8594
3AEBC4A3
BE1B828D
3D13016D
3CB68DC6
3B34612C
3CF5929E
BDC250BF
3CC4C2D8
BD84B3B6
BA95C0E1
3D93DDBA
BCF53567
3D350C5C
BD827CA1
BD9DE297
BC174225
BD3BC2D7
B98A89C6
BD302496
BD586A75
BC092AEE
3D522FF6
3DA0C607
BD713BE2
BD360FE2
3AFC8939
3D292CAA
BD6CD05D
BC9F6B8B
3D92351F
BD5EA763
BB1A6899
3D3B89C9
3D36B010
BBF7CDF8
BD649889
3DB5375E
3B05D890
3BFD3C8E
BD9C3F33
BC9A3810
BC816EB0
BD0CF930
BD1F4EE3
3924A790
3D632CBB
3BD0B4B9
3D3FB1A9
BC8326E1
BD9C67B2
3DB41758
BD89925D
3DA81967
3C150221
3C99299D
3D02FE4A
3D6410D6
BDA95E89
BB92875D
3D44EA9B
3CBC1E1E
3B969CEB
3D26F87A
3DC5296A
3D277ACE
3CC36F7C
3D03AAF5
BD1B810D
3D99C45B
3D076639
3C731AEA
3C931D13
3CD0AA78
3D411A77
BDDEE342
3DD4CC90
BBD50EE8
3D992B41
BD9D35B8
3EBE9190
BC971754
BC84DDC5
BB01629A
BD322F45
3A8A1BE7
BD988D77
BC85D4E1
BD2DDEA0
3D3F98D7
3D73D64E
BDC49D24
3DA1DAA7
3BDED4B1
3D3C5A1E
BDFC0054
BD39873D
3C4DBB54
BD30281C
3CA9CB35
3D62416E
3D831D17
BD5F5B0F
3D439C7D
BD649EF6
BD8B5848
3D2A8918
BCC98900
BAA4F2E9
BD32DA6B
BCB82A13
3BD6E163
BD90673D
3D1DFB53
3D986A27
3D47F9CA
BCD80E7A
BDD1FF57
3D6B2253
BD88065D
3CE44BCA
3D75A579
BD96050E
BD776773
BC1A0F1A
3C5D495C
3B90E2A8
BA0792AF
BD752BBC
3CB37208
BDA68C74
BD6317BD
3C33385C
3B6E6BCC
3D1CF891
BE1DD86C
BD83FAA5
3CC0AEEC
3C0A3BB2
BBB9E479
3C26246C
3C89B19F
3D61B3B2
3D116690
3CF87EA7
BC820DD7
BD0A3F4E
BD49479A
3D99CC63
3D180E51
3C6ED39D
3D8161D5
BD07A0C1
BBF3C9CB
3CC1E208
BD830B4C
3CBD3799
3D5E91EE
3CC14097
3D38574D
3D9AC6D8
3D9167FD
3CD22A6A
3ADCEB7E
BD59E691
BB346363
3CEC7996
3DB638D6
3C80F40C
BCF6B80D
3D314FB1
3D1891CA
BDF07025
39C0BB6B
3CF02EDC
3D227E52
3C803677
BD42A780
BD445278
BDBDA9F5
BC2D2760
3CA81334
BC2A1385
BD2673D2
BD59EE23
3D7DC304
BAE8E8B7
BD80F212
3DA392A8
3CE06B9B
3CC08EE1
BD3CFA92
3CBDD025
BD2692B4
BC0E6802
3A6094CA
BC8745EF
3D03409A
BD5E400C
BDB9AC21
3BD30AF5
3DB30CBD
3BA6C76A
BD572197
BD4A79F9
3C80C4C1
3D17E5E5
3C0A628D
BC001E6E
3CBDAE7C
3C5A9E92
BCD84A44
3D8263C5
BDC5788B
3D29349A
3CACE648
BDB8B02F
3D2B8E49
3DAB4051
BDAEB516
BD3F10B7
BD9BDCF6
3DBA2F3F
3D5483FB
3DB6FD94
3DA16073
3C99457C
BD5FFD3E
BD0DE579
BD2EF2DF
BCC6A02D
3CBCA568
BC255D07
3CF00C0C
BC74AD46
BBA0D0B9
3B7BF998
3CB5B350
BD99443A
3D903DE4
BDB8411C
BCFDD395
3DC0C14D
3D526BD8
BD4BF549
BDA630F3
BCF06431
BA2E3E5B
3DB2B851
BD6A1C69
BD5BFD6C
3CBC194B
3C7C69E9
3C8E7B89
3C664B03
BC5D1C05
3CF908EB
BD700112
3DB9CA38
BD4C1F20
3D6D7BC1
3D9EA4ED
3CF5B6F1
3D2095FD
3BC16052
BDB13F2D
BC8C7BA9
BD867269
BCE4F65F
BD825D34
BD6A53F7
BD71CE34
3D358139
BD8BDCF8
BD64E3A7
BD8164B8
BBDCD4F8
3D6F5543
3D9DD7AE
BD2E8E6E
3D832F8E
BD2928AB
3D7E47D7
3DC4A8A9
BC87E969
BC9DCF43
BD8667BF
3D3262B1
BD4A38D9
3D12576B
BD050EC5
BC30D697
3C7BBFCA
3CFDBA96
BC921846
BB8F0319
BDA799F4
3CDF405D
BE3FE217
BD41DEF8
3D8A39D5
3CD9A919
3DA5957E
BD67CBD7
3D8DC8D9
BDDFC67C
3DDD12A3
3E242D1A
3EFC00A8
BD0DEED6
BDF66A98
3DFF41F2
BE512890
3DF4592B
BE75B292
BE4E8907
3CECD937
3CA2C3FA
3E1BBFFF
BE5E41E9
3DEEAC0D
3E27B25A
3DFF8104
3E1DB8F7
3E138C4E
BDE39F77
3C1C0C4A
BE6C9F5F
BE2694B2
BB726CAB
BE0E5449
BEA763B2
BE2CAAA5
BE8453A0
BE4F3117
BD41360E
BE0E0675
BD632EA6
3CCE4EC8
BE86CFBB
BBFDB350
3E01CC32
3D163CB5
BDBA2B9B
3D169451
3EA57901
BE29D841
BC398857
3DCD0983
3DE4DC08
BEA0349D
BE0FEE76
3E25FC2E
BE0EEB69
3E12B66B
BE499319
3E57D04A
3EBA03E0
BD71A658
BC8DC3F3
BD26F33F
BD3FDDE6
3E632456
BDAB5219
BE1FDAFC
BE1F137E
3C310465
3E65C238
BE5ADDF3
3E72097C
3CE9D20B
BDE8834F
3C284D3C
BE69E456
3D747A6B
3D148B73
BD470951
BC341E40
3DBA4783
3E685066
3E224DD3
3C461D10
BEBCE8BF
3DF2E092
BDDA280D
BD5C341B
BD350749
3DC59598
BB9D1D2D
BCDE8F17
3E30B82F
BE7183A9
3E9B1A1A
3CBE97E1
BD561441
3E0BAEEF
3E9A4166
3E2DE9CE
BE1CAADA
3D946F3A
BE88253D
BE049A64
3E1FD178
BE839464
BD071C5F
BE38D775
BC946268
3DAE30AD
BE50D3D7
3C53C2C0
3D5FBA5D
BE2F6EAB
3CAB73A7
3E675D5E
3EE47BDD
3E38E531
BD82E2C5
BD007C8D
BC298372
3E57D11A
BCC1EF33
3E0C9625
3E534048
BD02AF22
3E17894D
BE16DFD3
BE647B32
BD766D6D
3E37B2CC
BE209EE3
3EA66C13
BEC64F62
3E557CBA
BDAC139C
3DBAF64C
3E34C6C5
3D55BC6D
BCC32C85
BC777CD9
BDF763A2
BC0C7FFE
BDF0B4AB
3A779632
BD5982AE
3AFAC265
3C8A4A31
BD3BC9F3
BC4DD81A
3BF0C916
BD683792
BC815A83
3D7A1446
3BFA762D
3D64E001
BD68E66E
BC21C6D5
BCCA0765
3E2A5F0C
BDA268FD
BB58A048
3C04DC9E
BD2A0517
3E0928B2
BD425EE8
BD191969
3DD2ADD2
BD95533C
3C171F6C
BE010372
BD1CF216
BD87E35A
3E1E995C
3DAE6027
BDB96A8A
3C7CCF7F
3E43B943
BD2CA639
3E21D1FD
BDBD7789
BF3CDAFA
BE9BA67E
3D355E84
3DD1ECBA
3DC62BD0
BD7124EB
3EBF732A
3E9578D2
3A53B68B
BC6621A8
3DFF6754
3D3DAB9D
BD4EAEDF
3E209F62
3CFE5E7A
3E0A1449
BD1DA9CA
BDC238A6
BDD0EB9D
BCAC826A
3E623465
3DA34D2F
BCBD274D
3C8C1872
3D845581
BD649C11
3D89A71A
3E83C8DC
3E00D34A
BC85D99E
3E4D268F
BD932A5E
BDBBDEBA
BD4A993E
3E92C9F0
BCBF1B19
BD96699A
BCD9CED9
BE34FCC6
BD30E1E0
BD0DD907
BD865AB5
BC204669
3CFD9603
BA7121F3
3DD8AC77
BD306464
BC64EECD
3D92F29C
BC80C7B1
3DFB1CAF
BD0EC5F6
3C82D903
BD8DD3FF
3D965A00
BDEAD498
3D59950F
BD4F8193
BC96AC4A
BE9D2EB9
3DAAAEE7
3C9B0A52
BC8F52C4
3C664686
3E23931E
3CDF17AD
3DE1BDCD
3C21EFF1
3E384197
BE6BA02C
BE6EBC04
BCD89BA3
3D0D1D8A
3E1B8936
3D8DA778
BD58F544
3E0CBDC1
3D926E29
BD0CE87E
BC9B2AAE
BE814FAA
BD3A4508
3DF4884D
BC81605D
BDAC228B
3E45675C
3D88E81D
BDA8A61A
BDA39AB0
BDCE8D04
BC474B03
BCE98753
3D11FF61
BCFF5789
BDC6C994
BD82F850
3DACC540
3D250332
BC4B5FF0
BC7273DB
3CD85D54
3C21C273
BD522B56
BD22957F
3D8E32B5
3D10E30C
3D9D3E58
BCEE3D1F
BCC9FC99
3C1BD314
BD83F8C7
BD4DB939
3C19355A
3C0EE607
3B900BEF
3C4BD683
BB8831F9
BC93666F
BC3F6774
BD997B9C
BD794747
BAB1A8EB
3D77FA8B
BB90D622
BD1AA964
BD52FD89
B571519A
3C95E651
BD56322E
3C0B7464
BD96473C
BD280D8E
BC9A9E26
BE06D7DB
BDA741E6
BBB85A4F
3DAD577D
3D9166DC
3C88A332
3BAADE05
BDFBA981
BD157578
3D5D1915
3B871207
BD91A07B
BD870878
BCD4F0FE
BD2B9971
3DBC121D
3CB825F7
BD18ED64
3C4F9158
3DA9A6FE
BD06CBD1
3A84CAE7
BCF20A69
BD6CA4C7
BCD0ACF6
3CED1B9C
3CBE46A8
3D7E4883
3D6AEB46
3CA0156F
3D55D7AB
3D8570A2
BD4D9EE7
BC864C7B
3D093B93
3A3888EA
3CAAAD12
3CC6DF1D
BDCEBFEC
3BD47A3A
BD35ACEE
BC0F26EB
BCCC2CEF
3C9A0F2B
BD4A4345
3D9DD992
BDB75E99
BD9CEC71
3D9BC77C
3D000818
3D63747F
3DDD736B
3D982441
3A93810D
3CD70E29
3CE9029E
BB87CEAB
3DC1A75F
3D0CEDD7
BC59CB0D
3CE5BD1E
3CF0EA33
3C633E33
3BDCFFBE
3D7A102F
BC17ACA6
3D092F99
3D891181
3C6AB409
BDA543E4
3CF85333
3BC6553C
BBED2DB8
3C9379D0
3CC7229F
BD83B202
BBE2AB7C
3D93B450
BD418792
3DA05BEB
3D86690E
3D90C38D
3DBB72BD
3D85D38C
BDBDF703
BD394EA0
BD0411AA
BD342640
BCF38D3B
3D314E74
3D326682
BBE77070
BE84D633
BD80731E
3DAFC4C7
BC98839A
BDCDAED2
BDE890E3
BD6BD012
BC56FDB3
BD31315B
BD927FB7
BDC0C170
3D0B14DF
BD1F5D91
3D6ABC29
BCE9FD09
3AAB8E1F
3D94C7A5
3D4632AA
BB1A9C4E
3E1C8069
3D335542
3C2F5BEE
BD292210
BD49E56F
BC5DD9A5
BDDA068C
BE10ADAC
BD612D6F
BDCDB47C
BE0FD86B
BD00F5CC
BD9F94BB
3D88F2A8
3DB72D90
BCA8EA1A
3DE148C8
3C8796D8
3C16F764
BDA9C29C
3DC6F391
3D3D97E3
BE6C47AF
BE457EA3
3DBED4E3
BC1AA0CD
BDFBAFE7
BDA5A889
3E9271C7
3E0DA24A
3C7C11DF
3CBFA170
3DB50659
3D5C9E31
BC70EAFA
3D3318FC
BC94D0D8
3C4A6447
3CB1CA2D
BDE0C898
BD8D0E41
BCB2928F
BD1495A9
3E10167E
3D65ED68
3DA4A469
BC0A4F61
3CD21CA3
3D234044
3C1424A8
3DAC17A3
BD843F89
BD1C9F00
3CF825F1
3DE0321F
3D346103
3DF031B4
3CCD1455
BD69869A
3DC1F521
BE3678CD
BE4CB111
BD485BB1
3DA9D8EA
3D95A1AF
3CEAB84B
3D4F6F0E
BDED10BF
3DCB7029
3D854A22
3CA7FC94
BD47FD22
3C9821E0
3E111248
BE29278B
BCC6435B
3C450B83
BE808BCD
3E1142C7
BE0AAD6E
BCFCD162
BE239A0A
3D5D06E4
3CB11A24
BD70EE4F
3CED0638
3DBEB2F5
3D2EECD5
BE13D400
BC2D72B5
3E8E642F
BD1F00DC
BD66268B
3DA9CAAC
BC9BAE7C
3D98C6DA
BDD7CB71
BC8D992B
3CDE1402
BD3CDD71
3D839F53
3CD94678
BE2CB253
3BDED384
3DEE761A
3D09576A
BCD570B0
3BE0FC80
B9489467
BD18D249
3DCAEEAD
BD05F73B
3DD824E2
BBF12923
BE3BEADC
3D1C685B
BDF033CD
BC32C936
3CF513CE
BD4CE0EF
3CF8C24E
BD7BA36A
BD895091
3DCF0D41
3D05A627
BDAB4488
3CB90E54
3D7D6638
BCA5195F
3DD417CA
3D97CBC8
3D3F27BE
3CEE9D31
BD86165E
3BB69960
3C3385DF
BCBCAE26
BD31F591
3D148F1E
BD96111D
BD684162
3D9D6DF5
BD566BDD
BD97FBE1
3C6553F7
BDC11608
3CBF6124
3C92FB95
BDA504A8
3C02D5F5
3CD754D6
3DDED8D3
BD06F3C8
3D6CEFA5
3D37E3E2
BDFCFED1
3C3CF3FC
BD177FE9
3CA234E4
BCCF1BC2
BD4AE8B2
3D9E1230
BD9D99B6
BC9C7135
BD685297
BBD869BB
3CCEA9C1
B9EEF26D
BD6D6DA9
3D835198
3C953501
3D803D56
BD2A2647
3C866966
3D1B9306
3D325258
BC896C45
BD85AADA
3DB3CC95
BDB2173E
BBFDFA6C
BD75FCA7
3D04BC9D
3B8A26EB
BAFE162C
3DFF32CB
BCA83E93
392FF258
BD942374
BD1394E3
BD1A994E
BD6A8123
3D6671CC
BDAF7BEB
BDCB0A7C
3D29866C
BD265BD7
3DAA1E83
BD190E84
3CCBFAC0
3C9F33C8
3D4DC9AA
3CA44778
3D8938EF
BBE99DCF
3CCE6C54
3E0B6461
BC8429FB
BDE18FB8
BD269D18
BD51E22B
BD160596
3DB4A6DB
3DC06B2F
3D826E79
BDC18C51
3D8C6DC0
BD342368
3D691967
BD587750
BCC7F3AF
BDD582F7
BBC76890
3DF76D1F
3DAF8C6C
BB12A9F7
3C0838A4
3D195A8A
BBE9EC29
3D5A54E3
BDA75508
3D64971E
3D911079
3D98035A
BCDE6F5C
BD8D1775
BCEB535B
3C17E5F5
3CC32915
BD370410
BDCD546F
3BF1AF9F
3D5E0F3D
3AD2F369
3D05A721
BA401869
3D6D1DC5
BC4F4FEA
BD47B3E4
BDA0AF23
BDD39B2B
3DC159B4
3D9C6A22
BCEDB57B
3D5966E7
BD3A8775
BDAAD836
3D5FCBC5
BD55EB09
3CC16510
BC5FD82D
3C5CC2C4
3CBF1D21
BD4BC289
BD15A1CD
3D029FC8
BE27C343
3D3D9936
BD7CE836
BC01BEE2
BD53F7AC
BC8DC9F2
BCB83A89
3D19110B
BD7C6D2B
3DA0E23F
3CA4F1E7
3DCC2BB8
3DC556DA
BA99F432
BDBEDA5B
3D62EB4F
3D91FC51
BDE0416E
3E072728
3E022FF1
BD8790C8
BD59F4D1
3E7F8268
3D035D95
3CC02E18
BDAB8CA3
3D56D35E
3DB77668
BE09C623
BE5ACC5C
3D24307E
BCCBBDB9
BD49D33B
BD2DDF24
3C9D7AC5
BE0C8DD5
3D109E8E
BDD5EE71
BBB3ED4D
BD28C53E
BD39A3CD
3C6D538B
3B365C48
3D85BC75
3D91DBA1
BC89003A
BD457D8B
3CB8F11D
3C9911BF
BE557FDF
BCA67C16
3D7088B9
BD9E61AE
3D88D614
3D8DA766
3CB36954
BDDEFA03
BD175402
BD703B2C
3D379A1D
3D7B1FB1
BD9376F5
BD8AC220
3D90CFB1
3B74D39A
3D6889A7
3D18A4AA
3C979E47
3D6FEAA1
3D6BDE60
3D308DEA
3D08E956
BC69117C
BD59BC9D
3D8152F1
BDDFF010
BCC228E5
3D1224C0
BCF05177
3D9CCCA9
3D18E59A
3D97FB59
BDA1FA5B
BD1C1C71
3C9DBB88
3D0FEB0F
BD9998EC
BD3572F4
BC8916C5
3D9ACAEA
3CA61533
3D2D4944
BD12AA5F
3D51813F
BD3B5E60
BC763EAB
BC835DB3
BD02E822
BDD774B9
BCC85CFC
3DA645F6
BD019A47
3D81606E
3CD6C254
3D6F037E
BCEC290E
BD73D493
BE271F94
3D9BD848
BD686D5F
3D8F727F
BA1BCF56
3BD6CC66
BDB0B98C
3D21F2E7
3CA33A5D
BD9D4A46
BDFCF0D2
3CBB06E7
3D8C9D5D
BD7049BA
BD3417A5
3DA8BDAC
BCD5479B
3CDD9EF7
3C81B6AF
3DAD489F
3CCF0E91
3CC21C0A
3BD5EA31
3AE9F8E0
3D893C68
3D4466AF
BD7844D0
3DAB2D86
3D9A65BB
3D2331B9
BCB6FF00
3D6F20AA
3D72A010
BD99B5C9
BD75F225
BD83D0DD
BBBEEB8C
3D4C3E5F
3E0274AC
3DD31FF5
BD427325
3D3BAB9D
BDA621F6
BC87ED3F
3DAF1314
3C015D2F
3E0AD729
BD8DA83A
3DAF042F
3E08785A
3D725B6D
BCBB3154
3CD7E575
BD297DB5
BD7456F5
BE31BC19
BD9401A2
3CEF7D66
3D2F2384
3CCDB1EF
BD967FA0
BE0FE2B1
3D500BF4
39B37465
3CED1592
3CC89179
BD250B9B
BD2E9908
3C9F1778
BC6A601B
BD2A544A
3D4F32CE
3DAEB2BA
BD86E3F9
3D688C1B
3C107347
BD87DFB4
3C082C7B
3CE25AAE
3BC0C90D
3C48A703
BD1DB1ED
BD15BAE0
BD840383
3C455D77
BD69876B
BD0F431F
3C739C7A
BC1A8B9D
BC9C093B
3D64945F
BC9ACF64
3D9B8956
3DDD4BAD
BC2BE084
3CAE9BEA
3D8AF96F
3DD53643
3DAC8028
3E00EE8D
3DBA9C07
BDB03AE5
BCEEADEE
BD20EA59
3D4CCD4B
BD3DB634
3C07F635
BCDE06DC
BD35C488
3D555837
BD583C85
3D8CBD12
3D71771B
3D62EAD6
BD13586F
BC8F6792
BB8699CB
BCE14D22
BD25C6E7
BD89A838
3DC89DC3
BD8D558E
3C9168CE
BB0C225E
BD205D05
BC906BC8
BDA01DC0
3DA56C55
3DBB8A37
BD7A55DD
BD228373
3CC14A98
BD245CF7
BD6C712A
BD00F119
3D843449
BD50C420
3D975904
3A474D89
3ED18A18
3EBB7139
3EA46789
3EAB7F17
3F2C4382
BF19A094
BED9ADA4
3DE22CCB
3D8A873E
3EBC97EA
BED65AB5
BEEF8986
3E691926
3E1E5908
3EE97954
BEFAD942
BDAC1732
3EC8F1B2
3EBDC535
3EBF9248
BE6D7181
BEA66619
3EEE5D33
BCDB1057
BEDFBEE2
BE88F80A
BEDDF8BF
BED9A7FE
BE7AAD60
BE5C2F98
BDB7D046
3E1D1C92
BD1E1F8B
BE9B4DFA
3DABE3E8
BE95869C
3D3F60C1
3E9C96CC
3E9BF79D
BF0D99B3
3D5A2499
3E5AF109
BFA5F330
3E4CEAA8
3F02B150
3EC7A259
BDECD59C
BF140903
3E94C46D
3DFF3BB5
3F069C83
BEA15948
3E9E5292
3E5C5473
BEF5DFF9
3F45C2F1
BE81C5C5
BE33D3EC
3EED579E
BF5A023F
BE6AE6FF
BE6F548F
BEC30B9E
3F0CF3F9
BEFCE97E
3E69BF96
3EEBA098
BE80D4B7
BE718301
BEEC7ADE
3F285CB8
3F0AED0B
BE829FE3
3EAF14CE
3EDF64D3
3F042473
3E8EA8CA
BD4F044A
BED9B740
3EFA4EAD
3E2D0339
BEAD2302
3E36BE3F
3ED929DC
BEB33736
BE044835
3E181395
BEFC072F
3E79C180
3F011468
BEB01623
3ED62EAE
3D8790C3
3E82CD8E
3EE0A23E
BEEA93D1
BE6627DA
BCB83F8D
3E91F27B
BED9533E
BF03D317
BF02BC7F
3D2AEA37
BDF967BD
3E0C1D4B
3EB7AE9B
BED08A84
BEAF29F2
3E94034A
3EF39DE8
3F4A4D52
BDA61AAB
3EA25C55
BE9918D6
3EC3E38F
3EFF0BDE
BEECAD3D
3E955084
3EFB360F
3EB37A12
3F046875
BED2F16A
BF829F1F
BEBC95EC
3D1873CA
BE854640
3EC7DCDF
3D99DF3A
3EDCE103
BE3772C8
3EA49F22
3E4B20BF
3E8DC128
BE174F80
BD759B6B
BD89A5A3
BD467372
BD517695
3DCB1F82
3DFDD30D
BD9A7240
3DF36842
BD7A8242
3CD1CF35
BC3E1D9D
BDAF7A50
3BA5ADCF
3CCFBC71
3CB35181
3D5A9708
3D47117C
BD4381B2
BD45ED5A
BCD16C9F
3BD743FF
BCEE0323
3D8F4B86
BC98688C
3DB927E4
BD84EE4D
3DCB5EAD
3D8F13A4
BC579898
3CFF099B
BDB0E67F
3DBFC86C
3B7D22FD
3D3D1346
3D1558FD
BDF8E6A9
3CA88DB3
3E65A130
BADAD51B
3E2104E3
BE17A9C1
BD48DECC
BDA96934
BE0809BA
3CE51CBA
3D37A1ED
3DF0F868
3DAF2BBA
3E0619C0
BDCFF36B
3D8AF0A0
3DD244B4
BD810B74
3D92FA9E
3D8F991D
BCF1E072
BDF9C114
BDA89BDC
3DB97A72
3CEB54AD
3DE17134
3BED46CB
BC8B5523
3D05B2A7
BB3771D4
BC809EF7
BD57F252
3D7535BA
BCBB5B76
3BC17CCD
BD010F34
BBC20461
BD9D2D74
BE03D3C3
3C32F4AA
3E993C1F
BD078D20
3C172C56
BE3E9094
BE143435
3D8D96B0
BDE4A88C
3CD57C6E
3DA05E42
3E15EFE2
BD2DB505
3DD49CA5
BE32D7CA
BD9977EF
3DBAA9BD
BD3DB00C
3E3B2E10
BCA8A1A5
3D2D0CE6
3CFB7E5B
3DBC38B2
BE3FF922
BBEE44C0
3C389487
3D96E5D5
BC365E16
3DDCB4CA
BD806D6D
3D8517F0
3CBE6A99
3D81931B
BD62AF55
3E145239
BD7D80C7
3CBEC9DA
BD47CD3E
BE5B90F8
BCE99C76
BB8E6277
BC26B33D
3D686A65
BE315DD5
BC9C2641
BD00C28B
BDCE3E95
3E3B825E
BD079CCF
3D896252
3A3DED2A
3DBFAD17
BC87AF2C
3C196357
BDCFF767
BD9EC779
BDE32CCE
3DB125B5
BE0FCA0D
3DD386B8
385854CA
BD1D3B9A
BD335A28
BD9565FD
BDFD5B68
3CCB4370
3DD828DE
BD3E4C36
3DFC28E8
BDF74DC5
BE054D9E
3DD0614F
3C4C31B2
3D255728
BDA33EA8
BDE69538
3D86D518
BC5B282F
3DC641E5
BDA4EF83
3CD6FBF5
3D2221F9
3DCE3E37
BDACA9D9
BDD8D8DF
3D2B1D12
BD6047C6
BE054F37
BDCFD09B
BDD73373
BCBBD9C6
BBB18228
3D89967A
3C1CD9E9
BD283C8D
3D0DDA7E
BDABD382
BCEFFF3C
3D70801B
3BB58D1C
3DCFBCC9
3DA0747F
3C04B50E
3E0A4B5C
3D88444A
BD48239D
BDFBED16
BDA839F6
BE37F463
3BE54BF2
3C46237B
3D872550
3DB151D5
BD8FC6D8
BDBCB623
3D56C4E3
BDB4D900
3D384325
BD2C2027
BD40A51F
BD2876FD
BD8CE195
BC692741
3C318F4F
3D2E3FC9
BC9260DB
BD58068A
BC75DC1A
BDE66C96
BCA06EEB
3D6D2207
3D4E15E0
3DAA8D8A
BCC73BE9
3D93CC6E
BDDD61E8
BCFCA9AA
BDD5AEA3
3DF2E078
3B4C8EB1
BE1C810A
3B85FE02
3C2EF5ED
3C3ECE27
3B4B67D0
3D834711
BD8F3588
3D1937BF
3DC0F1B2
BD8CC286
BD5148FB
3D636CED
3E420FCD
BC96683C
3D9FB7DD
BDE7BD71
3E129400
BD262800
BD49339B
3CDCA212
3E37337A
BCDB1F81
BCD26FD4
BD99C085
3D69C254
3D1CC41B
3BC352B7
BC89AB2A
3DDFF5B9
3E0C58C0
3D780324
3DF2E6C2
BCAA3CE0
3DDB8EC4
3CB7A6DB
BCFD4A94
3DC4E4C8
3C143A17
3D564B76
3DC7595C
BD88D043
BD09FF73
BAE2A8B5
3D9C08C2
3C1256D9
3DCDA8E5
BE3E425B
3DBE5F63
BD8FDD06
3D4035BD
3CBC397C
3CF0733A
3DA9080C
3CDC6F27
3D81098B
3D9825DB
BEA3DFF4
BD5E7046
BDCFA78D
3D7BB1B7
BDA1376D
3DDB668E
BE1E7338
3BA696FA
3D8C3A29
3D2D9A6D
3CD40CA7
3C8D97B3
BDB1212E
3DA22561
3D1DBA12
3C0A6DE6
BE20AFAA
BD645CAE
3CBE1AB8
BDCB5E0E
BDB082A2
BD19AFF7
BD82D1DC
BDD9DA3F
BDF7DEE4
3C1B2234
BD1762DE
3DD4B663
3D9F31DA
BE612062
BE1FC3AE
BE098F02
BCB3F7A9
3D191E5A
BD8CCA8A
BD0963CF
BDA6654D
3E0DB566
3DCCCA13
3DD04E6F
3D8252C9
3D0D9A4A
BC0E9A16
BE1BCDA8
BE27E282
BE802B9F
3D317C54
BE02021E
BCB5B4FE
3DDF299E
BD78F9C7
BCC3AB05
BDAAC4B1
BEA7FCB9
3BFE1447
3CFE752B
3BA774B7
BD9F9875
BE6E83BC
3E222D7A
BD1CC332
3DFC5500
BD8A6674
BD53CDD8
BC391D83
BE97852C
3C3D6C88
3D8EA053
BEBC0DE8
3C5E9059
3D780BAD
BCF98ED2
3E16577C
3CED1FE9
3C98107D
3D16B711
3E8E9538
BDC14C8C
3DA006C1
3D8B3306
BD1CB0D3
BC882D30
3DFA99D2
BE04CC40
3D0F72D7
BB64F511
BDCACF7A
3E7D06C9
BE254584
3DC64B81
3DD8992C
3C1B2A6D
3BE451B1
BCBEF9A0
3D7616F6
BE470F82
3DA4C027
3DEBF9B9
BDC8E07F
3E091EC2
3CFC82BD
3CD2E09D
39FEE4EE
BC69BB90
3BB5090C
3C4063F3
3CBF2783
3E17275D
3D59F834
3D8689BF
3DD642F5
3E10EA9E
BC25456A
3D6CCEE6
3D88F42B
BCD593EB
BC8B19F5
BD25BF5A
3CE46AD9
3E1AF4D6
BC24F2BE
BE2821CA
3D80D8FF
BE9D72DB
3D6B2499
3DB77083
3E429DE2
3E7C5D1A
3DEF3BA7
BDF25A9E
BDA1736D
BD09B8C4
3D2F8A4F
BDBC15B9
3D886484
3DFBCADA
BE4BABF2
3D59DCC8
BD398F25
BC04A923
3D62F5BC
BE2FD7D7
BDC67937
BDE0990A
3CCC8EFA
3D53018D
3CCE34F2
BD628934
BD4A3467
BE16D770
3E12CA4A
BDA5B6EA
3DA7EDA9
3CB9CA71
