BCDDA237
BCE067E5
BC1561DF
3CE4EFB9
BB4B991F
BE14F484
BC2A66F1
3D5333DA
3D98CA07
BD0061B8
3BFD5648
3DA9F131
3DE9B789
3D952B0A
3D53F0BB
BD6E3CEA
3BE2DD54
3BFBF9A7
BBF523F7
BD99FA20
3CD56D25
BD49AFE5
BCB33F68
3DEBC2B9
BD9F1F98
BCBFEC2F
3E047135
BD013C33
BE39F094
3DDFB613
3D6B72A2
BDDE4276
BB938CCE
BC7B8877
3D0FD8BB
3E274E3D
BD0B37AC
3BB59DFA
BD11A68E
3CAAC0C3
3C2D46A0
3D7C2F50
BD935CDD
3DDBE879
3D9CD4B5
3D6BEBE9
BC22D27C
3D6A7B41
BCDFD00F
BDD38AB4
BD94A5B0
BDC67D4C
BCAEA6ED
BB421190
BDD24222
BE0FBF68
3DCA2BA1
BDD68F08
3DA0814A
BE103D07
3D170703
3A0389C0
BCD10B76
BCDDF23E
3D17D37E
BD847D77
3CF8965A
3DD79273
3DA677A6
3DCC6550
3D146FAC
3E280FD5
3CDCE4E3
BDA80414
3D4D8C1A
BDA073D3
BDCE85BA
3C9E82C8
3D91520C
BD89DFEC
3D68CFEB
3D37A403
BDC7D0B8
BB8C9A5C
3CCD7294
BCD0B961
3D8FC56C
3DA219F3
BDED6891
BB8DB8AA
BDAB5F52
BD63D80F
3D82C4B6
3BFDDA4E
3D1406F0
BDA7B91F
BD17E47E
BBF34314
3D98330B
3CD2BC35
3C7A6353
BDC20F27
BD2B488E
3C0512F8
3CFB31C5
3D2C559C
BE5146D1
BE0DC7C0
BCB24F9E
3C77C2CF
3C322A3F
3B62D8C6
3C8F96BC
3DAFCD58
BDC646CA
BBA8FC7F
BDE9F5B8
3B9B8C83
BD5A3464
BD53971C
BD89C44A
3CB323AE
3E4EC3EF
BCC0D2D4
3CA57901
BCB42D23
BBB719DB
BCFABDF7
